[PAD]
[UNK]
[CLS]
[SEP]
[MASK]
[ENT]
[\ENT]
!
"
%
&
'
(
)
,
-
.
/
0
1
2
3
4
5
6
7
8
9
:
A
B
C
D
E
F
G
H
I
J
K
L
M
N
O
P
Q
R
S
T
U
V
W
X
Y
Z
[
]
`
a
b
c
d
e
f
g
h
i
j
k
l
m
n
o
p
r
s
t
u
v
w
x
y
z
~
·
é
–
‘
’
“
”
․
‧
▲
△
〈
〉
《
》
「
」
・
ㆍ
㈜
前
南
國
大
山
故
文
明
李
氏
王
現
皇
軍
金
가
각
간
갈
감
갑
갓
갔
강
갖
같
개
객
갤
거
건
걷
걸
검
것
게
겐
겔
겠
겨
격
겪
견
결
겸
겼
경
계
고
곡
곤
곧
골
곳
공
과
곽
관
괄
광
괴
교
구
국
군
굴
궁
궈
권
궐
귀
규
균
그
극
근
글
금
급
긍
기
긴
길
김
깊
까
깨
꺾
께
꼽
꽃
꾸
꾼
꿈
뀌
끄
끈
끌
끝
끼
나
낙
난
날
남
납
났
낭
낮
낳
내
낸
낼
냈
냐
너
넌
널
넓
넘
넣
네
넥
넨
넬
넷
녀
녁
년
념
녕
노
녹
논
놀
농
높
놓
뇌
누
눅
눈
눌
눔
뉘
뉴
느
는
늘
능
늦
니
닉
닌
닐
님
닛
닝
다
닥
단
달
담
답
닷
당
대
댓
더
덕
던
덜
덤
덧
데
덴
델
도
독
돈
돌
돔
돕
동
돼
됐
되
된
될
됨
두
둔
둘
둥
뒀
뒤
뒷
듀
드
득
든
듣
들
듬
듭
듯
등
디
딕
딘
딜
딩
따
딸
땅
때
떠
떤
떨
떻
또
뚜
뛰
뜨
뜻
라
락
란
랄
람
랍
랐
랑
래
랙
랜
램
랩
랫
랭
략
량
러
럭
런
럴
럼
럽
렀
렇
레
렉
렌
렐
렘
렛
려
력
련
렬
렴
렵
렸
령
례
로
록
론
롤
롬
롭
롯
롱
뢰
료
룡
루
룩
룬
룰
룸
룹
뤄
뤘
뤼
류
륙
륜
률
륭
르
른
를
름
릉
리
릭
린
릴
림
립
릿
링
마
막
만
많
말
맛
망
맞
맡
매
맥
맨
맹
맺
머
먹
먼
멀
멋
메
멕
멘
멜
멤
며
면
멸
명
몇
모
목
몬
몰
몸
못
몽
묘
무
묵
문
묻
물
뭉
뮤
므
미
믹
민
믿
밀
밍
및
밑
바
박
밖
반
받
발
밝
밤
밥
방
배
백
밴
밸
뱅
버
벅
번
벌
범
법
베
벤
벨
벼
벽
변
별
병
보
복
본
볼
봄
봉
봤
부
북
분
불
붉
붕
붙
뷔
뷰
브
븐
블
비
빅
빈
빌
빙
빚
빛
빠
빨
빼
뽀
뽑
뿌
뿐
쁘
사
삭
산
살
삶
삼
삿
상
새
색
샌
샘
생
샤
서
석
선
설
섬
섭
섯
섰
성
세
센
셀
셉
셋
셔
션
셜
셨
셰
소
속
손
솔
송
쇄
쇠
쇼
수
숙
순
술
숨
숭
숲
쉐
쉬
쉽
슈
스
슨
슬
슴
습
승
시
식
신
실
심
십
싱
싶
싸
쌀
쌍
쌓
써
썬
쏘
쓰
쓴
씀
씨
씩
씬
아
악
안
않
알
암
압
앗
았
앙
앞
애
액
앤
앨
앱
앵
야
약
얀
양
얘
어
억
언
얻
얼
엄
업
없
엇
었
에
엑
엔
엘
엠
여
역
연
열
염
엽
였
영
옆
예
옌
옛
오
옥
온
올
옮
옹
와
완
왈
왓
왔
왕
왜
외
왼
요
욕
용
우
욱
운
울
움
웃
웅
워
원
월
웠
웨
웰
웹
위
윈
윌
윗
윙
유
육
윤
율
융
으
은
을
음
읍
응
의
이
익
인
일
잃
임
입
잇
있
잉
자
작
잔
잘
잠
잡
장
재
잭
쟁
저
적
전
절
젊
점
접
정
제
젝
젠
젤
져
졌
조
족
존
졸
좀
종
좋
좌
죄
주
죽
준
줄
중
줬
쥐
즈
즉
즌
즐
즘
증
지
직
진
질
짐
집
짓
징
짜
짝
째
쩌
쪽
쯤
찌
찍
차
착
찬
찰
참
창
찾
채
책
챌
챔
처
척
천
철
첨
첩
첫
청
체
첸
첼
쳐
쳤
초
촉
촌
총
촬
최
추
축
춘
출
춤
충
춰
취
츠
측
층
치
칙
친
칠
침
칩
칭
카
칸
칼
캄
캐
캔
캘
캠
캡
커
컨
컬
컴
컵
케
켄
켈
켓
켜
켰
코
콘
콜
콤
콥
콩
콰
쾌
쿄
쿠
쿤
퀴
퀸
큐
크
큰
클
큼
키
킨
킬
킴
킹
타
탁
탄
탈
탐
탑
탕
태
택
탠
터
턴
털
텀
테
텍
텐
텔
템
토
톡
톤
톨
톰
통
퇴
투
툰
툴
튀
튜
트
특
튼
틀
티
틱
틴
틸
팀
팅
파
판
팔
팝
팡
패
팩
팬
퍼
펀
펄
페
펙
펜
펠
편
펼
평
폐
포
폭
폰
폴
폼
표
푸
풀
품
풋
풍
퓨
프
픈
플
피
픽
핀
필
핑
하
학
한
할
함
합
핫
항
해
핵
햄
했
행
향
허
헌
험
헝
헤
헨
헬
혀
혁
현
혈
혐
협
혔
형
혜
호
혹
혼
홀
홈
홋
홍
화
확
환
활
황
회
획
횡
효
후
훈
훌
훗
훼
휘
휴
흐
흑
흔
흘
흡
흥
희
히
힌
힐
힘
##자
##의
##주
##이
##다
##위
##험
##군
##재
##하
##던
##은
##미
##기
##로
##문
##에
##는
##생
##라
##협
##받
##고
##임
##교
##수
##정
##제
##학
##과
##치
##회
##복
##여
##부
##전
##마
##블
##시
##9
##개
##어
##즈
##월
##안
##사
##졌
##성
##민
##지
##방
##차
##구
##건
##강
##적
##영
##철
##0
##2
##4
##년
##까
##인
##츠
##충
##격
##파
##러
##벌
##을
##뱅
##국
##당
##며
##리
##도
##F
##C
##실
##습
##능
##력
##박
##물
##관
##신
##령
##했
##승
##담
##금
##원
##해
##서
##진
##를
##곡
##피
##아
##장
##찬
##았
##점
##턴
##N
##G
##련
##립
##무
##용
##단
##행
##였
##m
##5
##6
##8
##린
##터
##선
##범
##술
##상
##계
##남
##I
##P
##퍼
##드
##와
##할
##냈
##E
##R
##Y
##1
##환
##섭
##양
##께
##항
##게
##트
##노
##동
##거
##나
##르
##경
##후
##규
##한
##각
##세
##합
##산
##레
##흐
##입
##공
##되
##면
##3
##직
##대
##함
##분
##확
##켜
##내
##들
##준
##태
##키
##져
##현
##가
##워
##틸
##탑
##류
##럽
##형
##촌
##었
##버
##송
##배
##요
##짐
##겨
##길
##소
##득
##론
##딩
##스
##호
##광
##혁
##략
##팩
##야
##육
##으
##r
##o
##s
##된
##외
##비
##왕
##찰
##통
##일
##우
##논
##역
##번
##식
##디
##오
##있
##울
##e
##토
##뮤
##니
##케
##션
##너
##티
##채
##널
##7
##출
##얼
##a
##u
##l
##품
##업
##권
##조
##설
##발
##청
##애
##견
##궁
##달
##브
##보
##컬
##커
##돈
##간
##씨
##운
##g
##n
##i
##t
##p
##순
##패
##밀
##카
##든
##엠
##종
##콜
##표
##타
##벼
##약
##증
##삼
##법
##연
##익
##만
##슨
##윤
##택
##란
##맹
##욕
##색
##옥
##명
##링
##뜨
##렸
##근
##콘
##크
##됐
##감
##히
##황
##망
##누
##본
##냐
##따
##므
##모
##바
##콩
##투
##결
##등
##춘
##싸
##틀
##프
##최
##팅
##림
##탁
##체
##혔
##작
##머
##U
##킨
##완
##L
##탈
##째
##굴
##막
##K
##쿠
##봉
##암
##찌
##귀
##v
##c
##백
##움
##h
##데
##튜
##써
##화
##밤
##별
##포
##친
##윗
##녀
##병
##븐
##퓨
##휴
##k
##념
##융
##락
##속
##반
##음
##답
##예
##검
##객
##활
##언
##닷
##컴
##엔
##랜
##훈
##총
##코
##j
##중
##센
##걸
##온
##같
##얀
##벽
##래
##그
##난
##픽
##H
##악
##책
##메
##혹
##질
##륭
##T
##팀
##족
##웅
##창
##돌
##례
##절
##억
##유
##닝
##처
##D
##O
##록
##석
##척
##S
##㈜
##페
##훼
##급
##튼
##핀
##혼
##셰
##축
##템
##셀
##휘
##글
##삭
##료
##ㆍ
##샤
##폴
##희
##숙
##흥
##앙
##é
##랑
##핵
##솔
##천
##룡
##엇
##킹
##열
##롬
##켰
##벤
##날
##픈
##괄
##독
##윈
##북
##칭
##변
##랩
##륙
##클
##농
##읍
##컨
##님
##루
##퇴
##갑
##곤
##획
##쁘
##매
##f
##y
##테
##심
##률
##빙
##네
##x
##판
##혜
##더
##붕
##돼
##름
##율
##될
##때
##뚜
##필
##려
##룰
##참
##잔
##손
##허
##밖
##두
##른
##렉
##벨
##향
##집
##홍
##묵
##쉬
##효
##났
##살
##빈
##극
##겸
##겠
##헌
##량
##특
##콤
##뷰
##d
##측
##탄
##잡
##델
##캠
##추
##베
##듭
##말
##b
##플
##럴
##평
##돔
##됨
##엘
##새
##뢰
##괴
##초
##밥
##욱
##A
##w
##뤄
##폐
##렀
##칩
##접
##짝
##저
##넣
##흡
##웨
##징
##덴
##곳
##슈
##끼
##갤
##끌
##몽
##액
##랭
##엽
##뤘
##침
##즌
##W
##목
##윙
##먼
##렬
##갔
##좌
##뭉
##팔
##B
##녕
##죄
##륜
##쿄
##올
##롯
##슬
##람
##쳐
##빌
##켈
##톤
##씩
##뷔
##닉
##줄
##M
##X
##알
##맨
##룹
##텔
##캡
##랍
##릭
##풀
##편
##골
##왔
##못
##런
##J
##뜻
##멜
##z
##펠
##릉
##칠
##숨
##궐
##숲
##갈
##꿈
##꽃
##핑
##낼
##쓰
##층
##뉴
##촉
##줬
##랙
##넬
##릿
##랐
##넓
##납
##폭
##쟁
##염
##김
##놀
##칼
##빛
##넌
##샌
##취
##샘
##렌
##십
##룬
##응
##틴
##탐
##없
##넷
##쯤
##롤
##좀
##Q
##눔
##엄
##앤
##존
##캐
##몬
##끄
##딘
##킬
##겼
##럭
##홀
##쥐
##덕
##톨
##몰
##폰
##쉽
##뿌
##흘
##쪽
##멀
##쾌
##균
##툰
##셋
##셔
##텍
##렴
##칙
##맥
##헤
##옹
##푸
##볼
##착
##셜
##돕
##불
##쌍
##춰
##펜
##싱
##젤
##뤼
##낙
##혀
##밍
##램
##맺
##렵
##럼
##잠
##헬
##덜
##죽
##릴
##잘
##즘
##쇄
##뇌
##혈
##룸
##섰
##곽
##겐
##V
##꾼
##탕
##딸
##맞
##놓
##웰
##끝
##웠
##셨
##랫
##빅
##넨
##웃
##큐
##것
##둘
##슴
##묘
##꾸
##듀
##폼
##뿐
##힌
##왈
##듬
##느
##렐
##빠
##잉
##젠
##톡
##숭
##첼
##켓
##낸
##벅
##멤
##붙
##혐
##렛
##높
##틱
##셉
##큰
##쳤
##늘
##컵
##텐
##멸
##쇼
##닥
##힘
##짓
##눌
##딜
##렘
##웹
##긴
##첸
##춤
##탠
##롭
##찍
##켄
##흔
##압
##닌
##젝
##겔
##맡
##쉐
##듯
##헨
##킴
##홈
##밴
##칸
##씀
##둔
##덤
##털
##섬
##땅
##넥
##랄
##뒀
##펀
##펄
##믹
##캄
##힐
##룩
##찾
##떻
##둥
##풍
##쇠
##봄
##멘
##큼
##콥
##깊
##팝
##롱
##녹
##닛
##녁
##즉
##앵
##닐
##렇
##묻
##쩌
##Z
##밸
##캔
##넘
##멕
##뉘
##짜
##꼽
##긍
##첨
##퀴
##앗
##뀌
##걷
##텀
##몇
##튀
##펙
##깨
##햄
##또
##챌
##삿
##왜
##옌
##툴
##갓
##쿤
##섯
##팬
##몸
##밑
##첩
##졸
##봤
##떤
##궈
##떠
##쏘
##핫
##딕
##끈
##흑
##콰
##쓴
##먹
##잇
##엑
##즐
##낭
##앨
##캘
##씬
##늦
##좋
##팡
##맛
##눈
##떨
##톰
##갖
##싶
##풋
##촬
##눅
##빨
##뽀
##앞
##댓
##왓
##챔
##뒤
##뛰
##않
##쌀
##낮
##△
##곧
##빚
##윌
##많
##EP
SEP
##으로
##에서
##했다
20
19
10
##하였
##하고
##었다
201
대한
##하는
##이다
##주당
있다
##하였다
##하여
##으며
##학교
200
##에게
한국
##부터
##에는
15
##민국
##0년
##민주당
지난
대한민국
대표
##통령
##위원
##한다
##까지
##면서
광주
##9년
대통령
##회의
11
있는
12
199
##7년
이후
위해
지역
자유
일본
##들이
##8년
##6년
##혔다
##5년
함께
##리그
미국
##지만
밝혔다
##불어
18
17
의원
##되었다
##2년
후보
정부
##불어민주당
##적인
##리아
##4년
##하기
국민
더불어민주당
##대학교
조선
##시아
##라고
##1년
리그
경기
##하게
##장은
##00
프로
##으나
##았다
통해
14
##하며
##적으로
##국당
##3년
서울
##주의
사회
##재인
##스트
2세
##그룹
당시
##한국당
선수
##들의
##의당
말했다
##랜드
##에서는
##장을
##대표
민주
문재인
프랑
##였다
관계
1세
것으로
##는데
제1
되었다
198
##라는
##되어
##위원회
자유한국당
16
##교육
했다
민주당
##겠다
##사를
24
##방송
##남도
국가
연구
축구
##하면서
##리스
이어
##FA
##했고
##들은
13
기록
대해
지원
사업
FC
자신
이날
활동
시작
프랑스
중국
##되었
10월
##들을
##장이
국회의
##BC
21
감독
##라이
##센터
시즌
그는
우승
##er
##도록
25
세계
위원
참여
7월
에서
천황
현재
##사업
이번
##민주
관계자
3월
9월
그의
독일
교육
선거
##에도
##하였고
##BS
1월
아들
중앙
30
5월
##로나
아이
회장
196
12월
따라
영국
국제
정치
진행
195
운영
##억원
##이자
##이며
##동당
8월
방송
##리고
11월
197
23
같은
사이
위한
국회의원
UE
##on
UEFA
3세
라고
##됐다
삼성
##기를
##리에
##었던
##일에
이라고
##항공
참석
##레이
##리를
등을
한편
##들에게
것을
6월
김대
문화
전남
현대
194
2월
부산
제2
##력을
##하지
러시아
##의회
##졌다
##상을
그러
전쟁
4월
##위를
##기에
22
시민
육군
##리가
공동
소속
##나라
##공화
전라
한다
##an
202
관련
코로나
##국민
##공사
##우스
SK
김대중
##했으며
##본부
이용
##스타
##된다
##원은
##들과
사람
열린
추진
##그램
정의당
27
##인민
##국의
##와의
유럽
##지원
##리학
##en
김영
통합
##하다
것이
비롯
의해
##회를
##버지
전라남도
때문
##자가
##은행
교수
등이
따르
또한
##동차
##스의
##in
공화
프리
개최
대학
된다
올해
모두
전국
##명이
##등학교
교황
##ar
##대로
##연합
그러나
계획
국회
우리
하나
따르면
##자로
##이트
##했다고
이사
##19
##산업
기업
주장
##였던
##르크
자신의
순천
이에
출신
대한민국의
김정
다시
##기도
##었고
##란드
가장
방문
이상
26
발표
사용
##회사
이름
장관
##이스
##정을
##피언
##or
##비스
MBC
경찰
많은
있었다
주민
##연구
만들
설립
아버지
##하자
##하겠다
##로운
##지를
##프트
28
선정
학생
##기업
##되는
##니아
하는
1일
##제가
코로나19
특히
##과의
##대를
등의
##로스
##사가
대상
##군은
노무
시장
챔피언
##당의
##당을
##운데
대회
상황
물리학
최고
행정
##문화
들어
##리는
다른
루이
수상
이라
##제로
##성을
##장으로
##되고
##워드
##운동
노무현
라며
배우
씨는
최초
가운데
그리고
아니
##사회
에드
조지
중심
총선
##서관
##렸다
다양
실시
있도록
항공
##군의
##스크
##하였으며
2016년
##이고
##스는
##식을
멤버
예비
##al
##먼트
2017년
사실
여성
원내
임명
##후보
광주시
사건
이탈
##로서
##했던
##르트
##광역
192
##주시
##스터
##에서도
지난해
관계자는
다양한
정책
##발전
##명을
국민의당
오후
##리즈
##머니
##광역시
하였다
##자인
##지역
경제
##사단
##스가
##났다
2012년
연구원은
4세
받아
알렉
통일
##선을
때문에
개발
알려
자동차
참가
##이었다
##지는
##권을
##명의
결과
공식
새로운
인천
적극
전문
제국
출연
##기관
##당이
##es
2014년
이탈리아
결정
##도시
##경제
구성
사망
성공
창당
하고
##기술
##정치
##원을
##서는
##대회
##페인
공개
그룹
대전
독립
예정
##관리
##소년
##ic
10일
김성
스타
있으며
즉위
##교육청
에드워드
샤를
영화
##사는
##터테
안전
역임
이승
태어
##로부터
##제를
100
전북
##자리
##복지
##인먼트
##분기
##터테인먼트
생활
앞으로
포함
##스를
25일
대구
데뷔
처음
##자를
##이나
191
김영삼
5일
고려
으로
##재단
##약을
경남
마이
생각
세리에
여러
##자의
##장과
##비아
193
9일
제공
##하면
##정부
##시키
##도서관
##대학
##번째
2019년
2009년
11일
고객
김종
시리즈
야구
필요
##의를
대한항공
33
4일
LG
##전을
##보다
##BA
2015년
24일
30일
원내대표
29
것은
결국
동안
로마
연맹
있던
제주
##스와
##특별
2010년
28일
31
라이
라는
모든
주요
##개발
프로그램
당선
바이
받았다
보수
어려
있어
##이었던
##기로
##안전
##스리그
##at
2018년
공격
되어
발생
제작
총장
평가
필리
##다고
##치를
##지고
##당은
##트남
##었으며
##화를
##되었고
2020년
조성
환경
##지로
##디오
2011년
3일
국내
이를
인사
##드리
##동을
##위원장
챔피언스리그
알렉산
기대
브라
요구
인해
일부
헨리
##이션
##철수
##경기
##왕의
18일
강진
광양
기독
마련
비판
선출
오는
##협회
##정보
##대의
##왕후
대상으로
2일
대학교
도시
박정
증가
출마
##고등학교
##시민
##리오
##금융
##세계
##공화국
5세
7일
NBA
것이다
받은
보고
사장
소비
전했다
##사의
##원이
##레스
각각
안철수
청와
최근
##사로
##러스
##체육
26일
결혼
계속
동아
북한
사랑
설명
이적
졸업
##시장
##구려
##대에
##가와
##축구
##한다고
17일
27일
경우
고구려
레이
센트
지방
지속
최종
타이
특별
##전자
##인이
##리카
##직을
##증권
##왔다
의원은
센트럴
K리그
가수
공작
대신
미래
스페인
어머니
여수
영향
정당
정권
##하던
##부의
##했지만
##el
일본의
경기도
국립
동생
매출
모습
수도
윌리
직접
##라인
##부장
20일
2013년
과정
다음
바른
아르
영광
##임을
##과학
##마트
##시에
##도를
##니다
##is
##he
21일
23일
비롯한
돌아
롯데
진보
##이지
2019
14일
##되었으며
22일
윌리엄
가능
건강
리처
면서
베트남
없는
역사
이끌
확대
##기가
##장에서
##계를
##스탄
##림픽
8일
가족
군수
그리스
생산
왕조
이미
전투
##다가
##개의
##안을
##성군
##지사
15일
국가대표
예비후보
청와대
6세
더욱
바르
발전
베이
스웨
지도
차지
학교
##의원
##도의
##했으나
##투자
##움을
이라며
리처드
SBS
광산
노력
노동당
소련
아시아
전주
하지만
##도로
##우리
위원장
기독교
2년
6일
기간
대비
오전
인터
지휘
출전
출시
##이라는
##군이
##임스
##인의
##란다
2008년
공화당
순천시
1년
마지
산업
시절
영업
진출
총리
판매
혁신
##성이
##냈다
##되면서
##스키
##음을
##민주주의
마지막
받고
브랜드
선언
씨가
총재
협력
##인으로
광주광역시
의원이
활동을
TV
대변
박근
분야
지지
활약
##과를
##부를
##it
19일
경기에서
16일
스웨덴
KBS
기술
등에
바란다
서비스
제임스
준비
포르
##이라
##어난
##신당
##원으로
##스코
##카이
앞으로도
과학
새정치
월드
유지
인정
잉글
정보
조직
카를
크리스
피해
##자치
##수를
##제의
##전에서
##금을
##해서
##선거
##트로
##트를
##산당
2007년
참석한
박근혜
기관
기념
내년
내용
데이
번째
않고
어린
역시
역할
전달
청소년
한나라
##자는
##이는
##다는
##관광
##ion
##명한
잉글랜드
거쳐
관광
이하
전년
추가
화순
##건설
##가는
##으로써
12일
후보로
게임
과거
농업
마을
성장
이라는
직원
##이사
##위에
##하이
##라마
##시설
##인은
##가의
##왕이
##티아
##하였으나
대통령이
개선
결성
됐다
등장
메이
비례
평화
##이익
##이라고
##부르크
##단체
##환경
##ou
##ol
##심을
190
미국의
##000
##민주연합
##인민공화국
프리미
계획이다
FI
관리
반대
시간
앞서
연합
우수
이정
이유
페르
확보
활성
회사
##정당
##노동당
##스티
##et
##조선
##포츠
##중앙
중심으로
박정희
국가대표팀
35
계열
등과
문제
예상
이전
이해
주관
체결
클럽
해당
호남
회원
##교회
##진을
##무원
##나이
2006년
한국전
대표는
##연구소
아니라
비례대표
검찰
경영
엔터테인먼트
취임
탈당
##로는
##학년
##았고
##연맹
##병원
##으로서
2000년
##하기도
기여
단체
만에
올라
요시
요청
울산
유시민
음악
중화
진도
##하려
##로동당
##장에
2005년
1990년
50
계승
구축
기자
기존
되는
또는
변경
보내
않았다
유진
임시
있었
지적
찾아
행사
##기는
##학과
##장의
##무총
##am
##쳤다
##으로부터
2002년
2001년
##국민회의
이승만
공연
기반
도쿄
모스크
업무
연방
예산
오스트
올림픽
이재
이는
재위
제품
초대
##협의회
##원의
##상정
##거나
##나다
##통합
##식회사
여수시
모스크바
대선
대응
박재
법무
보건
부인
승리
에어
유니
유튜
이동
전략
혐의
##수는
##부는
##리지
##FC
##너지
##운드
1997년
##하기로
##국민당
통일민주당
29일
FIFA
강화
개혁
그녀
김일
나타
동양
보도
심상정
의혹
자리
존재
종합
지금
청년
하였
한전
확산
활용
##자유
##로벌
##생활
##교통
##사와
##서를
##동안
##일랜드
##바이
##켰다
13일
32
강조
구단
마르
부문
부르
서구
연속
제3
최선을
출범
폴란드
해군
##학자
##적을
##해야
##진흥
##감을
##TV
정부의
프랑스의
알렉산드
광산구
새정치국민회의
40
공공
기원
민족
아내
언급
의견
인물
크게
##이드
##수의
##어진
##민당
##리의
##루스
##베르
##웨이
대통령의
주장했다
갖고
군민
기타
나이
다이
담당
드라마
등으로
맞아
반영
분석
시행
신세계
없이
여자
이르
이종
이루
좋은
##정책
##인규
##리자
##가를
##스템
##디어
##il
##프로
1995년
비롯해
같이
건설
경쟁
끝에
발견
상태
아우
완도
이인
채널
토론
해외
확진
##문을
##부했다
##시픽
##력이
##세가
##스로
##일러
##카드
##크로
##에서의
1999년
정부는
사회적
공화국
이름을
예정이다
설명했다
프리미어
38
KT
그를
반도
불가
설치
수행
이야
전망
제기
지명
황제
##주교
##사에서
##지방
##선수
##세의
##공항
##대책
##as
##누스
2004년
제2차
최초로
경남대학교
한나라당
김재
동시에
두고
보유
의장
장제
제외
중요
홍보
##미래
##치는
##부가
##인을
##리우스
##경찰
##세를
##일보
##ur
##조합
##갔다
대표가
최초의
예비후보는
국방
네덜
노동
높은
로스
명예
본격
수원
슈퍼
이끄
있고
전남도
하이트
합병
확정
회의
##의료
##인다
##북도
##두고
##골을
1987년
지원을
우승을
##공화당
##스타그램
김정은
네덜란드
이끄는
경상
교통
기획
목포
바로
발매
변호
보여
선발
신라
없다
인스타그램
캐나다
크로
##기의
##개월
##리히
##트리
##대한
##가가
##비를
##us
##예술
##처럼
##덕왕
자유민주당
조선로동당
사업을
문화방송
31일
광양시
한국전력
박재규
하이트진
결승
경희
군사
달성
불교
신문
운동
이러
인민
일으
주최
##는다
##치고
##부대
##인공
##실에서
##원에
##원식
##린다
##버스
##ed
자유민주연합
188
후보는
후보가
사회당
시작했다
##ent
월드컵
유튜브
5개
가지고
건륭
글로벌
나가
노회
논란
도쿠
드러
부회
세르
스코
아프
오늘
이듬
인수
일자리
전해
제국의
합의
##위로
##학생
##지에
##점을
##단을
##상이
##om
##식품
##모토
##평화
##0년대
감독이
천황의
포르투
활성화
하이트진로
이러한
노회찬
가문
공모
관한
기상
되고
만나
명이
선교
소통
신천
않은
언론
인도
있을
제안
투자
희망
##마을
##사령
##워크
##호를
##티드
##표를
##법인
대통령은
1996년
조선민주주의
##00만
서울특별
##라이나
참석했다
김정숙
강진군
프리미어리그
2차
CJ
SM
가톨
감염
고민
고양
금호
기준
남편
따른
모델
상임
신청
앨범
유일
일제
자료
정신
정상
지정
클라
하여
해남
후계
##군을
##전에
##구하고
##리당
##했는데
##계획
##3리그
##ri
##le
##포르
##독립
##하는데
대표이사
정부가
조선인민
독일의
선거에서
삼성전자
영광군
역할을
##나이티드
이듬해
가톨릭
GS
KB
규모
근무
나경
노래
레오
박헌
발언
산하
소프트
스포츠
실적
아닌
오브
요한
음력
일반
주도
충청
퍼시픽
##기획
##정의
##학을
##학원
##지가
##도가
##피아
##단은
##트워크
##세기
##혁명
##조의
##종의
##투스
##반기
##뚜기
##겼다
국민당
태어났다
바른미래
아시아나
영업이익
포르투갈
박헌영
AFC
개인
경험
국정
김현
만큼
소방
수비
스튜
아일랜드
애니
영입
올랐
위치
유나이티드
이다
중인
지분
책임
추정
친구
파리
플레이
합류
해양
##자와
##기념
##회에서
##시켜
##관을
##진보
##드로
##르타
##었으나
##간의
##씨는
##메달
##닉스
##했다는
2003년
1998년
##00여
사회주의
이용섭
##리자베
국왕
그가
김태
남양
내각
논의
명의
새누
수사
아들이
않았
앞두고
연기
요미
유로
의미
이와
파이
확인
##자동차
##주는
##받았다
##부에
##어들
##격을
##드의
##드는
##나가
##대비
##버트
##소를
##통신
##식이
##있는
##엔터테인먼트
##메이
##셔널
사이에서
2020
전문가
도쿠가와
서울특별시
St
공무원
금융
김해
김동
마케
바탕
복지
상대로
쇼와
안정
엘리자베
예방
음반
의료
찰스
챌린
최대
축하
한진
##주년
##군에
##수가
##회에
##파크
##습니다
##용진
##르기
##비치
##크라이나
##체를
있다고
프로젝
연구원
아들인
##드리히
##투자증권
반도체
나경원
1차
36
of
농협
당부했다
되었고
뒤를
매우
보인다
복귀
사퇴
수석
스마트
연세
영상
은퇴
이란
이슬
자문
재정
지냈다
직후
추천
행복
##제는
##전히
##시간
##시켰다
##실을
##승을
##원과
##원에서
##아시아
##공산당
##스턴
##os
##비시
##포스
##활동
##중학교
##네스
##한다는
2세의
민주노동당
##억원으로
이사장
라이온
과정에서
혐의로
신천지
아시아나항공
II
K3리그
김인규
먼저
목표
브리
사고
수준
신한국당
아나
아직
오스
온라인
우크라이나
유명한
작품
정식
제조
조사
조국
조약
주식회사
홈페
##주를
##이언
##이기도
##미르
##전문
##시는
##민의
##구는
##인이다
##리어
##리나
##관에서
##서비스
##행을
##트의
##노동
##되지
##대는
##ra
##니어
##카오
##래프트
##SA
##런스
##앤젤
##으로는
민주국민당
프리드리히
발표했다
만들어
어려운
브라운
김일성
로스앤젤
4차
NA
가졌다
고용
김수
나라
나오
나섰
남북
동부
명칭
불구하고
사진
신동
왕위
자회사
제출
하이
한화
합당
획득
##받은
##치로
##시즌
##개혁
##지의
##했을
##행정
##트는
##노스
##우드
##청장
##므로
##틀랜드
##하였는데
1992년
##리아의
1955년
사이에
1945년
처음으로
보수당
소비자
기원전
조선민주주의인민공화국
요미우리
바탕으로
이슬람
Ch
기초
다하겠다
막부
부진
블루
사령
수립
아마
올렸다
와이
전통
제4
콘스탄
평양
핀란드
##자원
##라트
##년간
##국제
##관이
##신을
##령을
##나는
##르는
##레일
##공업
##함으로써
##었는데
##스케
##ea
##중에
##메라
##테르
##텔레
##하고자
지역의
1세의
자신이
필요한
매출액
엘리자베스
4개
41
55
가입
건국
넘어
니콜
마드리
막스
맡았다
민중
블랙
세력
스위
시설
앙리
여기
연고
영토
이강
이래
이런
있었던
자이언
작곡
장남
제7
조양
질병
집중
투표
히로
##부인
##지와
##물을
##단의
##단이
##EO
##들에
##ch
##유업
##슈타
##릭스
자유당
1988년
참석해
통합진보
사실을
김종필
모습을
메이저
로스앤젤레스
콘스탄티
4분기
8세
가진
각종
계약
고등학교
공유
공급
네트워크
뉴욕
담양
로버트
민간
삼국
선임
세이
시티
실패
에도
예능
예선
오뚜기
왔다
이수
장성
전체
정용진
제5
주인공
치매
투입
하루
해체
행사를
호텔
황후
후쿠
후반
##이로
##협력
##수로
##정에
##제국
##부와
##즈니
##성왕
##0여
##NS
##직원
##분에
##었지만
##소프트
##야마
##ig
##법원
##ci
##평군
##웨어
##슬라
있다는
대통령과
##ing
공개했다
포함한
##ation
인터뷰
세르비아
스코틀랜드
새누리당
조양호
000
7세
CEO
가경제
경성
국토
귀족
김우
김연
내려
내셔널
녹색
되었으며
마무
마음
무안
물론
뮤지
블라
선보
소재
소장
스토
스티
시는
아스
오른
입단
장군
존슨
창립
최우
태평
트럼
패배
플랑
하인
##라운드
##받아
##정의당
##회는
##시오
##사관
##민족
##구에
##철도
##리와
##상의
##되자
##혁신
##비전
##비드
##디아
##em
##nd
##봉사
##데이
##화가
##OC
20대
189
선수로
1989년
기록했다
##하다가
개최했다
총선에서
마이크로
진보신당
어린이
지적했다
자이언츠
감사
강원
공직
관심을
나서
남부
동구
득점
많이
박사
사과
세종
소개
소유
승리를
시장은
신규
신민당
아동
아래
연결
오리
요코
이시
재난
적용
지시
초기
출판
텔레
통한
판단
페이스
하노
핵심
헝가
후에
##위는
##하마
##라도
##치가
##전남
##사카
##국인
##퍼스
##드라
##르고
##르도
##역을
##품을
##업체
##iv
##명과
##히토
##셀로나
##천시
1991년
1993년
후보를
제19
시작으로
##억원을
##관리본부
필리프
##축구연맹
바르셀로나
법무부
한전K
아프리카
기상청
소프트웨어
바른미래당
남양유업
챌린지
질병관리본부
페이스북
TBC
YG
감소
개편
거두
계약을
관심
구매
근로
김구
노르
대우
따뜻
뜻을
람보
받았
발굴
비상
서로
선생
여운
예수
위반
유재
이때
이웃
이것
일어
자리를
지냈
지배
창설
팀의
프레
프란
하겠다
향후
후원
##자이다
##이노
##이가
##하도록
##하거나
##고를
##제약
##복을
##부분
##마의
##지도
##인트
##리로
##선대
##드를
##항을
##대가
##소방
##스에
##스카
##흥왕
##텐츠
##롭게
지난달
지역사회
민주공화당
##ers
회장의
국제공항
정치적
1950년
1979년
알려져
마이클
이인영
한국전력공사
##르기니
홈페이지
나섰다
태평양
람보르기니
39
34
3년
42
SP
걸쳐
것에
국무총
김진
달러
동기
디지
떠나
마사
만주
매년
몽골
반발
반응
법률
베르
베네
불법
시리아
아키
않는
어떤
열고
영어
오토
올리
왕국
워싱
유승
육성
은행
작가
정동
조승
중단
중이다
표현
혁명
##군단
##기구
##차를
##건강
##도는
##신의
##서에
##아의
##무를
##상공
##트비
##동생
##르게
##산시
##공단
##가족
##스부르크
##re
##애인
##보를
##타르
##ce
##흥군
##천년
##농업
##베르크
10개
대표팀
187
프로듀
2세는
민주자유
민주정의당
1980년
교육감
1949년
1948년
출신의
이라크
노무현재단
##시키고
필요하다
브라질
관광객
화순군
이루어
완도군
##선수권
영업이익은
프로젝트
트럼프
플랑크
워싱턴
37
J1
SNS
간의
거부
공산
구조
군인
귀국
기본
김기
나폴
남자
노벨
달리
대부분
라디오
레드
마리아
마스크
마음을
맡고
맨체
반면
방침
부터
불리
사후
상생
상당
새천년
승격
시스템
싱가
약속
여름
연주
원을
이벤
인재
인권
일어난
입당
자체
작업
중에
중소
집행
차례
촉구
하며
하락
해적
해결
회장은
##자들의
##이의
##이어
##수산
##정한
##치오
##회가
##부로
##시마
##구를
##서발전
##아노
##단에
##계에
##퍼런스
##산을
##키는
##식에는
##디미르
##li
##씨의
##씨가
##ia
##법을
##데스
##활동을
##래드
##렀다
##하였지만
150
의원과
1세가
영국의
부산시
SK텔레
하나금융
행정안전
태어난
대변인
데이비드
페르시아
조선인민군
올랐다
연세대학교
맨체스터
싱가포르
3분기
45
강력
건의
그런
나치
다니
대공
도움
도움을
동맹
등록
바오
받는
방어
백작
보다
부분
상대
시대
외교
요리
유치
이자
이기
이론
이바
이혼
인한
입학
있게
장로
재직
전두
정의
준우
창업
클래
현장
홍원식
##자에
##자들이
##하라
##에어
##수영
##수아
##과는
##즈의
##즈베
##사에
##성과
##물관
##아티아
##상은
##계층
##퍼니
##거리
##공동
##가지
##ot
##누엘
##돌프
##더불어민주당
##맥스
대표와
조선의
프랑수아
##되었으나
1978년
최고의
영향을
바른정당
이정미
강조했다
알렉산드로스
의견을
크로아티아
요코하마
J1리그
새천년민주당
전두환
4년
5년
강등
경선
골키
공산당
기능
꾸준
노태
둘째
득표
루트비
만든
맞이
미나
상승
상무
센터
수요
수출
신속
알리
암살
열어
원래
위하여
유신
유엔
이성
이건
이반
이집
인디
작은
적이
전기
전희
점검
정몽
증거
지낸
진주
창단
체육
취업
친일
콘라트
투수
환자
훗날
힘을
##부문
##마크
##시대
##어로
##사인
##도에
##서실
##서울
##였고
##상에
##PS
##나고
##후의
##가인
##소에
##오카
##ue
##un
##보고
##법에
##만에
##절을
##석을
##폴리스
##량을
##없이
186
감독은
##사업을
1946년
공동대표
사람이
##연구원
수상했다
알려진
##특별자치
선출되었다
토론토
유일한
마드리드
통합진보당
김연아
하인리히
SK텔레콤
골키퍼
루트비히
3개
AI
J리그
the
가정
가까
검토
너무
다카
더불어
도입
두산
루마
마리
매각
물러
박상
방영
보호
보였다
부의
부정
부여
부족
사무
살아
상징
서부
식품
신임
싱글
아시
아울
아랍
앞장
에너지
오히
왕비
왕위를
우려
유벤
이로
있었고
잭슨
전환
지자
지급
초반
최다
카페
캐릭
통치
팀이
하다
형제
회장이
##이를
##군과
##하에
##기와
##에트
##정이
##정은
##회장
##사이
##사화
##리페
##아이
##트니
##동서발전
##세에
##스토
##od
##왕은
##우는
##청년
##ir
##패를
##만원
##바로
##예프
##코프
##같이
##그라
##메이션
##베르트
한국당
한국동서발전
184
183
1981년
기록을
대해서
##라이언
현재의
문화체육
관련해
것이라고
방문해
이름으로
대회에서
알려졌다
소비에트
베이징
노력하겠다
크리스티
중화인민공화국
보건복지
신세계그룹
건륭제
수비수
애니메이션
유로파
마무리
블라디미르
아스널
여운형
루마니아
80
FA
개정
건립
검사
골을
골든
관내
군주
그해
그레
김홍
나갈
나눔
나왔다
동문
등에서
말을
모리
못한
못하고
바뀌
발탁
보이
부모
비디오
사태
사례
선포
선덕
소식을
수익
스테
신종
씨와
아라
아무
아틀
알고
알아
양성
없었다
에게
유통
이원
이명
장기
재판
정은
정규
정종
제도
집단
청주
체포
출발
탄생
펠리페
플라
해리
현지
회복
효과
##주택
##하지만
##에르
##학의
##시킨
##어트
##20
##인과
##당인
##장관
##터스
##경영
##스파
##있다
##널드
##la
##im
##연을
##명으로
##틀러
##프라
##ck
##필드
##베이
##베이션
##평가
##랫폼
대표의
1994년
##7년에
경기를
1984년
중앙정보
1968년
SK하이
##지원센터
이상의
들어가
비판했다
##부장관
지도자
인터넷
업무협
아나운
뮤지컬
베네딕
클래식
전희경
지자체
문화체육관광
유로파리그
54
60
70
The
가을
간호
강점
광고
교토
교체
그린
글래드
김용
까지
나누
남구
당초
대하여
동료
라리가
런던
레알
문제가
바람
밝히
방역
방탄
보컬
불러
비난
사장은
선고
선제
성과를
소위
소설
스트
신성
실현
실천
심재
심각
애플
언더
역대
연예
영암
오사카
완료
의하여
이외
인공
인근
자녀
작성
장교
전시
전사
전당
젊은
점령
정비
종교
주목
지내
체험
초청
촬영
출생
취약
통과
티베
파견
페이
펼쳐
포기
피아노
합동
##이던
##재생
##에른
##수와
##회견
##전선
##시티
##지능
##당과
##리케
##신문
##드린다
##레디
##분야
##st
##우의
##토니
##조사
##데르
##화점
##화된
##클럽
##참여
##향을
##렇게
15세
대표를
##회의에서
있는데
185
조선일보
2세와
국제축구연맹
열린우리
만들기
##운동가
예비역
사건으로
역임했다
지속적으로
왕조의
이유로
주관하는
오스트리아
동양방송
##진흥원
위치한
사령관
김우중
노르웨이
대우그룹
따뜻한
캐릭터
아나운서
방탄소년
1위
2시
5대
75
In
JT
PD
△더불어민주당
가지
간부
개막
거의
관람
권한
긍정
김경
나온
남아
놓고
대책
더블
덴마크
때까지
리더
마침
무역
밀란
반란
방안을
배출
밴드
보성군
본부
부사
부대
북구
빅토
사무총
상반기
새롭게
선택
소상공
스카이
아사
아센
야마
약칭
업체
여론
의하면
이주
인간
임대
입장을
자치
자격
장수
장휘
재개
전에
정교회
제시
제일
주재
창원
처리
총괄
최소
취소
측은
카카오
케이
콘텐츠
콘퍼런스
탈퇴
태풍
푸틴
필라
##다운
##미널
##기경
##에너지
##여자
##시스템
##성은
##국이
##리트
##관계
##진영
##았으며
##NK
##상황
##규모
##산물
##되며
##현석
##형을
##일리
##오는
##오프
##뮤니
##권의
##보건
##카와
##만을
##프는
##화에
##km
##TA
##창수
##춤형
대통령을
국민의
14세
2세가
민주평화
제1차
참여한
아들로
1960년
1966년
진행했다
##됐다고
현대자동차
전쟁을
교수는
챔피언십
##문화방송
1920년
공식적으로
적극적으로
구성된
바이에른
##왕후의
졸업하고
타이틀
이끌어
전투에서
카를로
시간을
기자회견
오스트레일
공공기관
논란이
##주년을
자문위원
행복한
오스만
무안군
##이노베이션
##선수권대회
꾸준히
노태우
아울러
오히려
그레고
장휘국
3대
3학년
65
AC
AS
KC
Un
가격
가져
간담
갈등
강경
개입
계기로
계기가
공군
권력
그대로
글을
기부
기회를
김병
김희
나머
내세
네이
노선
당원
대통합
드림
때는
메리
메탈
문제를
미군
미드
반드
봉사
부임
부탁
부총
부통령
북부
분데스
브르타
비중
서명
선전
성과
성인
손자
수여
시도
시청
시기에
신인
실질
야쿠
영산
영상을
왕가
응급
이회
이병
이른
이뤄
일환
임직원
장악
전날
정인
정우
조원
주로
중장
진단
집권
차별
천주교
투어
플랫폼
한신
할인
합스부르크
향해
협업
형태
후지
흡수
##이에
##로를
##문학
##라의
##라가
##과장
##여왕
##전의
##마스
##시험
##시코
##졌고
##지용
##뱅크
##리티
##리크
##리스트
##담을
##해주
##린턴
##게임
##대행
##대상
##들로
##들도
##스럽
##스에서
##광주
##으므로
##ro
##일스
##ud
##ub
##달라
##id
##종을
##바르
##려고
##살인
##초등학교
##웠다
10세
한국인
한국민주당
##회의를
지역을
지역경제
149
147
사회민주주의
제16
국회의장
감독의
감독으로
위원장은
에서는
1954년
운영하고
운영하는
전남대
공동체
##and
코로나바이
김영록
실시했다
결정했다
제주특별자치
프로그램을
2020년도
동아제약
평화민주당
호남대학교
##베르토
##대책본부
제외한
국방부
마케팅
세이부
최우수
디지털
바오로
이명박
정은경
반드시
분데스리가
브르타뉴
1조
2대
3차
68
EBS
J2
MC
강지
건축
게이
겨울
고문
교류
구글
그래
기구
길을
김제
김민
끝난
농구
뉴스
다케
대원
대림
대처
뛰어난
루돌프
머물
발루
보낸
부상
분위
붉은
상호
상품
상하이
선도
셋째
스스로
승인
아베
양자
어르
에레디
여전히
예술
오바
완성
요크
유명
의정부
이석
이마트
인식
일을
자원
자연
잠시
재임
전자
접근
정기
조정
조흥
종료
주제로
죽고
차남
추기경
취득
캠페인
터키
통산
파라
파주시
편성
편입
학술
행동
헌법
협조
협약
형성
히틀러
##주민
##이지만
##하의
##기간
##제에
##제품
##과정
##과대학
##여객
##마이
##사랑
##지주
##지부
##지지
##25
##국을
##당에
##당에서
##해양
##서스
##진은
##아버지
##았던
##용을
##단과
##동조합
##나무
##나와
##태규
##키스탄
##소에서
##딩스
##통일
##일자리
##토모
##애를
##보험
##보드
##밀리
##명은
##머스
##음에도
##예수
##코리아
##축산
##델피아
##추진
##느냐
##에게는
##부터는
대통령에
위해서는
정부에
145
서울대학교
1세와
대해서는
활동하고
참여했다
1958년
1970년
##연합회
상황을
최고위원
적극적인
##복지센터
여러분
어려움을
도시재생
##ist
이끌고
바르샤
대변인은
예상된다
불가리아
중요한
경상남도
고민정
경험을
스위스
국토교통
동기대비
유승민
다니엘
이집트
인공지능
소상공인
필라델피아
나머지
대통합민주
J2리그
조흥은행
1천
53
57
88
Cl
Jo
NH
거듭
거둔
결의
고교
고종
고속
고향
곡성군
국무
그동안
금지
기하여
긴급
김지
김승
김준
끝내
남성
노인
농촌
농림
높아
누구
대리
도로
도민
도착
동참
때부터
떨어
로드
리가
리버
마찬
박영
박병
방식
변화
보면
본부장
브래
비밀
빌헬
사항
사진을
살해
상사화
서기
속에
송영
신한
신민주
양현석
어떻
여행
올스타
원자
원장
유사
유영
윤치
응원
의한
이은
이며
이낙
전개
전면
전반
정재
정도로
제목
조카
좋아
좌파
주교
주변
죽음
진격
진에어
처형
천안
치러
침공
클린턴
탄핵
팀인
하면서
한정
항의
항공사
해방
현역
홈런
후임
훈련
히데
##이기
##위의
##재를
##재판
##라노
##라스
##전은
##전한
##시의
##시를
##즈가
##안에
##인데
##물리학
##관은
##NC
##NA
##단으로
##린이
##트가
##되면
##대전
##들어
##형발전
##소속
##ev
##토스
##티스
##티브
##ap
##ad
##조가
##th
##카고
##연대
##만이
##프의
##화학
##코스
##중한
##래곤
##혜선
##추어
##곳에
##홀딩스
##균형발전
##붙였다
2017
대한제국
##위원회의
광주은행
이후에
지역민
의원의
의원을
리그의
리그인
##주의를
선수는
교육을
1967년
1952년
3세는
삼성그룹
##레이드
시민의
공동으로
소속으로
SK이노베이션
프리메라
##ard
##자로서
##산업개발
멤버로
받아들
출연해
제공하는
평가를
필리포스
스페인의
모습이
가능성이
차지했다
서비스를
이해찬
중화민국
진도군
유진기업
행사에는
##통합당
그녀의
하였고
아우구
이야기
슈퍼리그
변호사
스튜어트
추정된다
목표로
헝가리
SPC
행정안전부
장로교
아틀레
SK하이닉스
심재철
언더우드
방탄소년단
이회창
제주특별자치도
어르신
어떻게
이낙연
43
400
66
84
IT
IOC
가르
갤럭
고대
공항
공약
구속
군은
규제
그리
그것
그들은
금메달
기울
김한
김석
나아
단일
달라
델타
도와
도중
동신
등은
디자인
레미
마산
목소
못했다
무사
문무
문효
문제로
바꾸
받을
받았고
발행
밝혀
밝힌
배치
보장
성적을
손흥
수입
시상
시게
신설
신익
실제로
아메
안양
앵커
얘기
어렵
엑스
연수
왕국의
왕가의
우선
우익
운행
운동을
원정
이스
이끈
익산
인증
장학
전공
전주시
정권을
제한
조건
주력
지켜
카타르
클라이
키예프
테일러
통신
플로
항복
형사
호러스
##주로
##주식회사
##이아
##기준
##기독
##로의
##교류
##학회
##치아
##치와
##여명이
##부산
##개선
##개소
##사무
##사일
##졌으며
##성전
##적이고
##인들이
##러운
##국으로
##리니
##도니아
##박물관
##신교
##신인
##원군
##점으로
##mer
##트르
##거운
##세자
##함에
##가로
##가지로
##요시
##소로
##으면
##으면서
##식에
##니지
##ay
##um
##브라
##운영
##타를
##크래프트
##됐고
##병사단
##반도
##예산
##같은
##DN
##석이
##테크
2018
2013
대표적인
이후에는
지역에
지역구
180
후보자
##교육을
국가균형발전
시즌에
참여해
현재까지
아이돌
1969년
1961년
1959년
1976년
1975년
1974년
3세의
전쟁에
소속사
SK그룹
발표한
아니다
##all
사실이
정책을
스타크래프트
역임한
생활을
##시키는
발생한
필리핀
기대한다
정권의
역사상
##ity
스웨덴의
정보를
##하려는
기반으로
의혹을
확진자
부회장
스튜디오
플레이오프
한진그룹
매출액은
오리온
준우승
앞장서
유벤투스
그레고리오
야쿠르트
이른바
에레디비시
오바마
##예수교
바르샤바
갤럭시
손흥민
신익희
2천
2학년
BNK
가는
가상
계급
공천
공헌
광복
국군
규정
그랜
그려
근거
깊은
나선
내부
누르
느끼
늘어난
대장
대체
덧붙였다
도널드
동원
드래프트
디즈니
루카
마오
마크
막시
맡아
모아
무대
무렵
미술
미세
민선
바라
박성
법흥왕
보르
본선
부활
불리는
비교
선진
설득
세우
소송
손학
손을
수록
술탄
스프
시험
시흥
시카고
신정
씨의
않을
얻어
에는
역전
연남
연대
연설
연간
예카
오픈
외국인
위협
유아
이개
이영
임원
입문
있지만
자기
자산
자살
재단
전철
전직
전화
점을
정무
정세
제6
중구
지상
지위를
진급
책임을
추모
치료
카이
카롤
컴퓨
평균
하지
함평군
합작
해소
했던
했지만
허용
헤르
협회
활발
황태
후손
##이치
##위가
##기까지
##로당
##문이
##문에
##문재인
##받고
##교안
##수호
##정우
##회원
##어를
##사건
##성에
##지자
##적이
##영의
##0대
##당한
##리시
##리코
##리에서
##도르
##도비
##관에
##관으로
##했기
##상에서
##계가
##나르도
##공주
##면을
##대회를
##내고
##태호
##으니
##ow
##케이
##ug
##종합
##쿠스
##봉암
##언을
##중공업
##DC
##테리나
##필더
##밖에
##평을
##B금융
##슬러
2016
한국의
159
대표로
##2년에
프로축구
148
##주의자
제15
##겠다고
13개
기록하며
자신을
우승에
위원회
##사업에
아이유
제2대
러시아의
##공화국의
한다고
김대중은
##본부장
##지원청
의해서
계획을
국회부의
하나로
이름이
##운동을
조지아
정책에
사망한
##대회에서
즉위한
태어나
제주도
기대된다
증가한
지속적인
##과학기술
혁신도시
마지막으로
피해를
전달했다
체결했다
알렉산드르
##경찰서
경희대학교
##모토노
SM엔터테인먼트
규모의
레오나르도
마케도니아
민중당
삼국사
이수만
미나모토노
중앙정보부
미드필더
일환으로
코로나바이러스
마찬가지로
국가균형발전위원회
손학규
예카테리나
이개호
0으로
1일에
2회
2부
2분기
2번째
44
6개월
9세
Al
IS
IB
Le
LH
ML
US
in
가맹
강남
같다
격파
공주
교장
구체
극복
김명
김유
남원
내다
누나
단독
당수
대형
도미
동남
되자
되길
되면서
둘러
뒤에
맞서
멸망
모여
무령
무료
무대를
무소속
뮤직
미용
민생
버스
베를
보성
부시
북미
불과
비서실
뿐만
사상
사촌
설계
성립
성폭
세운
수학
수많
시라
실무
안산
에르
연루
영락
외무
의빈
의사를
이복
이익
이화
이중
이창
이들은
이같이
이렇게
일이
작전
잘못
정성
정확
정현
제정
제독
조봉암
종목
죽자
중부
중도
지하
지나
지키
채택
최규
추석
축제
토니
특수
패션
펼쳤다
포천시
표창
하느
하반기
한일
할머니
혹은
휘그
힘입
##자들은
##미디어
##로로
##로가
##문제
##에이
##에선
##고속
##정과
##제르
##치의
##여성
##민턴
##지게
##지에서
##방울
##차로
##차례
##구역
##인인
##인권
##리포
##실장
##신이
##해군
##아들
##였으나
##계의
##IS
##드민턴
##EA
##트에서
##세한
##세스
##세유
##레어
##되기
##대통령
##배우
##길을
##스포츠
##스테르
##호는
##야구
##비는
##ul
##조를
##보장
##보호
##por
##타마
##명에
##황후
##프를
##쿠라
##TO
##벤처
##테네
##률을
##됨에
##AR
##없는
##쇄살인
##쇼핑
##었다고
사회민주당
사회복지
2세를
##그룹의
당시의
선수가
선수권
프랑크
관계를
1985년
1982년
##위원회를
했다고
민주당의
기록이
중국의
10월에
선거에
중앙당
아이파크
1964년
1963년
진행된
##레이션
##ant
##들과의
추진하고
##하다고
교수가
올해의
주민자치
설립된
아버지인
상황에서
행정부
##사회당
사건을
결과를
이탈리아의
창당한
##ica
당선되었다
있었으나
전략기획
보도했다
하였으나
마르세유
부르봉
##프로그램
이야기를
본격적인
보여주
인스타그램에
##사령부
감염증
해남군
니콜라이
##슈타인
후쿠오카
##사관학교
텔레비전
한전KDN
민주자유당
하나금융투자
도움이
부의장
베네딕토
민주평화당
강지환
자원봉사
빌헬름
유영철
레미콘
클라이맥스
수많은
하느님
1로
1명
1위를
2위
2개
3위
48
4대
64
95
98
SS
가마
가담
감안
강한
개설
개신교
거주
겪고
고노
고베
공장
공감
교회
구청장
국비
권태
기탁
나와
널리
뛰어
마쓰
마티아
맡은
매체
메시
멕시코
명을
무한
무덤
물리
밀려
박원
발전을
방법
배구
배드민턴
버펄
번역
범죄
병원
보아
복무
부위원장
분리
분열
분쟁
브라이언
비틀
사라
사임
사단
사보
사장이
산림
살인
성적
세븐
소중한
수렴
신상
심사
십자
아인
아리
아름
안재
야당
어느
얼마
에마
연습
오를
오르
왕족
왕으로
외에도
우즈베
유대
유스티
의회
이제
이경
이광
이만
인구
일조
입사
자크
자바
자매
전인
정명
제이
제9
제프
젝스키
조태규
주택
지지를
진나라
차기
참조
천계
철수
청나라
총리가
최상
친환경
커뮤니
타고
토머스
통하여
트위
특정
파악
표트르
하기
하회
허브
홍콩
화장
환영
황제가
황교안
회장을
##하나
##기계
##문은
##협의
##제와
##제프
##회담
##시로
##시와
##시가
##건은
##영준
##파의
##국은
##국장
##력과
##관계를
##해왔다
##NG
##NU
##행한
##였으며
##터리
##범죄
##드가
##트릭
##나기
##경남
##레브
##분을
##소가
##왕과
##식의
##식은
##케스트
##권은
##애나
##보는
##커스
##iz
##ter
##순천
##카데
##슨은
##렸고
##감독
##모델
##반을
##훈련
##책을
##팀을
##례를
##농협
##네시아
##더스
##쏘시오
##하였던
대한독립
2009
이후로
지역에서
미국에
더불어민주당의
경기에서는
서울대
1세는
1983년
##교육지원청
국가보
기록한
시작된
21개
감독을
1962년
사이의
문화예술
사람은
모두가
##art
국회에서
기업인
출신으로
26일에
장관을
경찰서
설립한
사실상
##지역의
출연했다
##ess
성공을
##기술센터
전북도
1919년
1912년
생각한다
LG전자
있어서
공격을
알렉산데르
동아쏘시오
타이거
롯데그룹
군수는
학교법인
산업혁명
카를로스
농업인
결성된
활성화를
공연을
에어부산
그녀는
나타나
부르고
아우디
확진자가
보유하고
인민수호
활성화에
가문의
선교사
인도네시아
자료를
가톨릭교회
지분을
아들이자
라이온스
브리핑
##전문학교
NASA
프란치
정동영
보건복지부
문화체육관광부
JTBC
빅토리아
오스트레일리아
그랜트
미세먼
컴퓨터
힘입어
인민수호부대
1군
1부
1억
2로
47
52
5G
500
76
99
96
CS
JY
LC
Re
ST
가치
가와
가게
격려
경고
고령
고소
공정
공간
관료
권유
기회
김상
김규
김씨
나중에
내가
내외
내렸다
노력을
누리
다나
다만
단계
대령
대동
대주교
독자
디비시
로빈
리드
마인
마리오
마카오
맞는
맞춤형
메인
명단에
목적으로
무라
무장
무엇
문희
박주
박찬
박진영
밖에
받지
방안
베스트
벤틀
병사
복합
북아
비치
비해
사전
샌안
세부
세력을
세력이
쇼군
신고
신우
실행
쌍방울
아주
안티
안타
않아
애덤
양주시
엄마
엔리케
여의
여겨
연출
연락
열차
올린
움직
원년
의사
이들
이랜드
익스
인종
일리
자주
자랑
장애인
재무
전진
접수
정지
정도
제대로
조작
조사를
종사
주문
지사는
징역
차르
창출
찾는
천정
철도
체코
최대의
카르
캘리포
코파
투쟁
특혜
팀은
파트
폐지
프라
하게
학습
한성
했으며
헤이
협의
혜공
호소
홍준
회의를
후에는
##자이
##자들
##다이
##위대
##위에서
##하르트
##미술
##기고
##기록
##로브
##라와
##라클
##과이
##치며
##치킨
##회와
##전이
##전으로
##마다
##마르
##시스
##사고
##사항
##지면서
##구와
##강에
##CA
##해를
##아트
##장학
##장막
##장애인
##행위
##선으로
##ER
##동의
##동맹
##나의
##경환
##세이
##세력
##합니다
##레인
##공원
##공간
##대장
##대대
##대에서
##가니
##형의
##론을
##호텔
##ov
##비용
##일은
##우에
##니치
##케이션
##너스
##티코
##권이
##브를
##ge
##gue
##타이
##만의
##ct
##kg
##예방
##팀인
##OS
##페이
##웨스트
##뉴스
##컵에서
##봤다
2014
2015
2011
##위원장으로
##까지는
광주전남
119
120
지역위원장
일본군
179
177
조선대학교
제13
제1사단
##위원회는
162
참여를
천황은
이번에
교육부
정치가
##억원의
사이타마
3세가
문화재
부산광역시
전쟁의
관련된
김대중이
추진해
##인민공화국의
순천만
학생들이
사건에
1921년
독립을
##ich
김성준
##대학원
##특별위원회
5세는
사랑의
어머니는
영향력을
국립중앙
돌아가
포르쉐
과학기술
우수한
취임하였다
탈당한
기여한
있었지만
나타났다
이종배
장제원
본격적으로
일으키
상임고
KBO
해양수산
신천지예수교
와이번
콘스탄티노
##igh
##cien
인터뷰에서
마이크로소프트
강원도
이시영
하노버
제19대
한전KPS
관심이
아키히토
프로듀서
이벤트를
##수영선수권대회
##누엘레
이건희
증거장막
##그라드
크리스티안
업무협약을
영암군
이외에도
##토니오
네이버
발루아
리버풀
프리메라리가
아우구스
아틀레티코
정세균
최규하
##스테르담
에마누엘레
우즈베키스탄
동아쏘시오홀딩스
미세먼지
JYP
샌안토니오
신우철
천정배
캘리포니아
홍준표
00
2루
67
7개
8개
90
Ar
DJ
GO
Scien
가서
가동
가치를
감자
강동
강화를
갖춘
개그
건너
게재
고위
고시
고등
고흥
고흥군
관여
광역
군단
근처
기소
김부
김형
김광
꺾고
나주
나는
나카
낙선
남조선
내에서
넘겨
노스
니시
대기
대안
대립
대규모
덕분에
도전
돌파
동계
동일
되었
들은
등극
라인
레전
마틴
맞춰
매카
명령
명령을
묘사
문의
문성
미하
미들
미쓰
미디어
민영
민경
박유
발발
발렌
배경
백화점
버락
번주
베오
베이스
보안
보니
보급
본명
부담
빼앗
새로
생태
서포
선물
섭정
성남
성씨
세웠다
소년
쇼핑
수주
수영
순간
숭정
스피
스페
스탠
시대에
식민
신도
신용
실제
아트
않는다
암스테르담
앗딘
양주
얼굴
에이
에버
에스파
연계
올려
옹립
완전히
우상
우루
위키
위기에
유기
유고
유관
이고
이오
이슈
이었다
인하여
일시
임용
있지
자그
잡아
장녀
전파
전무
전선
정진
정태
정착
조치
주고
주식
주축
중의
증진
지구
지소
직무
착용
철저
체계
초고
최호
추대
치른
카고
컴퍼니
타일러
테레
편집
포스코
폭로
풋볼
피터
함락
함영준
해서
해상
해산
해야
했으나
향한
허위
헬싱
협약을
홍범
화성
확장
황제로
효율
##자들에게
##하시
##미를
##라를
##협동조합
##정원
##과장은
##전기
##전국
##시켰
##시킬
##개를
##어린이
##성으로
##영은
##파인
##파와
##당으로
##리기
##리교
##리게
##리한
##실한
##진이
##아파
##80년
##터미널
##상훈
##ET
##11
##게이
##노조
##나눔
##르네
##경을
##함과
##준비
##태원
##키아
##가능
##소득
##스하
##스러운
##광산
##op
##일의
##식에서
##오스
##티식
##티스트
##조정
##보병사단
##타로
##연수
##만으로
##모로
##결을
##프레
##머런
##화운동
##포를
##병대
##TS
##SD
##페르
##페스
##벤션
##테쓰
##율이
##베트남
##AM
##올린
##올림픽
##편을
##렌체
##쩌둥
10년
101
2000
2008
##회의실에서
11번
1998
미국에서
182
정부와
##1년에
리그에서
142
서울시
민주주의
제17
제1군단
민주당과
##겠다는
##되었는데
세계적인
천황이
현재는
선거를
30분
1956년
방송된
1971년
전남대학교
현대그룹
시민이
시민들의
추진할
정의당의
개최된
하나이다
출신인
방문하여
##org
##하겠다고
대회인
물리학자
실시된
광주시교육청
4세는
개발한
인천광역시
역임하고
고려공산당
1934년
라이브
##경기에서
계속해서
고구려의
정당인
##ell
수도권
가능한
그리스도
내용을
데이터
연합군
##학년도
유니버
연속으로
나이로
다이쇼
##경찰청
명예회
##의료원
모델로
자료에
후계자로
GS그룹
KBL
스마트폰
##노동부
아마추어
니콜라
연고지로
하노이
지냈으며
국무총리
나폴레
방침이다
중소기업
유신정우
대해서도
취약계층
마침내
아사히
최소화
메탈리카
##스럽게
##축산식품
국토교통부
대통합민주신당
브래그
윤치호
##재판소
마오쩌둥
막시밀리
내다봤다
베를린
시라크
박원순
버펄로스
세븐티식
최상위
트위터
부르고뉴
증거장막성전
김부겸
레전드
민경욱
자그레브
헬싱키
1번
2조
3만
300
4회
56
51
5천
62
6년
82
A의
AK
A씨는
CBS
EX
GNU
LI
MV
Ro
SW
Sou
Wor
and
de
▲전
가량
가슴
강의
강인규
개시
개봉
개념
거절
건물
것과
게오
경계
고이
고정
고발
고든
고지용
곧바로
관악
구수
구입
구간
구혜선
군대
권오
그림
그들의
김소
김천
끝으로
남은
남연
납부
노출
늘어
능력을
닉슨
닐스
다수
다짐
다리우스
담은
당의
당내
대막
대화
대중
댓글
더글
도모
도교육청
떠났다
라면서
러브
레논
레코
리스
리눅
리니지
마치고
마누엘
막내
만드는
많다
명문
몇몇
모바
무산
무려
무효
미니
미얀
바다
받으며
발간
배포
보이스
부부
부동
붕괴
브로
비용
사위
사옥
삶의
삿포
상속
서해
서장
선조
설리
세인트
소외
소녀
속에서
수용
수호
스톤
스왈
시기
신사
신뢰
실종
싶은
아테네
안내
안드로
알사
역을
연쇄살인
열었다
오프
오릭스
왕위에
우주
유력
유타
음주
이행
이내
이현
이채
이순
이들의
일정
일찍
임무를
입장
자동
자한
잡고
장인
장성군
전력
정례
조용
조현
조별
종로
주는
주어
주연
주장을
죽은
중종
중에는
직전
직업
진지
진흥왕
징계를
차량
채용
첫째
체제
체감
총독
총애를
최성
최용
최연
추방
추락
출장
출석
충북
카친
카메라
카이로
칼뱅
캐머런
케네
코리아
콘서
쿠데
클리
클레
태극
택시
테마
퇴임
트로
트랜
품질
하에
하야
한미
한인
한종
한때
할아버지
합격
항일
해임
행사는
허가
허창수
헌덕왕
현실
현장에서
혐의를
혜택
호날
효과를
후일
흥행
희생
히어로
##자이자
##주에
##주가
##미나
##미스
##기지
##생명
##교수
##즈와
##안심
##사법
##건을
##철우
##인재
##파이
##러리
##국가
##리며
##령의
##해졌다
##서양
##진다
##피탈
##장인
##NN
##무라
##80
##상과
##상규
##ID
##IA
##퍼드
##드로스
##드래곤
##동지
##거래
##르바
##경비
##공헌
##공무원
##되기도
##면으로
##30
##분과
##들로부터
##태경
##키스
##현대
##야의
##ry
##일이
##우주
##우고
##우지
##디자인
##ey
##니는
##니가
##니스
##ab
##설팅
##브리
##ie
##ian
##타와
##증을
##크스
##망을
##프리
##최고
##vN
##화와
##병을
##융합
##예를
##축제
##글스
##료를
##심에서
##혜왕후
##참모
##렉션
##났고
##말을
##AP
##줬다
##에게서
한국시
##위원을
##위원으로
##9년에
대통령직
미국인
172
178
정부를
더불어민주당이
당시에
관계가
1986년
##위원회가
160
16세
##방송공사
137
사업에
사업으로
FC로
중국인민
중국공산당
21대
중앙정부
아이디어
진행한다
진행됐다
국회의원을
현대건설
1942년
2월에
소속의
2022년
SK에너지
김대중의
이용해
추진하는
통합민주당
비롯하여
##ine
대학생
하나의
기업의
주민들의
만들었다
만들어진
선정되었다
코로나19로
실시한
임명되었다
경제적
받아들이
김성태
포함해
김영삼과
##보다는
원내대표는
당선되어
어려움
공격수
사랑을
모습으로
분야에서
활약하고
##카이도
농업기술센터
등장하는
반대하는
이유는
계열사
요청했다
##하려고
기존의
이재현
의혹이
언급하며
분석했다
이르는
사회적경제
불가피
장제스
노동자
회의에서
경상북도
주최한
오늘날
##사령관
감염병
고양시
발언을
논의했다
파이터
김해시
안정적인
고용노동부
영토를
히로시마
후쿠다
감사드린다
반응을
강력한
조선의용
인디애나
기자회견을
ASM
정우택
조원태
제16대
##기독교
시흥시
삼국사기
권태홍
사보이아
아름다운
##카데미
프란치스코
혜공왕
베오그라드
나폴레옹
유신정우회
막시밀리안
모바일
미얀마
부동산
카친스키
케네디
호날두
06
1만
16년
1분기
2군
2번
49
85
94
De
GM
LA
tvN
▲문재인
감리교
강희
개방
거리
거머
것도
견제
경향
고로
고곤
곳이
공사
공원
공통
공익
공과대학
과정을
교섭
구리
궁금
그와
기사
기아
김치
김건
김원
김삼
끌어
끌었다
남겼다
남로당
내놓
농어
눈길을
다가
다수의
다마스
단장
담긴
대대
데모
도서
도지사
동성
동물
동메달
동성왕
뒤에는
듣고
들었다
로페스
루스
마흐
만약
만화
만족
말한
말씀
말았다
말하며
맡는
메르
모집
몬테
무대에
문학
미키
미야
미카
바그
바꾼
박마
박태
방향
방상훈
벌어
법적
베텔
보어
보살
본래
부군
부패
북쪽
북조선
분노
비즈니
빠져
빠르게
사법
상업
새해
새벽
새마을
생일
생존
서정
서대
선사
세조
셀림
송진
수밖에
스틸
시대를
시대의
신민
실험
싶다
아미
악화
안에
안드
않도록
않았고
알바
알베르트
압도
앤서
양호
없을
에디
엑소
엔씨
여왕
역량
열렸다
영역
영웅
오만
옮겨
우드
운항
원로
유근
유학을
윤소
윤종
의학
의심
이선
이달
인생
인프라
일가
임관
임진
입대
자사
자발
자손
자리에
재학생
전성
전후
절대
점차
접촉
정통
정당이
제8
제휴
조금
조계
조합
주주
주전
주한
주장이
지미
지목
직위를
진영
진흥
진짜
창의
철학
총대
최형
추억
출산
충격
충남
측이
친정
친선
칭호를
카드
칼리
크라
키움
타임
탄압
트빌
특집
파인
파나
포천
표방
피렌체
필립
하는데
한양
함평
해운
허석
현황
현장을
협력을
혼인
화이트
화신의
확대를
효성
히트
힐러리
힘든
##자력
##자본
##주주
##이프
##다르
##하늘
##미는
##미가
##기능
##로마
##받는
##수석
##정상
##학부
##부처
##전과
##마일
##시스트
##안부
##성화
##지어
##지며
##구장
##인지
##인력
##파로
##파를
##당금
##실히
##관련
##원자력
##해온
##점이
##행복
##행사
##였지만
##상도
##계약
##드와
##와이
##냈고
##ED
##15
##양왕
##께서
##게우스
##동부
##동에서
##나그룹
##경에
##세르크
##레츠
##레나
##레가
##공을
##함을
##분이
##키가
##가치
##버그
##소장
##으려
##비의
##비트
##비가
##일본
##디스
##션을
##av
##ut
##조한
##조직
##조사를
##if
##iel
##카쿠
##타운
##타리오
##명에게
##감이
##ces
##화의
##검사
##컴퍼니
##메드
##메니아
##족의
##창호
##유플
##처를
##OU
##클로
##클리
##ff
##더라도
##율은
##율을
##렉트로
##ber
##곳에서
##슬로
##슬리
##십자
##캐피탈
##옹주
2010
2002
한국남
157
대한민국에서는
1995
일본에
181
후보의
조선노동당
경기에
14대
서울에서
161
##리스토
132
기록해
기록하였다
FC의
FC는
자신들의
시작한
시즌을
우승팀
우승으로
참여하였다
천황과
##사업은
중앙선거
국회의원에
##ont
3세와
제20대
사람들이
것이었다
것이라는
전라남도는
교수와
대학과
이사회
이사벨
사용했다
이름은
경찰의
설립되었다
선정했다
행정복지센터
총선거
항공기
여성의
##지역본부
4세와
개발에
참가하는
##기관으로
##est
사망하자
성공한
공개한
공개된
김성진
경남대
##시키기
원내대표가
바이올린
대학교의
출마를
출마한
##세계수영선수권대회
##체육회
북한의
사랑하는
지방자치
윌리엄스
총리로
##선거에서
내용의
잉글랜드의
프리미엄
이정희
페르디
이전의
기타리스트
전망했다
보유한
기획재
목포시
주최하고
전해졌다
금호산업
금호아시아
후계자
##계획을
국정감
의미를
한진칼
명칭을
자회사인
##스케어
시티즌
녹색당
판단했다
근로인민
선생의
달러를
촉구했다
해적당
아랍에
티베리우스
스카이팀
제일기획
KCC
영산강
진단했다
대림산업
Club
고교쿠
농림축산식품
홈런을
SPC그룹
나아가
보르자
국회부의장
정현복
##벤처기업
아인슈타인
이만희
참조기
벤틀리
미들급
우루과이
최호진
홍범도
대막리지
더글러스
김건모
박태준
베텔게우스
앤서니
유근기
윤소하
트빌리시
금호아시아나그룹
03
1기
1회
2만
2위를
3당
3연
3개의
300여
59
5000
89
As
Amer
CP
Con
Cor
EU
HDC
IC
KO
Lea
Ma
Min
S20
UN
UBS
가고
가시
갈라
강제
강연
강릉
개로
개국
개관
거대한
걸친
게시
결정을
경호
경혜
고토
고유
괴팅
교사
구본
권고
권영
금액
기장
기증
기억
기쁘
기젤
김주
김선
김효
김덕
낳았다
내에
노엘
높이고
누르고
눈에
뉴턴
니키
다다
다루
답변
당일
당명을
대거
대결
대폭
대상을
대법원
데에
도호
동서
동독
동북
동쪽
라치오
루터
루이스
마르크
막부의
말한다
명절을
모건
몰락
못하는
민원
바비
박차를
반공
받게
발의
발휘
방법을
백종
벌어진
벨파
보는
보통
보이고
부주
부장
불렀다
비토
비록
빠진
사다
사마
사직
사형
삼아
삼촌
상회
생모
서머
석사
선배
성균
세대
세워
소멸
손해
송가인
수소
수감
수학자
시인
시각
시내
신학
신제품
아파
아산
압박
애로
어드
언제
얻은
없어
여기에
여동생
연극
오거
오랜
오티스
온타리오
올림
완벽
외국
왼쪽
원의
위기
위성
위촉
유권
유치를
윤보
은메달
을지
의뢰
이송
이틀
인상
인기가
임영
임금
입원
있으나
자민
자본
자격을
장흥군
재능
저희
전혀
전하고
정복
정일
정순
정말
제치고
조각
주립
주간
주지사
준장이
중공
즉시
지식
지표
지명을
진정
진입
진압
차이
차단
차원에서
창조
찾았다
최진
측정
쿠빌
탑승
터뜨
토트
토요
트레이
특화
특검
팀을
파벨
페리
편의
편지를
평생
평소
폭행
프랭
피에르
핑크
하자
하계
학부
한마
한번
한명
한층
한반도
함태호
합쳐
했고
행위
헬리
협상
협연
호조
호응
홋카이도
화물
힐링
힘들
##주고
##이크
##다른
##하루
##하라는
##기인
##문덕
##에만
##는지
##협상
##고시
##교를
##교한
##교회의
##수에
##수사
##수록
##제한
##제국의
##여대
##전시
##전쟁
##마저
##블로
##어도
##어스
##어때
##안이
##사키
##사협회
##성의
##지구
##지니어
##방위
##구의
##건의
##영방송
##철학
##인천
##파일
##리조
##FL
##실이
##능력
##서의
##점검
##점에서
##선이
##선은
##PG
##1대
##양구
##트라
##동에
##세는
##세자의
##레오
##37년
##직에
##대부
##대신
##내는
##내며
##들께
##태후
##키로
##가에
##가게
##소의
##소시
##호선
##ris
##일로
##역에서
##디움
##오자
##오니
##니버
##션은
##출을
##ld
##발의
##청은
##청문
##청을
##보미
##씨를
##운용
##io
##밀한
##카가
##타우
##슨의
##명희
##렸던
##됐으며
##히트
##모를
##등급
##che
##닷컴
##훈이
##코바
##중인
##중심
##창업
##유통
##DR
##석은
##률은
##판을
##혜진
##필름
##특보
##목을
##뿐만
##쳤고
##헨티
##콥터
##닛폰
##했다가
1000
15년
151
대표이
대표적
##위원장을
##까지의
129
174
후보에
국민들의
경기는
서울중앙
사회공헌
##스트를
##그룹은
선수이다
프랑코
연구를
130
기록은
지원하는
활동했다
시작했고
##되었던
참여하는
1월부터
정치인으로
진행했다고
1957년
방송인
방송국
삼성SD
현대산업개발
##ann
2021년
때문이다
공화국의
전국적으로
##ars
우리나라
이에야
사용하는
경찰이
선정한
##니아누스
상황에
들어간
수상자
##사회복지
중심의
항공은
사건은
1927년
제국주의
구성원
성공회
그룹의
독립운동가
김성주
즉위하였다
역임하였다
이승옥
1915년
##재단은
1939년
1938년
제공할
LG그룹
LG유플
라이벌
당선된
평가했다
마련해
마련했다
출마하여
타이완
대신하여
영향으로
아르테
아르메니아
아르헨티
돌아온
건강한
2년간
1년간
준비를
피해자
박근혜는
전년도
전년대비
##our
1908년
##000억원
기여했다
음악을
구축을
업무를
예산을
유니콘
통일민주당을
개혁을
지금의
활용해
##바이크
분석한
상태로
##지방법원
중요하다
운동에
건륭제의
부회장이
소프트뱅크
실적이
주도한
충청남도
충청북도
파이널
NATO
여기어때
작곡가
담양군
투입해
##슬라비아
경성대학교
내셔널리그
스티브
##민족행위
공직자
##ive
##소방서
공산주의
나폴리
마스크를
##liam
##공동체
FA컵
바뀌었다
선덕여왕
선제후
티베트
더블린
부사장
현대자동차그룹
간담회
드림스타
비중이
실질적인
평화민주당을
항공사로
문무왕
스프링
MLB
가맹점
지하철
가마쿠라
젝스키스
화장품
##케스트라
누리꾼
애덤스
파트너
콘스탄티노폴리스
남조선로동당
노스웨스트
유고슬라비아
권오봉
리눅스
스왈로스
한종현
거머쥐
아랍에미
League
괴팅겐
백종원
벨파스트
을지문덕
쿠빌라이
헬리콥터
09
1개
4강
46
72
74
7대
87
91
93
AP
Col
Com
DG
DM
En
Fr
IF
IM
Lam
MD
NC
Th
UC
Wil
bh
for
가로
가리
가스
가쓰
가짜
간사
강요
개의
개통
거짓
거뒀
검모
검사를
게르
겪는
경력을
경덕왕
고백
고창
공고
공차
공인
공을
구충
구현
국왕의
군의
군대를
그라
그에게
급행
기도
긴테쓰
김은
김복
김무
김호
김만
김두
끌어들
나뉘
나주시
내정
녹음
논쟁
농심
눈물
다스
다섯
당명
당나라
대사
대단
대외
도내
도서관
동지
되었는데
두루
두려
드럼
들고
들여
등도
디비전
딸로
때에
떨어진
래퍼
레닌
로즈
마거
막기
만남
만난
맞은
매입
맺었다
메이지
모았다
목사가
못했고
무시
무궁
문정
미네
미사일
민정당
밀라노
박대
박준
박일
박씨
박종
박흥
반복
반박
발급
밝혔
방사
방지
법원
베니
보조
본다
봉사단
부하
부천
부른
분류
불안
빌보드
사우
삼양
상원
생제르
서재
서민
서류
성사
성능
성향
소리
소독
손에
솔로
송수
송갑
수는
숙의
스이
스터
스베
슬로
승진
시의
시정
시립
시범
시바
신격
신조
쌍용
아담
아세
아케
아모
아침
안에서
알릴
알렸다
앤드
야스
야놀
양식
양향
양평군
어제
여당
역량을
열리는
예측
오지
오세
오카
오래
왕이
왕자의
외손
용인
우에
우원식
원성왕
유학
유격
유리
유산
유포
유족
유학생
육상
음식
의거
이지
이범
이준
이씨
이춘
이두
이베
인기
인력
인사를
일상
임지
임동
임택
있기
자진
자택
자극
작년
장을
장경
장애
장덕
장군의
저항
저녁
적은
전속
전분기
정리
정희
제퍼
제거
제안을
조던
조기
조오
조병
조례
주거
주체
주둔
준장으로
중위
중세
즐길
지드래곤
직속
진덕
집회
차이로
찬성
책봉
천문
첨단
청구
청산
청취
체제를
최정
최저
최후의
추구
충주
충분
치열
칭기
카자
카툰
컨설팅
케임
코미
코르
코스
콜센터
타슈
탈락
태종
태창
털어
토지
토대로
트와
특채
티켓
펄어
페예
펼치고
폐쇄
포위
폭스
프랜
플래
하위
학사
한경
항상
해안
했는데
행위를
허남
현직
협의회
형식
호를
호흡
혼자
혼란
홍문
홍무
화재
후기
##자기
##자문
##자금
##자산
##이와
##이센
##군다
##군에게
##하학
##하에서
##미의
##미야
##기기
##로와
##문의
##라엘
##받을
##고한
##교의
##수현
##수칙
##정비
##제일
##치지
##치유
##즈미
##즈에
##즈키
##안은
##사항을
##졌지만
##졌는데
##방역
##구가
##구조
##구리아
##적은
##영민
##영식
##영업
##2M
##40
##인조
##인들의
##국립
##국장은
##도우
##실에
##박람
##령과
##담당
##금지
##해져
##해왔
##서기
##서부
##서구
##진의
##단지
##단계
##였는데
##상업
##계승
##PA
##와는
##10
##12
##환의
##환을
##트와
##노부
##노르트
##동물
##나갈
##르의
##세대
##세포
##흐트
##39
##직자
##대군
##내어
##준호
##가고
##가며
##송을
##소는
##소원
##스톤
##비로
##통을
##통운
##우키
##니스트
##lo
##권에
##발을
##청과
##청에서
##청소년
##브영
##브란
##브리지
##pp
##순위
##카스
##연은
##연금
##색을
##명했다
##누이
##모리
##바다
##바라
##c치킨
##백화점
##ha
##hin
##친구
##반민족행위
##예비치
##언스
##그와
##HC
##메이트
##메네스
##OW
##석으로
##훼손
##축은행
##글로벌
##변호
##클린
##농구
##판매
##더릭
##두로
##났으며
##량이
##bc
##플라
##슈바이크
##목표
##목으로
##응급
##홀에서
##홈쇼핑
##왜란
20년
2006
2007
##에게도
한국정보
15일에
##위원장은
광주형
광주세계수영선수권대회
대통령후보
11시
110
12개
지역으로
일본을
##6년에
18세
170
175
##되었다가
후보와
정부에서
조선시대
프로이센
143
서울시장
선수이며
제1회
제14
제18
이어서
135
사업은
FC를
활동한
시작하여
##센터에서
시즌이다
25일에
위원장을
##사업의
##사업회
관계자들이
30여
아이폰
아이스하
진행하는
진행한다고
1953년
8월에
11월에
1973년
##들에게는
부산은행
소속된
전라북도
한다는
이용대
추진을
개최했다고
하나님
이사장이
주장하였다
발표하였다
장관은
경찰은
##하겠다는
1일부터
상황이
들어서
들어갔다
이라면서
총선을
항공의
임명하였다
1926년
인천시
제국이
출연한
성공적인
김성수
안전한
100여
100만
포함하여
데뷔했다
1917년
1918년
고려대학교
2009년에는
##개발공사
##안전처
##안전본부
환경을
요구했다
비판하였다
대학교에서
5세가
##증권은
가수로
대신해
미래를
미래통합당
정당이다
동생인
매출이
6세가
베이직
베이비
출시한
순천시는
분야에
활약한
크리스토
크리스털
추가로
이유를
회원국
진도개
임시정부
기반을
연방의
제품을
유니폼
유니클로
유튜버
자리에서
부문의
나이에
채널을
불가능
신라의
결승전
결승전에서
신문왕
전해철
제안했다
##00만원
프리미어리그의
상임대표
유일하게
클라크
규모가
않았던
농협중앙
은퇴한
##서비스를
브라운슈바이크
와이즈
연고로
콘스탄티누스
삼국유
##철도공사
##혁신도시
마이크로시스템
득점왕
출판기념
##ivers
페이스북에
거두었다
이웃을
일어나
지냈고
홈페이지에
조승우
이벤트
중소벤처기업
이바지
정의개발
신속한
알리기
친일반민족행위
가까운
아시안
잭슨의
알아사
제도혁명
효과가
업무협약
바람에
심각한
연예인
열린우리당
본부장은
북구갑
타이틀을
갈등을
강경화
김병내
부총리
김제시
다니엘레
김준성
누구나
방식으로
송영길
신한은행
신민주공화
신민주공화당
받아들여
동신대
목소리를
문효세자
아메리카
이스라엘
BNK금융
카롤루스
제15대
무령왕
##port
천계제
##협의체
디비시온
문희상
북아일랜드
안타까
여의도
니시닛폰
MVP
남연군
최연소
중국인민지원
마흐무
송진우
엔씨소프트
임진왜란
총대주교
##세르크세스
토트넘
bhc치킨
검모잠
구충곤
마거릿
무궁화
서재필
송수건
양향자
카자흐
타슈켄
페예노르트
##상업고등학교
아이스하키
1호
2남
2경기
2개의
2AM
3남
3명
30년
4명이
4개월
58
6개
7기
79
7년
73
77
7세의
9시
9개
92
AO
Bo
BB
BBC
BTS
FK
Go
He
HB
Kor
LNG
Mn
NBC
PC
SF
So
TBS
㈜오
간다
감사의
강기
강아
강제로
개헌
거룩
것임을
것처럼
격리
경무
경북
고다
고성
고연
곡으로
곳으로
공수
공략
공기업
곽상도
관찰
관측
광화
광해군
구로
구분
구스타
국장
국회를
그에
기다
기성
기용
기대를
기회가
김도
김세
김산
나고
남동
남긴
낮은
내무
네티
네이션
넷째
노사
노조
노영민
높이기
뉴사
뉴질
니에
다해
다소
닥터
당주
당진
당한
당대표
대강
대법
데리고
덴지
덴버
독재
돌봄
동의
되면
되도록
두번째
뒷받
드론
드래
등급
떠난
라스
러셀
러요시
레나
로이
로부터
론칭
롤링
루크
류사
르네
리옹
리구리아
링컨
마라
마감
마친
마우리
만났다
말이
말해
맞대
매력
매일
맺고
먹고
멀리
메가
멘토
명현
모하
모르
모토
목사
무기
무관
문선
미리
바트
바젤
박지
박능
박완
박탈
박지원
박물관
반대로
받기
백인
번의
벌였다
보육
보잉
보냈다
보이는
부서
부친
뷰티
블레어
비오
비유
비잔
빠른
사는
사도
사돈
산학
삶을
상의
상주
생방송
서인
서초
선호
성을
성우
성장을
소용
소피아
송시
송종
수장
수페르
스카
스트리
승부
시사
시가
시조
시의원
신형
신작
신흥
신앙
신민주연합
싸우
씨를
씨에게
아기
아는
아바
아티스트
안동
알게
앞에
애장
야드
야권
양승
어도비
얻게
엄청
없게
없었고
에픽
엘시티
여부
여사
여객
연휴
연말
열심
영조
예배
오다
오경
올랭
와서
완공
왕의
외부
외조
용병
원칙
웨일스
위험
위그
위기를
유성
유민
유키
유출
유가족
윤상
율리우스
읍면
의식
이노
이들이
인텔
인테르
인연을
임신
임상
입지를
자금
자아
작센
잠재
잡지
장병
장석
재고
재차
재조
저작
저명한
전임
전용
전동
전한
절차
점유
접어들
정미
정문
정호
정광
정조
정조의
정계에
제가
제천
제주시
조명
존중
좌익
주의
주도로
주니치
준회원
줄어들
중재
중간
중추
중에서
지주
지향
직을
진로
질문에
차로
착한
참고
참전
참패
창시
처벌
청원
초기에
총력을
최경환
축사를
출간
충족
충돌
측근
카스티
캠코
커졌다
컨센
컨소시
컴백
코치로
쿠사
크라이
크리에
키우
탈출
태조
테오
투표를
트라
트렌
파워
패러
편찬
평등
폐위
포터
포드
프린
필름
하시
하원
하면
하늘
하태경
학과
학파
해밀
해군의
향상
허영
헤어
홍익
화합
활약을
후안
후궁
훌라
훼손
흔들
흥덕왕
힘이
##의로
##의약
##주었다
##이면
##이닝
##다이스
##군사
##재난
##하위
##하우스
##미에
##미아
##기아
##기상
##로우
##에셋
##생의
##생을
##고의
##고에
##고와
##임이
##임금
##수리
##수도
##치에
##치면서
##회관에서
##여름
##부품
##전군
##어머니
##즈는
##안의
##안군
##안보
##사다
##성도
##방을
##건이
##강을
##영주
##23
##인들에게
##츠는
##츠를
##파노
##국에
##당했다
##당하고
##리치
##실로
##실천
##관의
##했음에도
##원한
##서로
##곡을
##피크
##아키
##장로
##았으나
##NE
##무역
##단에서
##행이
##5억원
##린의
##술을
##퍼시픽
##EE
##환이
##트랙
##노피
##노프
##노총
##동발전
##나마
##르를
##르노
##세로
##산군
##공장
##공연
##되던
##되게
##되도록
##직에서
##분의
##분투
##가격
##형사
##요리
##소영
##소나
##론이
##론은
##론가
##론주의
##비정
##비노
##비오
##일렉트로
##우치
##번의
##디우스
##오를
##오일
##토르
##니까
##니카
##티움
##ax
##업에
##권과
##설이
##청에
##브스
##보스
##보살
##보디아
##ib
##타리
##타크
##법이
##만원을
##택시
##렸으며
##크리
##따라
##등의
##등을
##체험
##체국
##KA
##화로
##포럼
##락을
##총독
##책에
##유산
##OP
##OM
##석의
##ST
##페스트
##료로
##루의
##매치
##매김
##테이
##심과
##판사
##렉스
##집을
##홍보
##캠퍼스
##추고
##borg
##저축은행
##웨일스
##액을
##죄를
##슬링
##MS
##왔고
##렌스
##VB
##놓고
##젠베르크
한국은행
한국독립
한국방송공사
158
##0년에
대표하는
##위원장이
##한다면
112
125
1997
위해서
함께하는
미국은
176
17세기
##되었다는
후보에게
##하기를
국민회의
##대학교에서
조선총독
경기에서도
프로모
프로리그
통해서
서울에
민주화
제10
국가에
국가원
연구소
축구단
이어지는
134
기록하면서
지원해
지원하기
사업의
사업이
FC와의
시작하였다
시즌에서
우승한
##ern
세계에서
세계적으로
천황을
독일군
중앙방역
5월에
아이즈
아이를
아이템
회장과
1965년
따라서
1951년
방송에서
1977년
##one
##항공사
현대중공업
1940년
제2회
관련한
##우스웨일스
이용한
##된다고
사람의
개최하고
개최한다
국회에
이사금
이사장은
이사장을
기업으로
김정호
발표된
장관이
아버지가
선정된
선정돼
학생들을
시장에
##문화관광
##문화예술
수상한
##운동에
사실은
여성가족
임명되었으며
광주시가
사건이
##로서의
1929년
1922년
##지역에
2012년부터
개발을
참가했다
참가하여
##기관인
구성되어
##대회는
대전의
##관리위원회
##ice
스타벅
스타디움
대구시
데뷔전을
처음에는
1937년
고객들에게
시리즈에서
제작진
제작한
인사들이
알렉산더
알렉산다르
요구하는
광양읍
마련됐다
5세의
결혼식을
동아시아
이적하여
미래에셋
동생이다
##과학원
23일까지
돌아와
돌아오
진보신
건강을
역사적
발전에
지휘하는
출전했다
출시된
시절에는
진출에
판매하고
선언하였다
인정받아
##선거에
성장할
등장한
시간이
확보에
##스티벌
체결했다고
유진산
있었는데
이승만은
이재용
여수시는
보건소
자리매김
하였으며
출범한
언급했다
인물이다
군민들의
나이가
이르러
이르기까지
이종걸
경쟁력을
김재연
제외하고
명예훼손
합병을
일으킨
일으켰다
나가겠다
논란에
아프가니
희망을
##ley
##정의학과
해양치유
고용정보
자회사로
획득했다
여기서
제7사단
스티븐
자이언츠의
남부대학교
소유하고
받았지만
이것이
프레데
##선대위
국제공항을
올리며
이루어졌다
인재를
입당하여
집행유
요리토모
이자벨
이기택
준우승을
이성호
작은도서관
정몽헌
##서울대학교
물러나
초반에
##청년단
스테파노
플라톤
강점기
나누어
주목을
권한대행
Univers
조원진
차별화된
##udi
대원방송
분위기
차남으로
Joh
대리점
도착한
사항은
제주특별자치도개발공사
오리온자리
동남아시아
정확한
##대통령후보
##ARD
고노에
##미술부
제13대
문화재청
과학기술정보
아우구스투스
매카트니
미하일
세븐티식서스
리니지2M
삿포로
소외계층
안드로이드
콘서트
혜택을
##상규명
##현대산업개발
고로쇠
미카엘
박마리아
비즈니스
서정대학교
우드빌
윤종필
최형식
해운대
##정상회담
한국남동발전
페르디난
HDC현대산업개발
도호쿠
동북아
부주임
어드밴
자민련
학부모
##지니어링
Lamborg
William
거뒀다
스이코
신격호
제퍼슨
치열한
케임브리지
코미디
트와이스
##hini
중국인민지원군
타슈켄트
Mnet
㈜오뚜기
네티즌
뉴사우스웨일스
뉴질랜드
뒷받침
류사오
명현관
박능후
송시열
송종욱
올랭피크
장석웅
컨소시엄
쿠사나기
크리에이
해밀턴
중앙방역대책본부
Lamborghini
02
05
08
1시
1녀
1층
14년
3녀
3D
3루
3층
3개월
4번
4개의
500여
5년간
6시
63
83
9회
97
9일에
AR
A씨
AD
A리그
Air
A매치
CF
Co
Cent
DB금융
GC
HMS
LV
Mar
MOU
Pr
Pet
SC
Su
USA
ZARD
가공
가질
각별
각지의
간주
갑자기
강성
강태
강하게
강사로
개교
거론
거래
검은
것이며
격상
결합
겸임
경주
경선을
계통
고가
공부
공관
공신
공립
공중
과도
관리를
광개
구자
국공
군인이다
권력을
균형
그만
그쳤다
극복을
급격
기재
긴밀한
김의
김미
김문
김남
김보
김포
나토
나윤
나중
나이지
난징
남한
남쪽
남동생
내지
내보
냈다
넷마
노후
노선을
논평을
농민
농가
농기계
높였다
놓여
능주
닌텐
다중
다문화
단행
단식
단순
단절
당대
대로
대승
대항
대권
덕진
데려
도박
도달
독도
독점
독려
돌입
돕는
동방
동해
동창
동상이
되던
되돌
되는데
뒤에서
드라이
드라가
듯한
디펜
딸인
딸을
때의
뛰었다
라틴
라운드
랜드로
레버
레바
레온
로저
리우
리오
마치
마쳤다
막을
많아
말고
말레이
맞게
매장
맥주
머리
메디
메뉴
면담
면세
명품
명절
명으로
명나라
모으
목적
몰아
무가
무패
무슬
문자
문보미
밀레
박두
발레
배재
배당
배터리
백성
백승
법과
법인
베드로
벤저
벨라
벨기에
병합
병력을
보험
보좌
보존
보이며
보이지
보해양
부구
부각
부품
부쿠
부처
북방
북대
분들이
불어
불참
불편
브루
블루스
비다
비행
비준
비스
뿌리
사로
사커
사과를
사마의
산악
삼았다
상담
상장
상가
새만
색소
생물
생겨
서양
서삼
서프
서귀
서독
석탄
선덕왕
설치를
성종
세자
세미
세월
세상을
소수
소요
소식이
쇼트
수산
순으로
숨겨
쉐보
쉽게
스와
스키
스케
스톡
스팬
스퍼스
스케이
시군
시에
시무
시드
시키
신춘
실습
실력
심지어
아폴
아쉬
아낙
아들을
아브라
아카데미
안나
안중
안창호
않게
알베르토
애국
앨런
야로스
약탈
양보
양성을
어른
어떠
언니
얻고
얼라이언
업계
없었던
없다고
여단
여왕이
여당인
연애
예고
예편
오제
오신
오디
오페
오열
오빠
오하이
옹정
완전
왕녀
요하
요새
우젠
웃음을
웅진
원주
원외
원하는
월트
월광
월간
위탁
위스키
윌슨
유의
유입
유길
유네
을지로
음료
의용
의병
이마
이진
이규
이소
이념
이뤘
이같은
이글스
인지
인턴
일명
일화
일이다
일가가
임기
임씨
입성
입건
입법
있습니다
자율
자금을
자민당
자세한
작사
잔류
잡은
장이
장례
장군이
장보고
재미
재즈
전역
전부터
점점
점포
점에서
정다
정원
정계
정읍
제명
제우스
조이
조인
조세
조소
조치를
조메이
존경
존속
주었다
주도의
죽인
준공
줄리
중반
중의원
증명
지리
진해
진심
진평
집에서
착수
철학을
체제로
첼시
초에
총장은
총리를
최민
최신
최순
최태원
최하위
추경
충북도
측에
치렀다
침략
침체
카터
카트
칼초
캄보디아
쿠르
쿠팡
크누
타자
타격
탄소
탈환
탐방
터미널
테러
테르
토너
퇴위
퇴진
투신
트리
파기
파티
판결
판정을
패한
패키
페데
펠릭스
평안
포지
포장
포항
포럼
포인트
표시
피겨
피닉스
하사
하키
하워드
학위를
함대
함소원
합리
합당을
해제
해피
해석
행동을
현금
호세
홍성
홍남
홍명희
화제
화산
화가
화려
화제가
확충
황자
황금
후인
후지와
휴스턴
흥선대
##자고
##자들을
##자리를
##주식
##주니어
##이었으나
##이었지만
##다드
##다니
##위해
##재성
##하진
##하라고
##미칼
##기부
##기금
##기반
##기압
##로도
##로드
##로써
##생물
##라데
##라비아
##임은
##임대
##정신
##제철
##제당
##과에
##회관
##부총
##전략
##블랜드
##시당
##시각
##어는
##어야
##즈를
##월드
##안과
##졌던
##민은
##민을
##지마
##지인
##지노
##지검
##방과
##방안
##강의
##적의
##2동
##2대
##인에
##인수
##인식
##인들은
##파에
##파는
##러스는
##국에서
##당하자
##리테
##력은
##박사
##박한
##박스
##물산
##령이
##했었다
##해도
##진으로
##아몬
##찬을
##점에
##GO
##무열
##용준
##단장
##85
##선의
##선에
##선언
##상담
##상스
##상으로
##상자원
##IL
##퍼레이션
##드인
##드릭
##와프
##EC
##13
##환자
##노이
##거리를
##경과
##경쟁
##경기에
##후에
##규제
##한국
##각지
##산에
##레는
##레슈
##입니다
##공수
##공개
##공산
##면이
##면에
##대사
##대리
##대왕
##대병원
##함이
##들이다
##태를
##태훈
##키우스
##현이
##현은
##가미
##가정
##워스
##형제
##었을
##버드
##버스터
##소리
##스팅
##스테
##스컵
##스와의
##호가
##광주시
##야수
##ool
##비행
##비서실
##통상자원
##역사
##디를
##eg
##ect
##케미칼
##7기
##ag
##ai
##ac
##업무
##권에서
##권센터
##조에
##설에
##설을
##설위원
##청이
##달아
##달라고
##브르
##브웨
##보로
##보면
##보육
##운을
##gon
##ik
##법률
##연히
##명수
##렸지만
##크는
##감한
##모임
##모어
##바겐
##투표
##체계
##체계를
##작으로
##쿠니
##봉사단
##cy
##데오
##화는
##화하는
##별로
##포조선
##친왕
##친화
##음이
##검찰
##언론
##난이
##메이라
##팀의
##팀은
##팀에서
##절도
##OT
##석유
##급을
##랑이
##천군
##님으로
##루이
##ft
##테리어
##심의
##네마
##네부르크
##네트워크
##려는
##베데
##곳을
##먼드
##갔고
##BN
##MH
##MW
##골로
##랐다
##염을
##렌코프
##캐스터
##홀름
##덕을
##맞이
##밴드
##둥이
##펙트
10여
10시
102
105
10대
100년
2012
200여
2004
154
156
대한민국은
대한민국에서
##까지도
광주의
광주대
광주대학교
대통령인
대통령으로
##회의소
118
11일에
1992
이후의
이후에도
##8년에
미국과
18대
171
의원으로
후보자로
##하기에
국민참여
조선공산당
리그에
리그에서는
프로게이
14개
서울의
사회민주
선수의
선수들이
선수이자
민주사회당
24시간
1380년
지원에
지원했다
지원하고
FC가
FC에서
활동에
활동하면서
활동했고
시작한다
시작됐다
프랑스는
중국인
##되었지만
##센터는
시즌2
세계의
위원을
위원장으로
참여하고
##민주화운동
9월에
중앙집
중앙도서관
5월부터
아이오
1960년대
12월까지
정치의
정치에
정치인이다
진행하고
진행된다
운영을
운영한다
방송에
방송을
1970년대
사이에는
사이언스
3세에
삼성카드
삼성생명
삼성물산
현대오일
1944년
부산경남
제24
시민축구
육군의
육군본부
공동선대
관련하여
이용자
이용빈
27일에
유럽의
##end
전라남도교육청
공화당의
프리메이라
올해는
##are
##arl
우리카드
하나인
##이트를
주장에
주장한
주장하는
주장한다
방문한
사용하고
경찰에
주민들이
주민들에게
만들고
아버지는
학생이
시장에서
##문화재
##문화를
배우로
##사회적
조지프
실시하고
임명된
1923년
정책위원회
4세의
참가하였다
##이었다고
결과는
전문의
2014년부터
##ick
##ical
스타일
안전과
역임했고
이승훈
데뷔하였으며
1914년
생각을
1935년
제공한다
2019년도
김종규
김종대
바이든
바이킹
##안전대책본부
환경부
인사청문
기대감을
선출된
선출됐다
선출되었고
##협회가
박정호
##고등학교를
북한에
이적하였다
##축구협회
특별한
어머니가
정당으로
20일까지
과정에
다음날
아르타크
영광군은
돌아갔다
진보당
기간에
2008년에
산업통상자원
판매를
혁신적인
선언했다
광주광역시장이
광주광역시교육청
준비했다
준비하고
##이라도
새정치민주연합
내년도
내용이
내용은
결성한
##이익은
1904년
이정현
페르난
회사인
회사이다
국가대표팀의
문제에
이전에
체결하고
한국전쟁
검찰개혁
경영권을
탈당하여
기여할
요시노
50여
있었기
찾아가
행사에
도쿄에서
에어아시아
이동녕
전략적
통일민주당의
그녀를
동양척
지금은
지금까지
한전공
활용한
##바이오
마르틴
서구을
제3차
군민의
반영해
경쟁력
발견한
상태에서
채널에
##크로일렉트로
공화국연합
##ast
김재규
장제국
전남도교육청
확정했다
김정은이
김정은은
교통국
광양시는
인민군
일으켜
주최하는
1880년
드러났다
공모를
기상캐스터
소통의
조선민주주의인민공화국의
CJ제일
기준으로
클라우
하여금
조선인민당
산하의
산하로
애니원
##기념사업회
의미가
정식으로
주식회사는
##노동조합
나라를
명칭이
신동아
신동빈
제출한
제출받은
하이젠베르크
합당하여
시설물
네트워크를
가경제는
##디아라비아
헝가리의
제19회
관심과
받았으며
지역사회보장
베르누이
올리브영
프로듀스
SNS에
군인권센터
대부분의
작업을
##lie
그런데
동맹을
이론물리학
득표율
전기차
##ung
가까이
두산그룹
골든이
김홍용
아라곤
스트라이
인근에서
나온다
반란을
사무총장이
콘텐츠를
##여자대학교
##여자고등학교
바이에른의
간담회를
봉사활동을
영산대학교
응급의료
형태로
##ide
건축가
의정부시
협약식에는
##마이크로일렉트로
박영선
원자력
제목의
치러진
후임으로
##apa
##ardo
슈퍼리그의
김석준
밝혀졌다
안양시
이스마일
플레이오프에
민선7기
헤르만
활발한
IBK
IBM
김유성
성폭력
잘못된
지키고
무덤인
보아르네
비틀즈
십자군
연습생
유대교
커뮤니티
커뮤니케이션
타이거스
브리핑에서
CSKA
LCK
ST마이크로일렉트로
다나카
무엇보다
##로브스키
국립중앙도서관
##ight
광역권
김광수
박유천
서포터
숭정제
에스파냐
주축으로
제17대
유니버설
World
김천일
리스본
종로학원
체감할
클리블랜드
한국시리즈
ASML
기아자동차
다마스쿠스
데모크리
서대석
파인만
중앙선거관리위원회
경혜공주
기쁘다
동서대학교
성균관
토요타
호응을
대표이사는
삼성SDS
드림스타트
박일준
박흥주
사우디아라비아
송갑석
아세안
아케메네스
아모레
야놀자
이준용
자택에서
조오섭
진덕여왕
태종무열
펄어비스
##응급의료
마이크로시스템즈
HB엔터테인먼트
광화문
나고야
대강당에서
드래건
모하메드
비잔티움
애장왕
열심히
크라이슬러
University
John
페르디난트
류사오치
DB금융투자
LVMH
광개토
나윤수
넷마블
랜드로버
벤저민
부구욱
부쿠레슈
북대서양
비다쓰
사로잡
새만금
색소폰
서삼석
서귀포
스와로브스키
스톡홀름
스케이팅
아낙시
안중근
야로스와프
오제세
오신환
오하이오
요하네스
유길준
유네스코
조소앙
토너먼트
프로게이머
현대오일뱅크
프리메이라리가
아르타크세르크세스
지역사회보장협의체
부쿠레슈티
01
1인
1라운드
2연
2명
2위로
3일에
3번째
3000
300만
4시
4승
5번째
69
600
6일에
81
800
8세의
A씨가
BJ
CR
Du
Ex
Fo
For
Ge
IP
LED
Mo
NL
OB
PR
PS
Pro
RC
SH
Sw
Sch
TH
TS
VI
WW
YT
△김
가세
가득
가우스
각성
간신
간섭
갈수록
갔다
강사
강영
강호
강간
강타
강병
갖는
개성
개종
개척
거제
거행
거친
거치며
건문
겐지
경건
경력
경신
경진
고은
고명
곳에
곳에서
공민
공무
공예
공석이
공양왕
과장
과목
관리에
광동
교도
교환
교보
교향
구사
구출
구하기
국순
국군의
군사를
궁정
권위를
귀성
그로
그랑
그때
그럼
그렇
그들을
그렇게
극장
기요
기보
긴메이
김아
김장
김범
김양
김혁
김택
김옥
김모
김봉
김창수
김철우
꿈꾸
끌고
나다
나무
남해
남겨
낭만
내고
너기
너는
넣었다
넷플
노부
놀라
누적
누가
뉴저
느다
다할
다룬
다큐
단장은
달려
담고
당헌
대정
대성
대북
대회를
대기업
도요
도심
도카이
독서
돈을
돌고
돌격
돌려
돕기
동산
동화
되지
둔화
뒤로
듀공
드래곤
득점을
듣지
등판
디트로
딕슨
때에는
뛰고
뜨거운
뜻깊
라마
라파
라우
라온
라그
레인
레우키
로만
로코
루시
루프트
루도비
리비아
마신
마가
마포
마힌
막강
막아
만세
만일
만슈타
말에
망명
매진
매직
맥도
맺은
머신
머무
머리를
머스크
먹는
명백
명성을
모은
모범
모후
모멘
몰래
몸을
못해
못했던
무선
무왕
무등
무스타
무라트
물어
물려
미스
민방
민의원
밀양
바스크
박선
박순
박삼
박수현
받는다
발사
발달
방위
방글
방지를
방식을
배제
백제
백두
버팀
번이나
벌금
벌이고
법학
벤피
변수
변신
변화를
별도
병무
보기
보게
보병
보궐
복용
본인의
부다
부합
부속
부상을
부부는
북동
북베트남
분당
분할
불거
불만을
붙여
블로
비시
비스트
비서관
빅히트
빛가
빨리
사르
사우스
삼고
삼척
상자
상위
상권
상표
상륙
상당의
상품을
새끼
서지
서거
서경
서병
석방
선의
선관
선서
성황
성추
셰프
셰이크
소닉
소셜
소장은
손녀
송도
송귀
쇠퇴
수수
수구
수능
수가
수완
수혜
수사를
수산물
숙청
스퍼
승강
승객
승리에
승인을
시나
시달
시책
시장을
시네마
신자
신당
신경
신입
신중
실적을
심문
심장
씨에
아델
아웃
안상
안심
안마의
안토니
않자
않다
알프
앙주
앞세
앞둔
앞에서
야노
약간
어디
얻는
얻을
얻었다
없고
에피
에렌
에르도
여당의
여당이
연관
연이어
열릴
열정을
열렸던
영주
영남
영유
예하
예결
오고
오너
오락
오라클
완주
왓슨
왕이다
왕세자
외에
외형
용의
우체국
운전
운용
울런
울리히
워크
원수
웨스트
웨슬리
웹툰
위대한
유다
유교
유정
유러
유한
유공
유잉
육성을
윤씨
윤희
음성
음모
의회의
의장을
의사회
이한
이니
이견
이든
이밖
이효
이긴
이들을
익산시
인용
인조
인연
인기를
일은
일로
일에
일단
일궈
일원이
일원으로
임재
임무
임기를
임기가
입은
입에
입찰
입헌
입장에서
잇따라
자라
자부
자립
자랐
작전을
장영
장면을
재가
재창
재편
저지
저술
저비용
적자
적합
전교
전지
전격
전도
전원
절감
절차를
점이
점프
정민
정남
정홍
정하고
정도의
제고
제의를
제도를
조진
조종
조반
조언
조훈
조성을
조약을
종종
종결
좌우
주시
주신
주세
주역
주석
줄어
중동
중견
중학교
증조
지니
지중
지키는
직위
직면
직전에
직책에
진학
진정한
짐바
창기
천재
천문학
철거
청자
청문
청주시
초콜
초빙
총회
총무
총동
총장을
총리는
총사령관
최광
추측
추존
추혜선
축소
취항
치세
치유
카산
카디
카드를
칸의
캐벌
캐스팅
캠프
커버
컬렉션
케리
케빈
코치
쿠폰
크다
크고
크롬
클랜
태국
태연
테무
퇴사
트윗
트레이드
파주
파울
파커
팔로
패럴
패하고
패트릭
페냐
포에
포고
폭발
표기
표준
피의
피트
하드
하비
하기도
하다가
한해
한니
한병
합법
항소
항쟁
허락
허가를
헌종
헤센
협동조합
호수
호치
호그와
홈쇼핑
회고
회동을
후배
후속
후에도
후신인
훌린
휴대전
힐베르트
##자스
##의에
##주신
##주권
##주간
##이즈
##이상
##이지를
##하니
##미로
##미와
##미포조선
##기자
##기사
##기적
##로코
##문왕
##라에
##라면
##라테
##받게
##받았으며
##임에
##교구
##교실
##교가
##수수
##정지
##제작
##과제를
##치쿠
##치료
##부르
##부원군
##전자가
##시했다
##9회
##즈노
##즈네
##안타
##사실
##사람
##성장
##민이
##지사를
##지사는
##방안을
##차량
##구급
##건축
##건으로
##강점
##영화
##0만
##0명
##0억원
##24
##21
##2일
##인사
##츠키
##파가
##벌레
##국토
##당해
##당했고
##당위원장
##리칸
##도와
##도에서
##CG
##물로
##관리에
##신으로
##신세계
##금의
##해가
##서에서
##진과
##진상규명
##아동
##아르
##장히
##립중앙
##무사령부
##용역
##행사를
##6억원
##터는
##터넷
##상생
##상선
##상욱
##계열
##계좌
##남방
##동민
##나를
##르템
##규직
##산화
##레톤
##공공
##공예
##면에서
##38
##대변
##대응
##분간
##분기에
##태후의
##키아의
##현의
##촌공사
##버린
##배를
##소통
##론의
##호의
##호에
##호영
##광양
##og
##ss
##sw
##일까지
##우가
##우먼
##역량
##식과
##식에서는
##디의
##디네
##오케스트라
##있던
##있게
##토리
##토록
##7억원
##출신
##ly
##품질
##품안전처
##업을
##조지
##조판
##애국당
##궁주의
##보전
##보며
##보증
##보좌
##커뮤니
##간다
##간호
##씨와
##운수
##ple
##패로
##표준
##삼다
##법의
##명사
##근무
##히로
##모와
##바시
##바야
##바오
##투아
##결과
##등한
##등록
##싸고
##체가
##작전
##봉길
##암동
##vin
##화부
##활성화
##훈처
##총회
##총괄
##센트
##메르
##메리카
##질의
##질환
##팀이
##팀으로
##창희
##절한
##유치
##DA
##페이스
##랑주
##벤져
##컨벤션
##님이
##루에
##루션
##ys
##심이
##률이
##네이
##판이
##판에
##돼지
##허가
##홍석
##겸의
##캠프
##플레이
##AN
##저스
##저우
##목이
##목원
##렬한
##올라
##켈레톤
##MBC
##핑크
##층의
##촉성
##십을
##앤드
##캐스트
##푸르트
##헬기
##헬스케어
##맞춤형
##셨다
##텐베르크
##듯이
108
103
##하였기
##하였을
한국이
한국에
한국어
한국중
한국프로
한국시간
155
153
15대
대한민국이
대한민국을
대표하여
광주지역
광주광산
광주신세계
대통령비서실
127
1999
지역은
지역인재
일본은
일본에서
함께한
미국으로
미국프로
18일에
##되었다고
정부서울
국민이
국민을
국민에게
국민들이
리그컵
사회학
민주국민
민주통합당
민주노총
##였다고
1세에게
제1기
제11
되었다가
자유한국당의
##교육에
24일에
국가의
연구에
축구팀
이어갔다
139
13세
기록했고
지원한
지원사업
FC와
활동하는
##센터장
세계에
세계대전
위원으로
7월부터
천황으로
##사업이
##사업단
3월에
교육청
선거는
선거인
선거가
1월에
아들이다
중앙선
중앙위원회
중앙기상
아이들이
회장으로
영국군
영국에서
정치인
진행해
진행되고
1972년
사이클
사이메이
국회의원과
UEFA컵에서
##레이만
문화가
문화관광
현대모
현대미포조선
1947년
제21대
##의회는
그러자
전쟁이
전쟁에서
시민들이
시민단체
##국민회
SKC
사람을
사람으로
사람들은
사람들을
사람들에게
##ens
##enn
통합당
통합한
##inci
대학원
대학에서
전국동
##ary
우리은행
우리금융
우리공화당
##이트는
##산업진흥원
주장하며
김정일의
발표하고
사용한다
장관에
있었다고
주민과
설립자
설립을
##하자는
선정되어
##기업의
대회로
대회에
물리학상을
##문화재단
수상자로
아니냐
실시한다
멤버인
임명했다
임명되어
광주시는
정책위
정책과
##발전을
국민의당을
4세가
참가해
결과에
출연하는
결정하고
구성하는
사망했다
창당하여
##기술원
##정치를
##ics
즉위하여
안전하게
안전관리
포함되어
김영삼의
고려해
고려대
고려개발
생각이
생각했다
1930년
1930년대
제공하고
제공하기
##정부의
시리즈를
대한항공은
30일까지
원내대표와
제주삼다
바이러스
어려울
발생했다
평가에서
국내에서
인사들과
##드리게
기대치를
브라우
강진군은
기독당
5세와
최근에는
동아일보
설명회를
졸업생
졸업한
레이더스
타이베이
어머니인
영향이
정권이
정권에
##라인은
가능하다
이끌었다
청와대에서
6세의
발전과
발전시켜
지도자로
차지하고
차지하였다
지휘관
출전한
진출한
선언한
총재로
총재가
협력해
대변인을
분야의
활약하였다
KBS2
기술이
기술을
유지할
정보통신
기관의
기관으로
기념해
내년부터
데이브
##관광공사
과거에
1909년
1906년
반대하고
##ett
계열의
예상보다
해당하는
검찰에
엔터테인먼트의
##으로서의
올라왔다
중화인민공화국의
구축하고
보내는
유진투자증권
임시회
이승만의
공연이
오스트리아의
법무법인
법무부장관
승리한
개혁국민
의혹에
자리잡
자리에는
존재한다
확산을
활용할
구단이
부문에서
광산구갑
다이아몬
담당하는
##정책을
##카드의
1999년에
KTX
황제인
##ass
2004년에
국방위원회
본격화
확정되었다
회의에
교통방송
달성했다
##eder
자유민주연합은
1887년
드러머
드러냈다
SMAP
고양이
일제강점
정신적
GS건설
노래를
포르투갈의
박헌영의
국왕으로
새누리
2020학년도
Stat
김동혁
음반은
프로젝트를
복귀하였다
추천을
제조업체
홈페이지를
##전문가
4차산업
NAS
김수민
한화건설
##시즌에
부진한
블루윙
##공업고등학교
세력의
시설을
이강인
장남으로
제7회
콘스탄티노스
##ational
인터뷰를
7세는
귀족들은
마음이
뮤지션
##데이터
남부발전
세종시
연결하는
지시했다
초기에는
판단된다
거두며
근로자
이것은
이것을
일어났다
지배를
창설된
##지도자
##소방본부
반발하여
반응이
베르너
표현을
귀국했다
기본법
남자친구
불리게
불리한
상당한
약속했다
연주자
차례로
이기붕
이론을
창업주
강등되었다
경선에서
기능을
상승세를
수요가
정몽구
공동대표로
박상준
식품의약
유벤투
이로써
모리뉴
발탁되었다
수익성
재판에
베네딕트
540
밝히며
소설가
출생으로
페이서스
관람객
긍정적인
대책을
빅토르
야마토
야마모토
자격으로
장수왕
주재로
케이블
기자회견에서
오스트레일리아의
김희철
김희선
내세우
형태의
한국민주당의
전남대병원
다케오
분위기를
여러분의
대통합민주신
Clar
NHL
높아지고
송영무
올스타팀을
정재학
죽음에
김석기
바꾸고
아메리칸
조건으로
##테크노
동원해
소송을
연남건
황태자
Leon
USL
격파하고
남원시
둘러싸고
무료로
미용명
성폭행
영락제
이익을
휘그당
프랑크푸르트
4대강
마티아스
메시지를
유스티누스
유스티니아누스
이경선
허브로
대한독립군
국가보안
국가보훈처
권유로
마인츠
박주선
박찬종
세부목표
일리노이
##기록을
Science
Sciences
개그맨
개그우먼
동일한
문의하면
베이스볼
유관기관
철저한
초고왕
##시켰고
LIG
레코드
서장훈
알사이드
음주운
이채익
이순신
최성원
히어로즈
##안심센터
##우주연
대통령직속
061
DeNA
거리두
김삼호
대대적인
바그다드
알바니아
압도적인
조계종
키움증권
##bert
기획재정부
근로인민당
농림축산식품부
America
KOF
구본무
권영진
기장군
기젤라
김주열
시내버스
오거돈
올림피아
윤보선
프랭클린
LG유플러스
아랍에미리트
DMZ
고창군
김두봉
나뉘어
부른다
생제르맹
임동혁
조병옥
최저임금
칭기즈
프랜시스
##연금공단
한국정보화
크리스토퍼
농협중앙회
와이즈유
중소벤처기업부
정의개발당
친일반민족행위진상규명
제도혁명당
공수처
니에토
맞대결
수페르리가
엄청난
오경수
준회원인
##비정규직
조선총독부
스타벅스
아프가니스탄
집행유예
대리점주
과학기술정보통신
김문수
레바논
무슬림
벨라루스
보해양조
진심으로
페데리코
포지션은
화려한
중앙집권
동양척식
CJ제일제당
스트라이커
데모크리토스
아모레퍼시픽
YTN
경건왕
광동제약
귀성객
너기츠
디트로이트
라파엘
라그랑주
마힌드라
막강한
모멘텀
무스타파
방글라데
빛가람
송귀근
울런공
유러피언
이밖에도
적합한
조반니
짐바브웨
창기라이
초콜릿
포에니
하비에르
##르템베르크
정부서울청
식품의약품안전처
07
1등
1백
13년
1심에서
2배
2백
23년
2NE
3시
3선
4명
4번째
4년간
5선
5만
6만
8시
8강
86
9년
An
At
AT
ABC
Audi
BC
BI
Br
Bl
Bla
CNN
CIA
Da
Dan
Dra
Eur
FS
FTA
FNC
High
JTV
J3리그
Ky
KA
KIA
Mi
MX
Met
MTV
NET
Pe
Pl
Ph
Papa
Qu
Sp
Sc
Sur
TJ
Tim
VR
Vol
km
▲김
△문재인
가의
가구
가야
가타
가쿠
가려
가평
가평군
각자
간접
간편
갈릴
감각
감축
갑작
갑질
개원
개명
개칭
개정을
개선을
객관
거기
거슬러
건문제
걸고
걸린
걸프
걸걸
걸그룹
검정
게리
게이트
게다가
격화
격차로
견인
결선
경의
경비
경질
계비
고전
고마
고립
고후
곡을
곳의
공학
공적
공약을
과반
관전
관철
관장
광학
교장으로
교회에서
교직원
구민
구국
구역
국고
군이
군을
군인으로
궁전
권리를
귀환
귀속
그간
그램
그랜드
그레이
그쳤고
극단
근본
금강
기습
기후
기각
기호
기갑
기사단
기하학
긴장
김찬
김윤
김춘
김록
김평
끝나
끝까지
끝나고
나설
날개
날을
남방
남도
남창희
납치
낳은
낳아
내어
내달
넘는
네스토
노원
노비
논평
높다
누이
뉴딜
뉴트로
니컬
닐슨
다리
다우
다채
다녀
다름
다르게
다비트
달하는
담아
당에
당해
대담
대행
대국민
대의원
도청
도민의
독거
돌풍
동행
되었으나
드디어
드린다
든든
들을
들뢰
등에게
디에
디나
디렉션
따서
딸이
떠오
뛰는
라이트
랭킹
러시
레이나
레제프
레슬링
로제
로이드
로런스
로타르
로드리게
루벤
루가니
류한
리승
리키
리틀
리베
리모델
리투아
마시
마찰
마티
마돈
마코
마저
마닐
마라도
만력
만료
만네
말은
말하는
맛을
맛집
맛있는
맞고
맞춤
맡게
맡았던
매주
매장에서
맺으며
먹거리
명인
모문
모터
모양
모색
모모
모닝
모기업
목격
못하였다
못하였고
몽케
무너
무예
무거운
무제한
문인
문경
문성왕
묻자
물병
미노
미식
미운
미스터
미치는
민병
민병대
밑에서
바치
바실
바가
바디
박기
박문
박경
박윤
박석
박람
박소영
밖으로
발트
발효
배임
배정
배달
배려
밴드의
베아
병원에
보임
보복
보인
보스턴
본사
본인이
본회의를
볼을
봉기
부과
부근
부위원장으로
불의
불린
비고
비한
빅데이터
빈곤
빌바오
사자
사제
사바
사반
사변
사장을
사당을
사장과
사카이
사전에
살고
삶과
상기
상실
상환
상향
새뮤
생인
서리
서남
서브
서북
서쪽
석권
선화
성화
성종의
세포
세금을
세군다
셀레
소경
소득
소니
소추
소홀
소장이
소감을
소나무
소회의실에서
속의
손실
손예
손꼽
손자인
송중
송하진
수제
수습
수료
숙박
숙련
순치
순창
순위에서
숨진
슈에이
스밀
스크
스포
스윙
스칼
스포르
스즈키
스켈레톤
슬기
슬리
슬레이
승려
시위
시현
시몬
시장이
시의회
시교육청
신주
신하
신차
신영
신년
신무
신분
신혜
실장이
실력을
심의
심폐
십자가
싸움
쌍둥이
써브
쓰는
쓰고
아소
아크
아편
아빠
아리스토
악플
안시
안보
안착
안젤
않겠
야간
야가미
양도
양력
양세
양평
양자로
어우
어울
어워드
억제
얼음
없애
없다는
에미
에티
에프
에두
엘리
엘론
여주
여건
여사가
여사는
여파로
역학
역사를
연재
연안
연장
연초
열광
열악
였다
영예를
예를
예보
예루
오이
오시
오버
오랫
오일러
오마이
옮기
옹진
와인
와중에
완전한
왕은
왕립
왕가가
외젠
요동
우르
우엽
우리가
운명
운전자
원에
원가
원광
원조
원료
웨이
웨스턴
위로
위트
유임
유도
유행
유동
유배
유스
유연
유래
유희
유닛
육아
윤성
융합
의정
의무
의결
의열
의존
의장은
의장으로
의석을
이의
이부
이계
이양
이운
이모
이완
이븐
이처럼
이치로
이곳에서
인하
인류
인테리어
일치
일선
일대
일간
일병
일하고
일정을
일원에서
임태훈
입을
입국
입었다
있었으며
있음을
있느냐
잡았다
장마
장동
장비
장식
장윤
장난
장용준
재계
저격
적었다
전부
전담
전현
전설
전락
전한다
전신인
절반
정주
정형
정유
정변
정빈
정당을
제자
제인
제니
제너
제네
제갈
조형
조정에
조제프
종전
종류
주사
주필
주었고
주가는
주니어
죽을
준수
줄기
중점
중산
중대
중순
중에서도
중이던
즐거
즐기는
즐거운
증언
증손
지고
지어
지점
지연
지질
지혜
지불
지닌
직장
진패
질문을
찍어
차관
차명
참배
참모
창작
채권
천마
천호
철회
철학과
철학자
청렴
체흐
총수
최기
최문
최윤
최악
추미
축산
춘추
출동
출입
충격을
충당금
취급
취리히
친수
친한
친왕
칭찬
카츠
카메
카르타
카일리
칸국
칼라
캐서
캐롤
캐리어
커피
컴파일
코레
코비
코너
콘사
콘셉
콜로
콜라
콜린
클라인
탁월
탈취
태양
태광
태프트
테니
테슬라
통보를
투자유
튜더
트윈
트루
트랙
특징
티셔
티맥스
파생
파괴
팬들이
팬들의
팬들은
팬들에게
페어
페인
페스티벌
편곡
편의를
펼친
펼쳤
평론가
폐기
포로
포트
포로로
표명
품목
프론
플뤼
피오
필두로
하던
하차
하모
하얀
하랄
하와이
하더라도
하버드
학자
학위
학원
한수
한민
한겨
한글
한동안
한혜진
할리
합계
해에
해도
해를
해왔다
행운
허목
헌납
헤라클
헬무
헬레
현종
현정은
협상을
형인
호주
호칭
호심
호평을
홍승
화신을
황족
회담
회원으로
후진
훌륭
흐름
##자격
##자금을
##주얼
##이용
##이었으며
##위성
##재원
##재경
##재형
##하되
##하가
##하길
##하모
##미츠
##미터
##기본
##로니
##로메
##로스의
##문트
##에스티
##생들을
##라며
##라리
##라딘
##협약
##고자
##고용
##고등
##교로
##정위원회
##제주
##학습
##학위를
##학박사
##치게
##치매
##회장을
##복합
##여서
##부사
##부스
##부발전
##전성
##마에
##마사회
##마절도
##블리
##시절
##시우스
##시스코
##시지방
##어의
##사시
##사막
##사례
##지회
##지영
##지컬
##지휘
##방에
##방지
##방향
##차별
##구라
##강화
##영이
##영을
##29
##인들
##인들을
##츠종
##격으로
##파르
##파티
##러는
##러스터
##리다
##리타
##도레
##도너
##FTA
##실장은
##물의
##물질
##신용
##신민당
##령에
##원군의
##해진
##해달라
##서와
##아는
##아리
##아우
##아르트
##무용
##무한
##무스
##단이다
##ment
##50
##5000
##선진
##범으로
##상품
##I의
##IT
##드르
##드림
##드라마
##양을
##항만
##게더
##트에
##트레이
##노인
##동원
##거를
##나미
##나드
##르가
##르베
##르헤
##경은
##경선
##경제가
##한테
##세종
##세폴리스
##합을
##산림
##공유
##공직자
##32년
##대항
##분권
##분쯤
##내용
##준이
##태자
##져야
##현실
##가스
##가에서
##탑을
##소재
##소생
##소송을
##스킨
##호기
##호로
##호인
##rist
##외과
##비에
##비뉴
##비스의
##비서관
##통이
##일선
##일부터
##우를
##논문
##역환경
##오고
##ek
##토론
##뮤직
##니시
##니타
##니그
##케어
##티는
##티시
##티노
##채용
##얼리
##lin
##업이
##권도
##권익
##조차
##조참
##설립
##설명
##청장을
##보수
##보안
##간을
##운중학교
##ies
##순이
##순위로
##카의
##타임
##타니
##타비아
##약성
##삼진
##삼공사
##연의
##연료
##만드로스
##명왕
##링거
##링크
##크를
##감염
##히코
##히메
##황의
##황후의
##누스의
##모에
##모비치
##투표를
##결과를
##틀조선
##프가
##프리카
##탁구
##LA
##쿠폰
##쿠젠
##ver
##cm
##화하고
##포가
##병제
##속을
##음에
##음악
##예약
##엔지니어링
##총장
##코치
##코가
##얀은
##그리
##그래
##메트
##메스
##메니
##TC
##팀장
##족을
##창한
##창조
##유식
##유니버
##유역환경
##척의
##SE
##열병
##날레
##클레
##농민
##컨덕
##루는
##테마
##테나
##테른
##네시
##판은
##두는
##효과
##살이
##살렘
##빈이
##ball
##플렉스
##끼리의
##WC
##목적
##슬란
##빌리티
##풀이
##골프
##za
##펠트
##쓰기
##겼던
##덕션
##맥을
##뤼네부르크
##큐리
##큐슈
##묘한
##넥스
##첨단
20여
19개
10년간
대한체육회
대한축구협회
대한애국당
##하였다는
한국농
한국에서
한국교육
한국항공
한국도로
한국국민당
한국마사회
152
대표발의
광주방송
광주여대
대통령에게
##회의에
11세
122
121
12세
1993
지역특
지역주민
일본이
##5년부터
17개
의원총
의원직을
후보였던
정부에서는
정부로부터
##리아노
국민들에게
더불어민주당은
조선민족
##시아드
리그가
리그이다
경기장
프로농구
프로덕션
140
144
사회당의
사회당은
사회단체
##스트리
선수들
선수들은
선수들을
관계는
관계기관
1980년대
자유한국당이
165
163
167
16일에
##교육의
##교육감
민주당이
민주당을
민주당계
##하면서도
이어져
이어갈
이어받은
기록하는
지원이
지원한다고
사업비
활동이
활동과
활동가
시작해
시작되었다
시작하였고
시작했으며
프랑스에
프랑스에서
중국남방
감독과
감독이었던
##라이브
##센터를
시즌의
시즌에는
##ering
참여할
참여하지
##사업인
##사업으로
##사업본부
교육은
교육과정
선거구
1월까지
중앙은행
중앙재난
5월에는
아이콘
회장인
국제교류
국제사법
정치를
진행되는
운영에
사이드
국회의원으로
국회의원직을
3세를
##됐다는
참석하여
6월부터
문화유산
현대캐피탈
1941년
1943년
제25
제2공화국
##졌다고
그러면서
시민에게
육군사관학교
소속인
##나라를
##ang
##ank
이용할
##된다면
사람에게
추진한
##지원을
통합을
통합으로
전라남도와
전라남도의회
교수를
개최되는
대학의
대학일자리
전국구
전국에서
우리는
##산업의
##산업을
기업이
기업체
순천교육지원청
출신이다
방문하는
이상으로
##ory
MBC경남
경찰청
설립하고
설립되어
학생들에게
##로스가
시장의
대회는
상황이다
물리학상
물리학자이다
행정관
루이지
##운동의
##운동연합
노무현의
아니었다
##사회단체
조지타운
중심도시
총선에
실시한다고
##alth
2017년부터
임명한
임명되었고
광주시당
사건의
##스터디
##사단은
2012년에
받아야
통일교
자동차를
자동차이다
참가한
출연한다
##도시철도공사
구성하여
사망할
사망하고
성공적으로
창당에
창당했다
창당하자
##대회에
대전방송
##관리실
10일까지
즉위하면서
즉위하자
영화를
영화배우
안전을
역임했으며
태어났으며
전북지역
##복지관
대구보건
대구도시철도공사
데뷔하였다
데뷔하였고
1916년
김영삼은
마이니치
생각하고
1933년
9일부터
##시키면서
##도서관이
##도서관은
##대학과
고객의
시리즈의
330년
LG생활
24일까지
29일에
프로그램인
보수당이
보수당은
2018년까지
발생할
제작된
제작하고
필리베르토
조성에
조성수
국내로
국내외
챔피언스리그의
챔피언스리그에서
요구를
요구한
일부는
##경기서
마련을
마련하겠다
비판을
선출했다
선출되어
##왕후는
대학교를
도시를
##금융그룹
##체육관
결혼을
결혼했다
결혼하였다
동아에스티
북한은
경우가
레이블
레이커스
지속가능
타이이프
특별행정
정권교
경기도지사
국립과학
동생이자
2013년까지
다음과
아르슬란
21일까지
롯데홈쇼핑
22일부터
가능성에
역사학
이끌었던
확대하고
가족을
왕조는
왕조가
전투는
청와대가
베이시스트
차지하는
차지했고
노력해
노동당의
소련군
전주방송
기간을
지휘자
출전해
출전하여
출시했다
출시한다고
공화당과
시절의
시절에
시절부터
브랜드를
선언하고
총재는
총재와
광주광역시의원
TV조선
분야를
지지하는
##ital
준비에
##이라며
유지하고
인정받
인정했다
조직위원장
크리스마스
데이비스
##ions
과거사
직원들이
등장한다
메이크
##oun
##ound
우수성을
페르세폴리스
회사에
국가대표팀에서
문제점
주관한
주관으로
주관하고
해당화
2006년부터
비례대표로
경영지원
탈당하였다
2000년에
단체인
단체가
올라주
요시다
요청으로
2005년에
계승했다
구축해
기존점
##amp
2001년에
기반의
도쿄도
이재준
##협의회를
대선에
대응을
보건당
부인인
이동진
전략을
1997년에
보도에
보도가
존재를
##생활을
##교통공사
부문에
폴란드의
40여
40개
기원후
민족주의
인물이
기타큐슈
반영한
반영될
시행하고
이르렀다
이종욱
KTB
전망된다
제기한
제기했다
##지방경찰청
중요성을
##일보는
노동계
슈퍼맨
슈퍼컵
슈퍼주니어
전남도청
발매된
발매되었다
변호사는
보여이
##예술학과
건륭제가
합의에
##평화협력
언론에
2차전
남편이
남편인
신청을
정상회담
클라우드
해남군은
##독립운동
이듬해인
KB증권
규모로
근무하였다
발언이
요한네스
주도하는
개인적인
경험이
김현미
소방안전본부
영입하면서
위치에
위치해
2003년에
김태은
김태호
내각의
않았을
연기한
확인됐다
##받았다고
서울특별시교육청
Station
김동현
예방을
의료관리실
사퇴하였다
사퇴하면서
연세대
영상으로
이란의
##oss
##활동에
브리트니
수준의
수준을
아나톨
제조업
조약으로
##리어스
만들어졌다
나오는
제출했다
한화그룹
획득하였다
Christ
기초생활
아마존
전통시장
제4차
평양을
##국제공항
매출액이
여기에서
이강훈
히로히토
김종필의
실패했다
황후가
##0여명이
마음으로
선보인
선보이며
스토리
스토아
오른쪽
존슨앤드
최우선
하인츠
1899년
1897년
어린이집
소개했다
지시하였다
기상청은
구매할
유재석
유재흥
프레더릭
##소방학교
디지틀조선
만주국
법률을
육성하고
##상공회의소
1876년
1875년
필요하다고
반면에
사후에
상당히
약속을
인재로
부산시당
싱가포르의
건의했다
도움으로
외교관
요리노
센터백
신속히
암살되었다
이건영
인디언
다카우지
물러났다
방영된
카페가
##스토어
1839년
여운형이
김홍일
발탁되어
사례는
선덕왕의
스테아우
정종원
출발하여
탄생한
해리슨
강점기에
김용환
신성의
인근에
합동으로
JTWC
권한을
긍정적
김경징
밴드이다
사무총장
업체인
여론조사
취소하고
카카오톡
메리츠종
미군정
부임한
부탁드린다
장악한
중장기
협업을
한국인터넷
게이오
교류를
그래도
부상으로
이석기
캠페인을
여러분께
Joy
고종후
김승수
노인일자리
이은권
정재학의
제목으로
훈련을
840년
그것을
금메달을
기울여
김한길
마산상업고등학교
무사시
문효세자의
어렵다
엑스원
장학금
장학금을
플로리다
준우승에
비교적
연남건은
지상욱
진급하였고
카롤링거
활발히
1593년
1481년
6개월간
미용예술학과
이화여자대학교
사회복지시설
자원봉사자
하느님의
무한도
사임하였다
산림조합
안재현
일조했다
하회할
하회했다
가와치
가와사키
박주현
안티고
안티오
부산광역시교육청
해양수산부
와이번스
게재했다
고등학생
기소된
대안신당
배경은
식민지
우상호
정태옥
지소태후의
폭로했다
허위사실
효율적인
명예회장을
AK플라
관악구
구수왕
구수왕의
다짐했다
소녀시대
오프라인
자한기
클레그
트랜의
할아버지인
허가이
##경비대
1377년
아이디어를
어려움이
조선의용군
경향이
교섭단체
김원봉
동메달을
안드레스
전성기를
추억을
친정팀인
##카쿠사
영산강유역환경
Corpor
Maur
마르크스
부장판사
비토리오
사다하루
연극배우
온타리오주
이틀간
정일형
서울중앙지검
아르테미
아르헨티나
유니콘스
DGB금융
Eng
가리키는
그라나다
김복동
두려워
삼양식품
쌍용건설
오래된
유격수
이베리아
임지선
충분히
폭스바겐
허남식
홍무제
##수칙을
##박람회
##해왔으며
제18대
브라운슈바이크뤼네부르크
삼국유사
안타까운
카자흐스탄
Korea
Soci
강아랑
고다이고
고연무
레나토
르네상스
마우리치오
문선명
박완주
양승조
에픽테
이노우에
중추원
지주회사
허영인
한국독립당
프레데리크
동북아평화협력
크리에이터
USANA
동상이몽
레버쿠젠
레온하르트
말레이시아
무가베
박두식
불어넣
세미컨덕
쇼트트랙
시드니
어떠한
을지로위원회
줄리언
홍남기
##리테일
사회민주노동당
클라우디우스
ST마이크로일렉트로닉스
아낙시만드로스
WWE
간신히
경진대회
국군의무사령부
그럼에도
김혁종
김옥균
넷플릭스
뉴저지
다큐멘
돌고래
마가렛
백두산
부다페스트
에피소
정홍원
조훈현
지중해
총동창
최광호
한니발
호치민
##조판서
##커뮤니케이션
##벤져스
##촉성국민회
한국프로축구연맹
중앙기상대
전국동시지방
개혁국민정당
Leonardo
LIG넥스
한국정보화진흥원
##비정규직센터
동양척식주식회사
2NE1
Kylie
Surf
TJB
걸걸중
검정고시
고후카쿠사
김록호
김평모
니컬라
닐슨코리아
다채로운
디에고
리승엽
리모델링
리투아니아
만네르헤
모문룡
물병자리
새뮤얼
셀레우
슈에이샤
스밀레츠
심폐소생
써브웨이
안젤리나
예루살렘
오랫동안
우르비노
위트레
유희열
제너럴
조제프루이
추미애
콘사도레
플뤼겔
하랄드
한겨레
헬무트
홍승활
##하모닉
##항만공사
한국도로공사
조선민족청년단
중국남방항공
중앙재난안전대책본부
국제사법재판소
대구보건대학교
LG생활건강
특별행정구
Christian
존슨앤드존
스테아우아
메리츠종금
AK플라자
영산강유역환경청
동북아평화협력특별위원회
04
1사
1박
1면
2승
2층
22년
21년
2일에
2골을
2라운드
3점
3번
3억
4부
4일에
400만
5번
56년
5일에
5개의
500만원
6번째
6라운드
7시
78
7세가
8회
8년
8대
8명이
9단
AG
Am
AB
BA
CC
CK
CO
CA
Dis
DOC
Dia
Dev
DVB
El
Ed
Found
Gr
HA
Je
KG
King
KNN
Lud
Lov
Man
MBN
NI
OD
OST
PG
PP
Pa
Per
Par
PFC
Pea
RP
RO
Red
Sy
Sport
Tri
TNC
Ul
Vinci
We
WTO
del
kbc
▲광주
△6
△광주시
가계
가든
가메
가하고
각기
감동을
갔고
강령
강소
강좌
강의를
강령을
강하늘
같아
개별
거점
거느
거라고
거리가
거점으로
겪은
견당
결제
결장
결집
겸비
경관
경유
경덕
경남도
경제가
경북도
경로당
계명
계몽
계정을
계양구
고수
고리
고스
고조
고병
고묘
고쳤
고졸
고종의
고혜진
곡은
골로
골목
곳이다
곳곳에
공국
공채
공손
공의회
공항을
공정한
공로로
공혜왕후
과제
과일
과연
관동
광한
교과
교구
교양
교내
구원
구별
국경
국악
국책
국왕이
군산
군대의
권정
권익
권희
권력이
권리당
귀여
규탄
그루
그쳐
그들이
극우
근황
근친
금정
금성
금나라
급락
급속
기생
기저
기침
기부했다
길이
김철
김충
김근
김민주
김원이
김구는
깊이
꿈을
끼치는
나비
나날
나왔
나눌
나바로
낙랑
난을
날렸다
남기
남로
남궁
남부대
남베트남
남인천
내기
내린
내일
내걸
내야수
넘게
넘치는
넣고
네버
노리
노현
노보
논문
농가를
농민의
농수산
농산물
높이
놓은
뇌물
니혼
다윗
다쓰
다닐
단지
단연
달아
달콤
달빛
담겨
답했다
당장
당에서
당선을
대에
대마
대관
대왕
대니
대패
대만
대륙
대량
대화를
대승을
대회의실에서
대서양
더비
던킨
데어
데카
도사
도조
도약
도저
도덕
도트리
도중에
돌핀
동학
동영
동장
동거
동경
동명
동작
동백
동반
동네
동로마
돼지
돼지고
되기
되며
되기를
되풀이
두었다
뒤늦
뒤에도
뒤이어
드루
드골
듣는
디아
디스
따로
때인
때에도
떠날
뛰었으며
뛰어들
뜻이
라자
라오
라울
라카
라쿠
라스티
람사
람베르토
러닝
레흐
레콩
로희
로맨
룩부르크
르브
린든
마마
마린
마레
마법
마녀
마스터
마스코
마리아의
막부를
막부는
말갈
말하고
말에는
말까지
말하기도
맞다
맡았고
맡는다
매버
매니
맺어
머큐리
멀어
멋진
메츠
메드
메브
면허
면접
면에서
명실
명단
명맥을
모교
모신
모욕
모뉴
모회사
모르는
모터스
모로코
몰라
몸담
못할
못하여
못하게
못난이
묘소
무학
무어
무력
무신
무함
무찌
무너지
무죄를
문주
문덕
물적
물을
물량
물의를
뭉크
미안
미루
미겔
민자
민형
믿고
밀리
바나
바샤
바레인
박은
박시
박차
박승
박해
반환
반감을
받들어
발기
발동
발움
발족
발저
발기인
밤에
밤에는
방시
배상
배울
배틀
배스킨
백기
백일
뱅크
버트
버리고
번영
번도
범위를
법제
베버
베토
베른
벤츠
벼슬
변재
변창
별개
별개의
별도의
별도로
별다른
병영
병원으로
보강
보상
보냈
보태
보류
보스
보비
보완
보낼
보호를
복구
복음
복잡
본토
본사를
본관은
봉해졌다
봤다
부제
부마
부지
부적
부당
부녀
부대의
부진을
부담을
북상
분양
분명
분량
붙잡
브레
브랜
브리지
브래드
비대
비극
비춰
비리로
비올라
빅스
빈치
뿌요
사드
사모
사쿠
사살
사절을
사각지
삭발
살기
삶이
삼민
상을
상관
상서
상공
상록
상급
서약
서일본
석패
석유
선대
선천
선두
선량
선착
설경
성주
성협
성시
성동
성일
성명
성인이
성향을
성관계를
세비
세상에서
세례를
센타우
소주
소생
소양
소울
소집
속한
속으로
속한다
속에서도
손실을
송민
송에어
쇼이
쇼치쿠
수의
수강
수니
수백
수반
수급
수십
수상을
수차례
숙부
순위
순비
순조
순교한
스승
스폰
스파이
승계
승부를
시즈
시점
시우
시크
시중
시집
시켰다
시니어
신생
신안
신지
신장
신보
신화
신병
신시아
신원식
신방과
실어
실용
실내
실버
실증
심화
심사를
싸이
쌓아
쏘아
쓰러
아와
아워
아타
아비스
아돌프
아제르
아레나
안건
안진
안트
안경
안았다
안호영
알지
알폰
압둘
앞바다
애틀
액션
앨리스
야훼
야매
약혼
양산
양키
양육
양궁
어벤져스
엄항
업적을
없었
없음을
엇갈
에스
에비
에콰
엔진
엘리트
엠블
여야
여우주연
역이다
역사가
연임
연령
연금
연석
연료
연희
연개소
연산군
열사
염원
영의
영위
영구
영양
영랑
영천
영상이
오직
오송
오쿠
오슬로
온갖
올드
올가
옮겼다
와의
와일
와카
와중
왕자
왕실
왕세자의
외사
외에는
요원
요르
요직을
용담
우범
우대
우호
우라와
우디네
운송
울프
워즈
워너
워터스
원고
원전
원화
원더
원장은
월북
위에
위생
위헌
위치를
위안부
윈도우
유라
유년
유인
유형
유광
유감
유언
유효
육사
윤동
윤세
윤일
윤석
율리아
은하
은거
응용
응우
의석
의장이
의아들
의친왕
이민
이철
이서
이아
이장
이공
이태
이형
이호
이삼
이봉
이코
이희
이쾌
이둘
이룩
이상을
이스타
이전을
이태규
이철우
이즈미
인건
인노
인내
인촌
인센
인도의
인간의
일주
일는
일회
일원
일손
일했다
일하는
임해군
입주
입고
입양
입증
있겠
자가
자비
자우
자카
자문을
자영업
작용
작사가
작가와
작전에
잠정
장도
장신
장흥
장군은
재벌
재산
저는
저택
저감
적대
적발
전의
전수
전5
전우
전권
전액
전적으로
전세계
절도
점도
접전을
정차
정승
정준
정근
정훈
정갑
정당의
정비를
정교회의
제어
제후
제패
제압
제나라
제다이
조문
조부
조서
조나
조르
조경
조광
조만
졸리
종군
종영
좋다
좋지
죄목으로
주차
주당
주진
주류
주쿄
주먹
주식을
죽었고
줄리아
중립
중에서는
줬다
즐기
지은
지사
지묘
지부장
지명한
직격
직계
직할
진화
질문
집과
집을
집회를
집회에
징계
차를
차단을
차이를
찬탈
참의
참사
참의원
창당을
찾고
채드
채플
책은
책으로
처칠
처분을
천연
천막
철강
청정
청춘
체사
체렌코프
초등학교
총사령
최교
최승
최장
최선
최대한
최상의
최첨단
축출
출정
충남도
취지로
취지의
측의
치킨
치렀
치세에
친형
카리
카노
카스
칼로
캐리
캔자스
캠퍼스
컨벤션
컴캐스트
코를
코언
코난
코펜
코치를
코레일
코모로
콜럼
콜리지
쿠투
크림
클로
클루
클레이
키가
키워
키릴
키보드
타니타
탈레스
탑재
태권도
테리
테크
토리
토후
토우
토목
톰슨
통보
통틀
통화
퇴직
퇴출
투기를
투자가
투르크
특보
티저
팀으로
파파
파르
파스
파일
파급
파운드
판관
판결을
패해
팬텀
퍼스트
퍼펙트
펀드
페트로
펜타
편중
평민
평일
포스터
포브스
폭파
폭탄
폴리
표면
푸른
풀백
풀려
품고
플레
플랜
플라이
피에
피고
피어
하디
하토
하니
하향
학장
학무
학살
학자들은
한림
한센
한샘
한민당
함으로써
해고
해트
해준
해군은
해소를
해바라
행태
행사가
행안부
향상을
허재
허성
허리
허니버
헌액
헤지
헤딩
헤비
헨드릭
헬스케어
혁명을
현안
현상
혐오
협박
협상이
형을
형제의
호크스
혼다
홍치
홍진영
화랑
화제를
확신
회전
회동
회사를
횡령
횡성군
후미
후마
후원을
후원으로
휘하의
흑산
흑체
흡연
흥미
흥분
힘쓰
##자카
##자연
##의장
##주자
##주기
##주기를
##주민의
##이면서
##이므로
##이었는데
##다시
##군으로
##재기
##하임
##하성
##하를
##하겐
##미한
##미트리
##미사일
##기스
##기부터
##로트
##로상을
##생태
##라드
##라빈
##라카와
##임자
##교부
##교사
##교섭
##수인
##수행
##수막
##수목원
##정관
##정역
##정당이
##제이
##학기
##학당
##학과를
##학전문학교
##과제
##과이의
##치히
##여단
##여행
##부시
##부리
##부에서
##전사
##전서
##전용
##전투
##전까지
##시미
##시게
##시에서
##개정
##개하여
##어와
##어촌공사
##안정
##사상
##사스
##성적
##성에서
##성왕후
##지기
##지수
##지길
##지청
##지주의
##지였던
##방법
##차게
##차트
##차크
##구단
##구나
##강도
##강연
##영종
##영향
##철학을
##2천
##2억원
##44
##45년
##4억원
##인물
##인협회
##파트
##파티아
##국주
##리프
##리샤
##리면서
##FB
##CC
##CI
##실점
##습을
##력의
##력에
##력으로
##물이
##물은
##물에
##물류
##신은
##신학
##신청
##령은
##금액
##원조
##해방
##서운
##서부터
##서스를
##진에
##진하는
##피스
##아산
##아스
##장이다
##장관을
##았는데
##였을
##65
##66
##터를
##터칩
##선사
##선급
##상사
##상환
##상에는
##계대
##Pa
##PM
##EV
##EZ
##1회
##14
##18
##양은
##양전
##항의
##항쟁
##트맨
##트롤
##노미
##나카
##나가는
##경의
##경기를
##규의
##한의
##한이
##각을
##세무
##세대의
##세미나
##산동
##레코
##레앙
##흐메트
##입한
##공의
##공학
##공감
##공작
##공주의
##되다가
##되거나
##32
##3대
##직속
##직으로
##대화
##함의
##함으로
##함이다
##분석
##내셔널
##들인
##들레이드
##준을
##태프
##키르
##키슈
##키스타
##현주
##현장
##현우
##가수
##형이
##형은
##버라
##요금
##길이
##소인
##소와
##소한
##소스
##소울
##소프
##스에게
##스포르
##야와
##야가
##야만
##야전군
##으려고
##ron
##rich
##외교
##비서
##비티
##찰사
##일기
##역으로
##번호
##식으로
##디와
##디언
##오면서
##ec
##ex
##토의
##토을
##토슬라
##뮤지컬
##니즘
##케의
##티에
##티나이
##채널
##ak
##land
##업계
##업소
##권으로
##조사가
##발언을
##청장은
##애미
##달라는
##보아
##커피
##커버
##운트
##gt
##iS
##ta
##패의
##밀착
##든지
##타의
##타가
##삼촌
##연대는
##연대가
##익은
##익찬
##만큼
##란타
##란히
##명이다
##크와
##크라테
##됐는데
##망이
##누스가
##모금
##모가
##모터스
##투룰
##결정
##등에
##체와
##체제를
##작가
##머리를
##UM
##LP
##LO
##ho
##her
##화력
##화한
##포드
##포인트
##병과
##ke
##ka
##ky
##엔케어
##코와
##코비치
##중소
##래를
##난다
##난으로
##질은
##질로
##질을
##팀과
##족과
##창의
##창동
##유키
##유가
##유저
##처장
##처스
##DH
##석에서
##급의
##축을
##글을
##폴리
##희의
##희망
##천의
##룡이
##독일
##변화
##농산물
##님의
##님께
##루즈
##테로
##테를
##심사
##심한
##혜숙
##더라
##더니
##더스의
##필하모닉
##손의
##두었다
##벨트
##집행
##홍철
##살을
##탄이
##탄에
##탄을
##베이스
##말로
##말리아
##be
##플리프
##새마을
##초가
##초프
##AG
##폐합
##접촉
##끼리
##침략
##좌파
##올리
##빌로
##닉스는
##MC
##맨더
##텔라
##편이
##편성
##런트
##숨을
##뉴얼
##김치
##취를
##렌즈
##렌드라
##톨로메
##뿌요
##푸드
##젤로스
##럼비아
##섰다
##힌다
##멤버
##첸시오
##킴이
##녹색
##멕시코
##옌반
20만
20명
20일에
2030
19년
19세기
109
10분
107
10명
10억
1000여
##하였으므로
대한제국의
있다가
##하였다고
2001
200만원
200여명이
한국군
한국은
한국과
한국국민
한국생활
한국식품
한국선급
15개
15세가
대한민국으로
대표에
대표인
대표에게
##위원장과
광주송
광주에서
##회의는
11개
11년
116
117
있는지
12년
1996
##7년까지
지역과
지역현
지역구에
자유를
자유민주
자유선진
일본서기
##5년에
##리그인
의원들이
후보자를
후보자의
##4년에
국민청
국민은행
국민건강
국민주권
##대학교와
리그를
##00억원
146
14세가
##주의와
사회에
##스트로
##스트에
2세로
선수에게
선수로는
##랜드는
문재인대통령후보
되었다는
되었다고
##위원회에서
169
168
16대
했다는
민주당은
24개
##방송국
##방송통신
국가와
국가정보
연구개발
이어졌다
이어지고
기록되어
지원할
사업단
FC에
자신에게
자신감을
활동으로
활동하였다
활동하였고
시작되는
중국은
중국에
##되었을
10월부터
##장이었던
21일에
##라이즈
##라이트
시즌이
시즌부터
시즌이자
##ert
세계적
세계선수권
참여하여
참여하였으며
천황에게
이번에는
관계자와
관계자가
3월부터
독일은
교육과학기술
선거에서는
아들로서
중앙연구소
중앙부처
중앙응급의료
회장이다
1967년에
영국과
진행했고
운영자
운영될
운영하게
운영한다고
같은해
사이트
국회의원선거
UEFA컵
삼성전기
참석할
##레이스
6월까지
전남의
전남농협
부산에
부산지역
부산시장
제2군단
러시아군
22개
시민과
시민학교
시민들과
육군은
공동연구
소속되어
##공화당이
##any
관련이
사람들의
열린다
추진하였다
정의당이
정의당은
유럽에서
김영주
전라남도가
교수로
개최하여
개최한다고
된다고
올해부터
##arri
##연합이
계획하고
국회가
우리의
하나는
이사회를
기업을
기업이다
방문을
방문객
이상훈
발표되었다
발표하면서
사용자
사용할
사용한
사용된
사용하였다
설립에
아버지의
학생들의
##기업과
코로나19가
상황은
최고장인
들어와
수상이
수상했다고
아니고
에드윈
중심에
실시해
실시간
실시하여
##후보로
광주시의회
##로서는
1925년
1924년
##주시는
경제의
경제학
경제성
경제산업
경제부총
2012년까지
참가를
참가하게
인천공항
##기관의
##기관을
이탈리아를
결정은
결정에
결정한
결정적인
결정됐다
##경제자유
구성윤
사망하면서
성공했다
창당준비
그룹을
예정인
예정되어
예정이었다
##ican
10일부터
김성수의
안전에
안전성
역임하였으며
생활밀착
25일부터
대구경
대구광역시
데뷔한
경남은행
마이크
마이애미
생각해
1936년
1932년
1931년
제공해
2019년에
2009년까지
고객이
김종민
김종훈
야구해
필요가
대한항공의
대한항공이
LG이노
LG화학
2015년부터
2015년에는
원내대표의
원내대표를
로마의
연맹이
연맹에
##스와프
28일까지
라이프
라이언
프로그램은
바이어
바이오
바이브
보수주의
공격적인
평가하였다
필리버스터
조성하여
인사들은
챔피언스리그로
기대와
요구자
요구해
일부개정
##경기연맹
18일까지
강진군이
기독사랑
선출하였다
##협회는
증가할
증가했다
증가하고
증가하면서
출마하게
보고서
결혼한
결혼하여
계속된
북한이
사랑에
사랑과
이적을
경우에는
레이튼
레이저
지방의원
최종환
특별법
미래창조
어머니의
영향력
경기도교육청
국립환경
동생이
수도로
직접적인
다음해
아르눌
영광군의
##ish
롯데백화점
가능할
건강보험
베트남의
이끌며
이끌었으며
가족이
생산한
생산라인
전투에
6세기
6세와
바르톨로메
베이스타
지도자로서
차지한
학교에
광산갑
소련의
소련은
소련과
전주병
전주교육
기독교의
6일까지
출시했다고
2008년부터
1년만에
진출을
진출할
진출하는
판매가
판매하는
혁신을
혁신추진
총재의
총재에
협력사
대변인이
지지율이
활약했던
과학철학
유지했다
##선거를
기관이
기관사회단체
기념으로
내용으로
번째로
잉글랜드와
마을기업
직원과
직원들과
개선이
개선은
메이플리프
##단체협의회
##환경을
##olog
1900년
1903년
확보를
계열사로
문제와
이해하고
체결한
호남권
검찰의
검찰은
취임식을
2000년대
기여했으며
올라가
올라프
요시오
요청에
요청을
울산방송
울산시당
##하려면
2005년부터
1990년대
계승을
계승권을
구축할
기존에
유진그룹
찾아가는
##무총장
##ams
2002년에
예산이
이재명
제품의
제품이다
##협의회장
대응에
대응해
대응할
승리로
승리하여
에어로스
강화군
강화할
개혁당
보도한
존재하지
##바이잔
구단의
구단주
구단은
마르가
마르셀
제3의
출범하였다
폴란드인
광산구는
광산구청
새정치국민회의에
아내의
아내는
아내인
아내와
의견이
##루스자리
##베르펜
담당자
담당하게
이르고
이종명
##ill
건설을
건설교통
발견된
이인제
토론회
공화국이
38도
설치해
이야기가
제기하였다
지명했다
##대책위원회
김재원
홍보에
##경찰서는
##urg
명예를
전남도의회
합병하여
확정지
회의실에서
네덜란드의
경상도
없다며
캐나다의
##대한통운
##ust
경희학원
불교가
##부대신
1881년
월드컵에
드러나
소통과
소통하는
희망의
CJ그룹
CJ대한통운
신청서를
정신궁
정상에
정상화
지정한
##rid
아닌가
오브라도
충청도
충청권
개인정보
경험과
소방청
아일랜드의
책임질
파리로
플레이어
합류하였다
합류하여
합류한다
김태희
않았지만
의미한다
파이레츠
금융감독
김해영
김해준
김동찬
예방에
축하하는
1차전
365
농협전남
복귀한
은퇴를
직후인
##ose
아시아나항공의
브리타
사고로
수준으로
아직도
오스카
프리드리히는
김일성의
나라의
나라가
나오코
남북협
명칭은
명칭으로
합당에
획득하여
소비자들의
소비자들에게
Chil
Champ
블루팡
핀란드의
가입한
작곡한
투표에서
계약에
공유하고
공유하는
선임행정
예선에서
장성군은
황후의
마음에
선보였다
오른다
오른손
입단하여
패배했다
##혁신포럼
##ement
1896년
진보신당과
아래에서
출판사
##업체인
아프리카돼지
질병관리본부에서
발굴하고
선생은
여운홍
유재수
유재중
창설되었다
##스카르
람보르기니가
국무총리를
국무총리가
김진숙
달러의
마사요시
베르나
베네치아
아키노
왕국이
조승우의
##동생인
민주자유당이
교육감은
브라질의
브라질은
프로젝트가
귀국한
김기창
대부분이
대부분은
레드벨
해결하기
대변인인
강력히
강력하게
외교부
이자보
이바라
##공동모금
##otball
크로아티아의
맞이했다
미나즈
센터장
신속하게
원래의
유신당의
점검했다
진주성
취업에
1864년
SK텔레콤은
너무나
박상철
방영되었다
상징하는
아시리아
##청년회
개정안
군주가
사태에
사태가
아무도
이원재
정규리그
체포된
출발해
중앙정보부장
지도자들은
지자체가
유로파리그로
간호학과
강점기의
나누는
바람이
밝히는
선제골을
이외의
전당대회
지내고
초청해
파견하여
포기한
##stem
열린우리당의
캐릭터로
아나운서가
긍정적으로
배출하였다
상반기까지
선택했다
이주영
임대주택
창원시
##보건기구
챔피언십을
타이틀곡
Unit
가격은
가격으로
기부금
내세워
노선에서
서명했다
실질적
이뤄진
전날인
할인쿠폰
##게임즈
##광주선대위
MC몽
게이밍
겨울철
그래서
그래픽
머물고
머물렀
발루아의
상하이에서
이석형
정기적으로
취득할
파라다이스
행동이
##여객터미널
1958년에
1천만
NH투자증권
고속버스
고향에
고향인
떨어지는
비밀리에
유사나
전반적으로
조카인
좋아하는
주변에
죽음으로
처형하였다
한정판
히데타
##트가르트
지역민방
받아들였다
SPC행복
아틀레틱
그리너스
그것이
단일화에
동신고
바꾸었다
시상식에서
안양과의
앵커가
어렵게
연수구
##allica
에레디비시의
BNK캐피탈
계급은
그려진
그려졌다
근거로
누르며
느끼는
대체로
드래프트에서
루카스
세우고
신정훈
입문해
정무특보
함평군수
헤르메스
##ower
1592년
2번째로
Leo
구체적으로
김명연
당수인
도미니
도미노피
에르투룰
연루되어
표창을
##문제연구소
##대통령직속
아이파크와의
주민자치회
마르세유는
##프로그램을
뛰어넘
마티아스는
방법으로
아리랑
오를레앙
일조했고
진나라를
천계제가
##범죄수사
##tern
대한독립촉성국민회
브리핑을
인민수호부대와
Real
STX
격려했다
김규식
대령이
로빈슨
마리오와
무라카
사전예약
종사자
차르국
체코슬로
카르파티아
프라다
프라임
헤이안
호소하는
119구급
상임고문
캘리포니아주
고시라카와
군단장
낙선하였다
미쓰비시
박유환
발렌스
발렌티
숭정제가
스페셜
얼굴을
에버턴
에버랜드
정진운
초고왕의
테레즈의
##노조위원장
##opa
##만으로도
11번가
세븐티식서
300억원
가슴에
게오르크
게오르기
댓글을
배포판
보이스는
알사드
연쇄살인범
일정으로
일찍이
조현아
조별리그
쿠데타를
태극기
테마로
트로트
##거래소
##융합교육
1728년
받아들이고
파이터즈
LAPS
강희제
경향신문
동성애
동성왕의
부군수
생일을
생존자
원로원
인프라를
임관한
자발적으로
절대적으로
조합원
주한미
충격적인
칼리파
파나티나이
히트곡
##디스플레이
##클리드
지방자치단체
기획재정위원회
국정감사에서
3연패를
5000만
EUI
루터교
애로사항
##협상대상
대표적이다
이에야스
아르테미스
작곡가이자
AP통신
Freder
IFEZ
가스공사
김무성
끌어들여
무시하고
베니젤로스
성향의
스베토슬라
오세근
이범석
이춘희
이두희
정희왕후
조례안
천문대
코스피
태창제
형식으로
홍문종
##자산운용
##금지법에
##스톤의
##브란스
제14대
유니폼을
불가능한
AOA
BBQ
FK리그
구로다
구스타브
비유클리드
신흥우
야드비
윤상직
재조명
전동평
점유율
접어들어
정미수
카스티야
훌라구
##실천당
##장로회
##소나이트
여성가족부
돌아오게
어드밴스
각별히
강태환
검은사막
나중에는
능주면
닌텐도
드라이버
디펜드라
리오넬
면세점
백승주
세월호
쉐보레
얼라이언스
이마가와
이뤘다
진평왕
최순실
카트린
쿠르드
평안남도
후지와라
흥선대원군
##기압의
##agen
##acris
##검찰청
##석유화학
국민참여당
페르난도
원자력안전
유길준은
Football
건문제의
고명환
교향곡
국순당
다룬다
로코모
루프트한
만슈타인은
명백한
박삼구
버팀목
서병수
안마의자
안토니우스
에르도안
예결위
유정회
이견이
일궈낸
자랐으며
정남준
조진웅
카산드로스
캐벌리어스
패럴림픽
포고렐
한병도
합법적인
호그와트
휴대전화
##대변인은
##유치원
103위
선거인단
현대모비스
일제강점기
대통합민주신당이
ClariS
##테크노파크
미용명장
스트라이커로
Black
Daniel
Europa
Metallica
Pepp
네스토리우스
논평에서
마닐라
미식축구
박윤국
송중기
슬레이어
아크룩
않겠느냐
양세형
어우러
에두아르트
윤성빈
제네바
중산층
지혜를
천호엔케어
최악의
춘추관
콜로라도
탁월한
티셔츠
하얀색
한국농어촌공사
전북지역위원회의
지속가능한
국립과학수사
KTB투자증권
무한도전
안티고노스
Corporation
DGB금융그룹
다큐멘터리
전국동시지방선거에서
걸걸중상
셀레우코스
CCTV
Foundation
Ludacris
PGA
Peace
△광주시의회
가메야마
김근태
다쓰노
던킨도너
도저히
도트리슈
뒤늦게
라쿠텐
람사르
레콩키스타
매니저
메드베데
모뉴엘
무함마
바샤르
박시종
방시혁
배스킨라빈
베토벤
변재일
뿌요뿌요
성시경
성일종
센타우루스자리
수니파
아제르바이잔
안트베르펜
엄항섭
에콰도르
용담공
응우옌반
이공계
이둘희
인노첸시오
인센티브
자우자
자카르타
전의총
지묘인
체사레
최교일
코펜하겐
통틀어
하토야마
해트트릭
해바라기
허성곤
허니버터칩
한국생활개선
국민주권광주선대위
생활밀착형
LG이노텍
기독사랑실천당
농협전남지역본부
Champions
아프리카돼지열병
SPC행복한
체코슬로바
배스킨라빈스
0시
000만
080
000만원
1의
1승
1남
1대
1석
1골
17년
1운동
1경기
1순위
2인
2억
2집
2명을
2명의
2위에
2TV
2종을
3사
3형
3천
3명이
3대에
3위에
3위로
4남
4만
4급
4층
40년
4위를
5로
5회
5분
5억
5명이
6선
6대
6명
6인조
7명
7일에
7명이
70여
7차례
8주년
8강에
9세의
90년대
Ag
Ap
ANC
B로
BBS
Bon
BMW
CN
Cu
CH
Cat
CIS
Coun
Di
DA
DB
Don
Dem
Dav
DFB
EN
EP
ES
EM
Eug
FBC
FBS
GH
Gen
Gre
GAR
HN
ID
IA
IEE
Jam
JB금융
KR
Ke
Kh
Ker
KSA
LS
Ly
Lars
LDH
MY
Mc
MS
Mon
Med
Mid
Mont
Meg
NCA
NFL
NDR
NGO
National
PI
Pri
Part
Pont
Rug
RCA
Rich
Right
SD
SO
SA
SV
San
STV
Sgt
Sarri
Sams
Tr
TA
Tw
Ter
Tra
TOP
Vo
Vf
Van
Val
Wh
Win
Wol
Wars
agon
e스포츠
n번
to
vs
▲더불어민주당
▲주민
▲서울대학교
△이
㈜광주
가자
가이
가재
가해
가용
가드
가환
가락
가중
가칭
가네
가좌
가는데
가필드
가이아
가졌으며
가디언
각인
간미
간에
간행
간직
간첩
간사이
갈문
갈아
갈비
감동
감바
감사를
강수
강행
강연을
강서구
갖게
갖추
갖는다
갖추고
개회
개장
개화
개루
개량
개벌레
갤러
거버
거기에
거쳤다
거부했다
거두고
거치면서
건다
걷다
걷게
걸어
걸맞
검증
것인
것인지
격노
격돌
격퇴
견조한
결론
결심
결실을
결론을
경복
경장
경감
경명왕
계산
계절
계층
고군
고안
고지
고영
고국
고도
고드
고준
고호
고통
고혈
고트로
고부가
고니시
곡이
골프
곳인
공과
공단
공백
공빈
공사를
공군의
공영방송
과천
과감한
관해
관객
광영
광장
광무
광명
괴벨
교감
교회의
교회를
교장에
교체를
교학부
교구장
구르
구형
구호
구례
구절
구두
구도가
구조의
국영
국영방송
국카스
국산화
군복
군부
군소
군중
군의회
군대에
군대는
군대가
군산시
굴복
궁전에서
권위
권성
권총
귀농
그중
그날
근교
근현대
글과
글쓴
글로브
글쓰기
금년
금아
금산
기지
기해
기계
기든
기자가
기자를
기사에서
기염을
기묘한
김회
김시
김강
김인
김서
김나
김조
김익
김중
김숙
김초
김철수
김씨는
깊게
깨고
깨한
깨달
꺾었다
꿈드림
끌려
나의
나기
나차
나인
나도
나루
나올
나눈
나갔다
낙후
날인
남게
남경
남만
남바
남작
남침
남성이
남구는
남강에
납품
낭암
낳고
내전
내리
내비
내몰
넘기는
네츠
네아
네오
네팔
넥센
노관
노광
노브
노바
노예
녹동
논리학
논문을
논설위원
놀이
농가의
놓았다
뇌물을
눈의
눈이
눈높
뉴트
니카
니콘
다로
다르크
다목적
단위
단원
단치히
달이
달라고
담화를
담겼다
당은
당과
당부
당사
당무
당병
당했다
당하여
당원이
당중앙
당분간
대제
대지
대영
대가
대소
대조
대청
대선을
대도서관
대일본
더해
더했다
더군다
더이상
덕양구
던지고
데포르
데일리
덴하
델루
도는
도스
도발
도망
도료
도농
도핑
도의원
독단
독살
돌리
돌렸다
돔날
동군
동시
동점
동조
동두
동명의
동력이
동서울대학교
됐을
되새
되찾
되었던
됨에
두구
두레
두번
두카
드와
드미트리
든다
들이
등용
등으로부터
디즈
디오
디젤
디오니
따온
딸은
딸이자
딸이었다
땅볼
때와
때만
또다시
라트
라면
라힘
람캄
래리
랭커
러일
럭키
럭비
레자
레지
레저
레겐
레스터
로고
로키
로랑
로열
로이스
루다
루머
루핀
루스의
류성
류환
르페
리치
리얼
리카
리저
리엄
리무스
링링
마재
마에
마블
마그
마루
마땅
마다가
마나마
막바
막판
막대한
만한
만날
만두
만전을
말의
말미
말기
말리
말할
말이다
말하기
말기에
말기의
망원
망운중학교
맞물
맞춘
매월
매사
매거
맥밀
맥킨
맹활
머디
먹거리를
메신
메달
메커
메이트
메모리
멜로
며느
면역
면담을
명은
명성
명동
명종
명빈
모인
모친
모른
모리스
모빌리티
목적을
목표를
목숨을
몬트리
몰랐
못했지만
무을
무승
무상
무굴
무솔
무기를
문을
문승
문헌
문종의
물자
물류
물었다
미르
미소
미코
미추
미첼
미스트
미쳤다
미즈노
민정
민국당
믿어
밀접
바리
바레
바흐
바일
바예
바라는
바그라
바부르
바드르
바소프
박물
박서
박용
박범
박남
박나
박막
박창
박사가
박용진
박홍석
반기
반해
반납
반격을
발을
발해
발대
발데
방정
방치
방해
방한
방북
방향을
배로
배인
배신
배후
배분
백복
백령
백선
밴쿠
밸류
버전
버마
버지
버티
버킹
버전의
범위
법에
법정
법을
베어
베리
베레
베조
베아트
변인
별로
별세
병력
병행
병역
병으로
보충
보물
보해
보나
보직
보답
보천
보름
보겸
보도를
보일러
보이기도
보였으나
보냈고
복원
복식
복싱
복지사
복원과
본처
본회의
본인은
본사에서
본회의에서
볼프
봉해
봉준호
봤을
부재
부왕
부황
부룬
부응
부착
부대를
부시장
부부의
부인으로
부부가
북제주
분수
분담
분계
분산
분개하여
불구
불을
불합
불릴
불린다
불편을
붕어
붙어
뷔르템베르크
뷰티아
브뤼
브레이
블레이드
비방
비드
비트
비르
비류
비타
비슈
비아이
비렌드라
빈소를
빌리
빙상
빚은
빛나는
빠지는
뽀뽀
뽑아
사리
사피
사가
사득
사찰
사명
사투
사절
사유
사네
사회의
사장으로
사원의
사재를
사노피
산타
산체
산하기
살려
살라딘
삼호
상고
상영
상용
상상
상트
상세
상반
상담을
생애
샤오
서수
서동
서면
서버
서광
서품
서열
서신을
서산시
선구
선을
선박
선양
선동
선발전
선두로
설문
섭정이
성기
성격
성산
성직
성조
성윤
성모
성장이
성범죄
세아
세트
세웠
세조의
세미나
셀틱
셀트리
셰리
소르
소가
소명
소화
소매
소폭
소수의
소성왕
소프라
소식에
소대장
소혜왕후
소말리아
속도
손금
손님
손길이
솔라
솔루션
송금
송상
송병
송재경
수로
수정
수시
수양
수확
수탈
수열
수뇌
수나라
수사가
수장으로
순수
순환
순이익은
슈투
슈팅
스에
스파
스래
스플
스캐
스칸
스털
스베르
스미스
슬하
슬라
시로
시성
시노
시켜
시모
시킨
시급
시초
시기를
시공사
시기는
시치로
시리아의
시키는
시아파
시어머니
식재
식물
식량
신의
신군
신곡
신계
신태
신일
신명
신념
신축
신학교
신덕왕
신조의
실권을
심은
심해
심판
싱어
싶어
싸우는
쌓았다
썬더스
씨름
아성
아도
아서
아비
아카
아픈
아끼
아닐
아스타
아프로
아인트
아즈키
아흐메트
악마
안치
안방
안무
안병
안산시
안테나
않으면
알핀
알랑
알리고
알프레
압록
앗살
앙골
앞날
애그
애칭
애리조
액티
앨리샤
야당인
야전군
양지
양해
양만
양근
양림
양키스
양질의
얘기를
어두
어깨
언젠
얻기
엄대
엄중
업종
업데
없지만
없도록
에든
에페
에니그
엘라
엠넷
여영
여섯
여부를
여부는
여부에
역사의
연제
연인
연창
연납
연기를
연정을
연인이
연달아
열기로
영지를
영감을
영조의
영문학
영원한
옆에서
예전
예금
예레
예브
예상을
예하의
오키
오리지
오해를
오타와
오케스트라
옥과
옥스
옥수수
올랜
올리는
옹호
와우
왕세
왕궁
왕들이
왕가와
왕가는
외다
외척
외삼촌
요셉
요리히
요제프
용어를
우여
우파
우장
우울
우마이
우연히
우일선
운행을
워런
원이
원리
원한
원산
원소
원활
원효
원녕
원숭
원인이
원주민
원혜왕후
원작으로
월터
웨인
웰스
웹보드
위드
위법
위축
위상을
위주로
유물
유가
유틸
유망
유향
유저
유죄
유신당
유닉스
유리코
유안타
윤영
윤홍
윤봉길
율리오
융경제
은비
은언
을사
음식을
응답
의전
의인
의도
의상
의지를
의사가
의장과
의지가
의회에
의회는
이이
이안
이나
이대
이겨
이발
이보
이타
이윤
이데
이웅
이륙
이갑
이혜
이홍
이룬
이겼
이렇
이의를
이겼다
이씨의
이지용
이곳에
이태원
인더
인접
인목
인력을
인가를
인허가
일도
일한
일삼
일등
일했고
일했으며
일제의
일자리를
임의
임정
임선
임종
임슬
입지
입상
입각
잇는
잇달아
자로
자제
자전
자식
자책
자리는
자메이
자산을
작위를
작가의
잘하는
잘리어
장지
장차
장합
장만
장착
장쩌
재회
재해
재규
재입
재키
재현
재야
재일
재결
재활
재혼
재개발
재계약
저의
저널
저출
저질
저스트
저소득
적고
적법
적혀
적자가
적위대
적어도
적임자
전재
전미
전로
전제
전신
전범
전술
전형
전일
전보
전창
전향
전폭
전하는
전국의
전자의
전체를
전계대
전혜숙
점성
접전
접견
접목
정월
정사
정적
정가
정밀
정약
정춘
정체
정화
정창
정글
정도가
제의
제재
제대
제보
제약
제위에
제천시
제고를
조수
조회
조스
조순
조화
조속
조율
조사에서
조창호
존스
종파
종근
종속
죄송
주자
주임
주가
주된
주창
주어진
주가가
죽기
죽었다
죽이고
준결
줄이기
중고
중성
중용
중일
중독
중퇴
중점을
즉위를
증강
지성
지진
지우
지칭
지갑
지구를
직영
직원은
직원이
진군
진성
진원
진선
진상
진언
진료
진솔
진영의
진상규
질의
질투
집에
집계
집합
차민
차장
차녀
차석
차원의
차이가
차세대
차라리
찰리
참전한
창이
창건
찾을
찾았
채취
책을
처분
천일
천호선
철새
청장
청룡
체조
체크
체계를
쳐들어
초과
초상
초창
초나라
초기의
촉발
총을
총리에
최강
최영
추후
추종
추정치
축사
춘천
출국
출소
충성
충장
충용
취한
친군
친여
친척
칠리
침해
카미
카시
카우
카프
카테
카말
카이사
칸국의
칼럼
캐주얼
캠퍼
캡처
커지는
컨텐츠
케른
케플
코시
코트
코디
코칭
코스타
코퍼레이션
콘월
콜롬
쿠페
키스
키몬
키세스
키미는
타블
타개
타파
타계
타밀
타결
타율
타리크
타블로
탈레
탈북
태영
택배
테이
테스트를
텍사스
텐데
토미
토로
토지를
토리당
토스카
톡톡
통제
통상
통근
통폐합
퇴진을
투항
투르
투약
투자를
투게더
튀코
특성을
특성화
특강을
티티
티탄
팀과
팀이다
팀이었던
파문
파는
파월
파크
파키스탄
판재
판로
판문
판정
판타
팔라
팔레
패딩
팩트
페미
페라
페도
페터
페소
페루
페겔
페퍼스
페아노
페론주의
펜탁
편안
편리
편리한
펼칠
폐비
포수
포도
포용
포부를
포스하
폭주
폭넓
폭염
폭행한
폰티
표를
표출
표도르
푸에르
풀어
풍암동
프라이
프렌즈
플러
플리
플루
플레어
피자
피난
피핀
피살
핀처
하트
하세
하일
하프
하급
하희
학군
학점
학대
학자들이
학과장
한문
한영
한돈
한데
한반
한예
한큐
한명이
한여름
할프
함부르크
함부로
합의를
합니다
항해
항거
항복을
해의
해주
해인
해설
해명
해킹
해법을
해병대
해위해
했기
행주
행진
행위에
향우
향토
허은
허블
헌정
헌신
헌법에
헬렌
혁명이
혁명의
현행
현판
현저
현덕
현수막
혈통을
협화
협의를
협상에
형이다
호기
호산
호크
호프
홀로
홀슈타인
홍영
홍동
홍귀
홍희
화정
화신
확립
확률
확대에
확실한
환관
환자가
환자는
황학
황성
황호
황순
황제를
황제의
황해도
황유식
회수
회사의
회사로
획기
후견
후베이
후시미
휘신
흐루
흑두
흘린
흥인
희비
히토
히메
히사시
힌두
힘들어
##자책
##자율
##자였던
##자료를
##자네이
##의원을
##의학과
##의학회
##의사협회
##주철도
##주츠키
##이게
##이한
##이야
##이팅
##이체
##이스트
##다지
##위기
##위와
##군수
##군단은
##재정
##재해
##재현
##하냐
##하수도
##기하학
##로타리
##문고
##문구
##문제로
##문제를
##에로
##에너
##에프
##에이션
##에이지
##생이
##생가
##생으로
##라만
##라흐트
##고지
##고을
##임의
##임에도
##교도
##교향
##수학
##수습
##수관
##수익
##수급
##정하는
##제도를
##제품을
##학이
##학점
##학술
##과도
##과에서
##과정을
##치다
##회에는
##회장은
##복의
##복음
##여수
##여정
##여건
##여진
##부지사
##전인
##마자
##마치
##마사
##마를
##마니
##블루
##블레이
##시고
##시안
##시인
##시한
##시엔
##시큐
##시기를
##시대의
##시니어
##시히메
##90
##9억원
##개가
##어져
##어가
##어요
##어비
##안느
##안에서
##사구
##사이트
##사진을
##사이드
##졌을
##성과를
##성질환
##민원
##민스터
##지다
##지나
##지면
##지했다
##지기도
##지킴이
##차이
##차기
##차에
##차와
##차적으로
##구도
##구동
##구장으로
##건조
##강원
##강장
##적한
##적이었던
##적이라고
##적십자
##철이
##0회
##2회
##4회
##46
##4000
##4부대
##년의
##인증
##인근
##츠의
##츠에서
##격투
##파마
##러를
##러가
##러스트
##러스의
##국과
##국회
##국어
##국장과
##당하여
##리흐
##리야
##리냐
##리엘
##리에게
##FK
##CO
##실의
##실험
##실은
##실록
##박을
##물인
##관과
##신탁
##했었던
##승의
##금고
##원에게
##해결
##해줄
##해지는
##서적
##서도
##서초등학교
##진성
##진구
##진원
##진료
##곡이
##피는
##피를
##피트
##피나
##아라
##아야
##아일랜드
##아카데미
##장교
##장구
##장시장
##장관이
##점식
##NET
##GS
##련의
##립대학교
##립도서관
##무가
##무약
##용품
##용으로
##단일
##행히
##행동당
##행위를
##행정을
##였기에
##5개
##5명
##64
##68
##6억
##8군
##8회
##8억원으로
##터널
##선과
##선도
##범과
##상자
##상구
##계로
##계와
##PU
##퍼의
##드에
##드나
##드에서
##드리고
##와르
##REA
##16
##119
##1억원을
##환은
##환자가
##환자와
##게뜨
##노리
##노가
##노화
##노창
##동은
##동백
##동아리
##거점
##거름
##나디
##나라는
##나치오
##르만
##경대
##경완
##후무한
##한기
##한을
##각이
##각서
##세라
##세트
##세요
##세법
##합의
##합당을
##산단
##산도서관
##레기
##레븐
##레알
##레스를
##레치아
##흐바야
##공사를
##공원을
##공학부
##공항공사
##되지만
##면허
##3개
##직의
##대와
##대우
##대출
##대중
##대상을
##대사로
##대행을
##함대
##함태호
##분리
##분께
##분들께
##들에서
##들간의
##준영
##준열
##태에
##태림
##현준
##가던
##가기
##가르
##가속
##가량
##형으로
##버러
##버리고
##버렸다
##송과
##배의
##배로
##배상
##배와
##배추
##요일
##짐에
##스기
##스사
##스러
##스발
##스포
##스님
##스런
##스틱
##스센터
##호남
##호크
##광장에서
##광가속
##략을
##육상
##rat
##oo
##sen
##외국어
##비인
##비엔
##비치는
##비데오
##왕을
##왕국
##왕으로
##일즈
##일람
##우테른
##역의
##역도
##식생활
##디는
##오염
##있었다
##울의
##울고등학교
##ei
##ep
##ech
##토미
##토지
##토레
##토리코
##니의
##케이스
##75
##출하기
##uen
##lor
##권한
##조성
##조건
##조명
##조작
##조치를
##조직을
##조사에서
##설비
##발한
##발레
##청정
##청사
##청으로
##궁부인
##달러
##브루
##브나와
##보에
##보도
##커리
##커를
##간이
##간부
##씨에게
##운항을
##ne
##ner
##ney
##ip
##ius
##ts
##ti
##pr
##per
##pany
##패에
##밀히
##카를
##카에게
##종과
##타카
##약과
##증서
##증진
##삼성
##법안
##연에
##연승
##연장
##연속
##연예
##연쇄살인
##익을
##만2천
##윤혁
##택을
##란은
##란트
##링턴
##링으로
##렸기
##근로
##근경
##콘티
##콘텐츠
##크너
##크리스
##감에
##감사
##히는
##히고
##누스는
##본이
##본사
##모함
##모프
##바사
##바니
##바람
##바게뜨
##투스의
##투위원장
##결산
##프슨
##체의
##혔고
##작의
##작을
##작용
##머리
##UN
##L의
##LF
##탈레
##쿠르
##봉사를
##co
##com
##hy
##데스크
##데자네이
##화되어
##화되고
##포는
##포스와
##병장
##병으로
##병마절도
##휴양
##ki
##ksw
##속에
##반대
##반디
##예정
##예산을
##랜타
##총리
##총동원
##코르
##코올
##코치가
##코퍼레이션
##중으로
##중에서
##온헬스케어
##래닛
##그를
##그란
##그풋
##그랜드
##HF
##악단
##책이
##책임
##책으로
##메인
##메트로
##질이
##TF
##팀에
##팀이었던
##족이
##족은
##창출
##돌상
##례의
##유지
##유공
##유럽
##S를
##페어
##페테르
##급으로
##축제가
##희는
##희와
##숙한
##천에
##천호
##천왕
##북면
##농촌
##님은
##루미
##루냐
##루이스
##퇴르
##갑산
##매출
##매그풋
##ya
##yn
##yal
##테스
##심장
##더맨
##때까지
##려서
##잔치
##손실
##두리
##집은
##났을
##살의
##살클럽
##빈치
##겠지만
##겠습니다
##헌이
##량은
##특위
##특전
##특보를
##측의
##측은
##잡기
##델라
##추세
##베크
##베그
##베리아
##베스트
##bar
##ble
##burg
##플래닛
##평론
##평통
##평했다
##평의회는
##새로
##욱은
##욱을
##ws
##렀다고
##저슬라
##슈테
##침볼
##갔다가
##빌딩
##M은
##MF
##MO
##텔링크
##캡스
##편으로
##왔지만
##ze
##펠트로
##쓰네
##놀이
##앤에프
##겼고
##겼으며
##홀구
##쉽게
##멀리
##셔서
##셔스
##맥주
##옹주의
##불을
##펜싱
##싱어
##VE
##딸로
##멤버스
##틱펀
##쳤지만
##멘스
##밸리
##짜리
##퀴즈
##즐리
##앨범
##으로만
##에서만
##에서부터
20개
104
10번째
##하였습니다
##하고도
대한유
대한통운
대한무역
대한의사협회
있다면
##하였다가
##학교에서
한국에서는
한국당을
한국당은
한국원자력
한국문화관광
한국표준
한국관광공사
1537년
지난주
대표자
대표도
대표작
광주로
광주를
광주학생
광주과학기술
광주혁신포럼
광주테크노파크
##회의장
124
지역산업
지역으로는
자유시
자유형
일본국
일본으로
일본사회
일본사회당
##들이고
##6년부터
미국을
18개
18민주화운동
173
17팀
17일에
의원에게
의원들은
후보였다
후보자가
후보로서
정부세종
##하기까지
국민은
국민당을
국민당은
##대학교의
조선군
조선과
조선대
조선민주당
조선기독교
조선공산
조선신민당
조선무약
리그로
리그는
리그와
경기로
경기가
경기동부
##하게도
##00원
프로미
프로세
프로게임
프로구단
##3년에
서울로
서울행정
서울메트로
##주의의
사회인
사회를
사회당을
사회노동당
사회맞춤형
2세에
당시에는
선수인
선수를
선수들에게
민주인권
민주66
민주평통
문재인을
문재인정부
##였다가
관계로
1989
1988
##위원회에
자유한국당은
자유한국당으로
16개
16강
166
16세의
16세기
16강에
1637년
##교육은
24명이
##방송의
국가를
국가안보
연구회
이어질
이어가고
13회
138
131
13대
13일에
13명이
1339
기록과
기록이다
기록하여
기록하지
사업과
사업장
사업추진
자신은
자신도
활동하게
활동하다가
프랑스군
중국과
중국에서
##장이자
국회의장에
21세기
##라이스
##센터에
시즌으로
시즌에서는
우승하는
우승하였다
세계야구
세계보건기구
위원회에서
위원회는
위원회가
참여하며
참여하였고
참여했으며
7월에
7월까지
에서도
천황와
천황이다
현재에
##사업과
3월에는
9월과
9월까지
독일을
독일군은
교육이
교육과
교육부와
선거에는
선거사무
아들과
중앙대학교
중앙아시아
30개
30일에
30분에
아이가
아이온
회장에게
12월부터
영국에
영국군은
국제적
정치적인
정치인들이
진행할
진행한
진행될
운영위원회
방송은
방송에서는
23일에
사이코
국회의원이다
국회의원이었다
3세로
삼성전
삼성증권
삼성자산운용
##항공대대
김대엽
문화를
문화도시
전남권
전남문화관광
전남신용
현대상선
현대아산
1942년에
부산항
제2보병사단
제2여객터미널
##하지는
러시아는
러시아어
##의회가
그러한
4월에는
221
22일에
시민들에게
소속이다
전라도
한다면
##ans
##ani
##ance
2021
##국민신탁
김대중과
이용호
이용객
사람인
사람이다
추진했다
추진한다
추진위원회
추진상황
##인민당
##지원의
##지원과
##지원팀
##ence
김영일
통합하여
##하다는
것이라
전라남도의
전라남도순천
때문이었다
교수이다
따르는
##inc
개최를
개최한
개최하는
대학원을
된다는
올해도
전국에
전국위원회
전국은행
교황은
##arm
##arz
계획이며
국회와
하나가
이사장과
##산업진흥
##산업협동조합
기업에
기업과
기업들이
기업들의
기업인이다
주장하고
순천대
이에모
김정남
김정우
방문했다
방문했던
이상이
발표를
발표할
발표하여
발표하며
사용하여
##회사로
이름에
장관으로
##ore
##orn
##ord
##orth
MBC의
경찰과
경찰관
주민의
주민센터
주민등록
##연구원과
만들었던
아버지와
아버지이자
##하자고
선정하고
선정되는
선정됐다고
학생들은
##기업은행
대상에서
노무라
대회가
대회이다
대회에서는
상황과
상황이었다
상황실에서
물리학과
물리학자인
최고사령
행정력을
들어온
수상은
수상하였다
아니라고
조지아의
중심이
중심지로
실시하였다
항공이
항공모함
멤버들과
멤버였던
##ali
2017년에
사실로
여성들의
원내교섭
임명장을
광주시청
광주시선대위
사건이다
1928년
##스터스
정책은
정책으로
국민의당이
국민의당은
국민의당에
##지역을
경제개혁
알렉세이
알렉시우스
통일국민당
개발해
참가한다
참가했으며
결과가
공식적인
인천으로
전문기업
전문가를
제국에
제국과
제국을
출연하여
출연하며
출연하였고
2014년에
2014년까지
결정이
결정했다고
##도시공사
##도시우스
구성원이
사망자
성공하였다
성공하며
창당하면서
##정치협상
공개하고
공개됐다
그룹인
대전광역시
독립국가
김성찬
김성근
김성수는
스타스
##교육청의
##교육청과
샤를로트
영화는
안전사고
역임하면서
이승철
이승우
태어났
##로부터의
100m
100명
100여명이
전북은행
생활체육
생활개선
25일에는
대구은행
데뷔는
##이나마
1911년
5일간
마이노스
생각은
생각하는
9일까지
##시키며
##시키게
##시키려
2009년에
11일을
고객과
고객에게
김종회
시리즈에
시리즈는
시리즈에서는
4일부터
24일부터
30일부터
제주항공
2010년부터
28일부터
28일에는
라이엘
프로그램이다
당선되었으나
받았다는
받았다고
보수정당
어려워
있어도
있어서는
공격이
공격에
공격해
공격으로
공격했다
공격하였다
발생하는
발생함에
제작사
평가해
평가가
2020년에는
조성된
조성하고
2011년에
3일간
3일까지
인사말을
챔피언스리그와
브라헤
일부를
##경기장에서
18일부터
광양동백
마련할
마련한
마련된
비판하고
비판적인
선출한
대학교에
대학교와
도시로
증가로
증가세를
출마해
출마했으나
##리오카
보고를
보고서에
소비자가
각각의
##체육시설
동아리
동아ST
동아여자고등학교
설명하고
이적하며
이적하였고
이적했으며
이적하였지만
졸업했다
졸업하였다
##시장진흥
경우는
고구려를
레이커
지방의
지방시
지방을
지속될
최종적으로
특별전
##리카와
K리그1
정권은
경기도소방학교
국립해양
동생을
수도권의
다음으로
아르카
아르침볼
##과학과
##과학부
##iss
23일을
23일부터
돌아갈
돌아왔다
돌아다니
롯데마트
롯데멤버스
2019학년도
가능성을
건강하고
건강하게
베트남항공
역사문화
확대된
확대됐다
가족과
생산을
왕조를
이미지
이미지를
전투를
전투이다
15일부터
예비후보로
예비후보가
바르바로
스웨이드
차지하며
학교를
광산을
노력에
노력할
노력으로
노력하고
소련이
전주MBC
전주매그풋
위원장에
위원장인
기독교민주당
대비해
대비한
오전에
인터내셔널
출전에
1년을
산업을
총리의
총리와
판매할
브랜드인
협력하여
지지하며
지지자를
활약하며
활약하다가
##itt
경기에서의
기술자
기술력을
기술연구소
##스코프
유지했지만
인정하지
인정받았다
정보화
정보보호
조직으로
피해가
피해자가
기념식
기념하여
내년에는
내용에
어린시절
역할은
역할로
역할에
청소년의
청소년들이
한나라당이
한나라당은
##ional
추가적으로
과거에는
성장한
성장률은
직원들은
##시설인
개선될
결성해
결성하고
결성되었다
등장해
평화의
##환경공단
##oup
1905년
관리하고
반대했다
반대하며
우수사례
이유가
확보한
확보하고
박정희의
계열사인
문제는
예상치
이해인
이해식
체결하였다
클럽인
회원들은
회원들과
##연구소는
검찰이
검찰총
엔터테인먼트는
취임한
취임했다
취임하면서
단체에서
요시무라
요청하는
울산광역시
유시민은
음악가
##하려던
2005년에는
1990년대에
되는지
변경에
변경하였다
변경되었다
보내며
보내왔다
행사에서는
##학과에
2001년까지
이승만이
공연은
공연에
기반이
예산정책
예산결산
올림픽에
올림픽을
이재면
제품군
모스크바를
대선에서
대선후보
부인했다
승리하며
에어서울
유니언
강화에
강화해
그녀가
김일성이
나타나고
나타내고
자리로
존재가
존재했던
종합격투
지금도
청년몰
청년농업
확산되고
확산되면서
활용하는
활용하여
13일부터
강조하고
강조하며
구단에
마르그
부문은
부르는
서구청
제3회
제3대
출범하는
해군기지
##진흥공사
새정치국민회의의
407
공공도서관
민족회의
아내를
언급을
언급하고
인물로
인물을
군민과
기타시히메
다이어트
담당한
드라마로
드라마에
드라마를
시행했다
##정책에
##프로젝
건설에
상태를
완도군은
완도수목원
채널A
토론회에서
##스로의
설치된
설치했다
수행하며
전망을
전망한다
제기되었다
제기됐다
지명되어
황제이다
##지방검찰청
2004년에는
한나라당과
김재훈
장제스의
제외하면
홍보를
노동조합
수원시
합병하고
회의에서는
교통카드
발매하였다
변호사를
변호사가
보여준
보여주는
선발로
크로노
##예술단
조선로동당과
광양시어린이
한국전력기술
군사평의회는
신문왕이
운동의
인민행동당
일으켰
1889년
1888년
1885년
1884년
나가시마
부회장과
부회장의
인수한
전해져
전해진다
합의했다
##평화상
##0년대와
가문은
공모에
공모사업
선교부의
소통을
신천군
언론은
투자자
희망하는
희망나눔
CJB
CJ올리
고민을
금호고속
앨범이
앨범을
일제히
정신을
정신건강
지정해
지정되었다
지정되어
##lex
##lege
삼성전자와
가톨릭교회의
근무한
근무하는
노래가
요한슨
일반적으로
주도적인
박헌영은
국정원
김현우
애니박스
추정할
친구가
파리바게뜨
합류해
합류했다
해양관광
##기념재단
##기념관에서
1998년에는
##00여명이
김태우
내각이
내각제
내각총리
논의하는
아들이며
않았으며
연기했다
요미우
이와는
전문가로
Star
김동만
복지시설
안정된
안정적으로
음반을
챌린저스
최대주주
한진중공업
복귀했다
사퇴를
사퇴할
수석대변인은
재정지원
추천으로
추천하는
추천하였다
##시간에
민주노동당과
라이온즈
신천지교회
아시아나항공은
사고를
아직까지도
오스본
오스틴
작품인
작품으로
작품에서
조약에
민주국민당에
김일성은
4차례
가졌다고
김수철
김수용
김수현
김수근
나라에서
신동엽
왕위계승
하이탐
합당으로
획득하는
##개혁을
##행정복지센터
##노스와의
1992년부터
이슬람교
이슬람주의
기초위원회
아마도
제4대
제49회
평양에
##자원봉사
넘어갔다
마드리드의
블랙핑크
영토로
장남이
##슈타트
통합진보당을
계약이
공급을
민간인
실패한
실패하고
오뚜기함태호
장성규
주인공이
치매안심센터
투입되며
황후로
황후이자
##슬라브
세르비아계
스코틀랜드의
000명
000명의
CEO는
귀족으로
내려진
물론이고
선보인다
스토어
스티비
입단하였고
존슨의
창립한
패배하며
##받아야
##사관의
##사관으로
##화가로
1895년
1894년
1989년에는
어린이들의
감사하다
강원국
나서자
남부에서
동구청장
박사모
사과와
사과했다
세종특별자치
소유의
아래와
연결기준
오리올
이시이
지시를
지시한
제19기
바르셀로나와
아프리카TV
감소할
감소한
감소했다
개편되었다
따뜻하고
받았던
발굴해
예수회
이웃과
프란츠
하겠다고
후원하고
후원금을
##erson
34만2천
김진규
김진태
마사히로
왕국에
왕국과
왕국을
유승준
정동인
정동균
중단하고
##공단순천
##농업협동조합
민주자유당의
민주정의당의
관광객이
관광객들이
화순군의회
이루어져
완도군수는
거부한
거부권을
공산당을
김기식의
방침에
방침을
시스템을
여름방
연주하는
인권운동가
자체가
작업한
차례에
촉구하는
촉구하였다
해적당은
하나금융지주
페르시아만
상대적으로
외교적
유치원
이자겸의
이바일
이바일로
이혼을
입학하여
정의용
##수영대회
##즈베리의
J1리그에
경선에
기능은
꾸준한
상무2동
수요에
원래는
이성계
인디라
진주만
훗날의
##부문장
##unt
1860
1869년
공동대표를
공동대표가
3개를
J리그로
가정제
가까워
다카우
두산건설
마리안느
보호할
부의장을
부정선거
부여받았다
부족에
사무소
상징인
상징으로
서부전선
식품관련
싱글차트
아시카가
앞장서는
왕비가
우려를
우려와
이로이
초반부터
##사이클
##사이더
##트니크
##ody
1840년
크리스티나
중화인민공화국과
아스널은
루마니아의
군주이다
나눔을
동문이
바뀌고
선포했다
선포하였다
수익성은
스테판
아라키
아라비아
유통사
이원희
장기려
정종여
청주방송
체포되어
출발하였다
플라워
현지시각
##2020
##lav
##베이거
들어가게
지자체장
유로파리그의
런던탑
런던에서
비난을
비난했다
선고받았다
선제적으로
스트라스
신성로마
실천한
심각하게
완료할
완료했다
자녀를
작성한
전사하였다
전당대회에서
젊은이
주목받았다
지내던
촬영을
펼쳐지는
포기하고
##ster
1855년
1854년
열린우리당을
사령관으로
Inc
PD는
가지게
김경수
김경구
더블유
덴마크의
리더십을
밴드인
부사장으로
스카이워
아사미
여론이
인간적인
자격이
제시했다
총괄본부장
푸틴은
##보건소
##TAM
이끌어내
카를로마
자문위원으로
그레고리
Union
갈등이
개입을
권력의
부임했다
부임하였다
성과가
시청률
시청률을
실질적으로
이병창
정인숙
정우성
천주교의
할인해
후지이
##해주고
##해주신
##스럽다
한국인삼공사
1478년
1474년
최우수상을
분데스리가의
684부대
게이힌
김민준
김민석
뉴스데스크
머물렀다
스스로를
예술가
완성차
요크의
자연스럽게
조정래
학술상을
헌법재판소
협조를
협조와
##해양수산
1458년
1456년
최고위원에
불가리아인과
소상공인시장진흥
576
NH농협
고향에서
국무장관
끝내기
남성희
노인복지
도착했다
동참할
박병석
박병룡
변화와
변화하는
살해한
신한카드
올스타전
유사한
응원했다
응원하는
좌파당
진에어의
천안시
항의하는
후임자인
히데키
##ada
시민의힘
어르신들이
어르신들의
400m
공항으로
구속영
목소리가
밝힌다
시상식
시게오
시게노리
신설을
엑스엘
우선협상대상
인증을
전주시의
카타르와의
플로이드
플로렌스
항복하고
##기준으로
##기독학교
##운영에
지역구인
1800년
아이돌학교
1974년에는
앞장서겠다
##예수교장로회
2천만
공천으로
국군간호
대장군
박성민
선진통일
역전승을
연설을
외국인노동
위협에
유아교육
이영주
정무수석
지상군
추모하기
카이저슬라
황태후
2016시즌
프로축구단이다
##주의자들을
아이유브
의해서였다
경희대학교와
미드필더로
44번째
All
ISIL
USCG
강남구
구체적인
극복하기
누나인
동남아
무소속으로
보성전문학교
불과한
성립되었다
에르빈
외무성
외무장관
이중구
이창호
중부지방
채택한
포천시립중앙
하반기부터
##IST
##보호법
1964년에
##antum
전략기획팀
전략기획홍보
987년
감안해
거주하는
뛰어든
마쓰다
마쓰모토
매체는
물리쳤다
밀려났다
병원장
분리된
분쟁이
사라진
신상묵
안재홍
얼마나
오르자
이만섭
자바키슈
제이슨
철수하였다
청나라의
##izz
##izio
##순천지사
1983년에
##arts
전북도당
에어부산은
경고했다
김규항
대동병원
로빈슨은
무라야마
무엇이
북아메리카
연락이
의사결
재무부
재무적
종사자들의
한성부
한성숙
헤이케
##자이너
##장학재단
##장애인복지관
##공간이
1799년
1776년
1629년
문화재청장
국립중앙의료원
상임고문을
하노버의
가동률
강동구
강동원
건너가
고위공직자
고흥시니어
관여하지
근처의
근처에
김형직
나카지마
돌파했다고
배경으로
새로이
생태계
서포터스
쇼핑몰
수영장
스피로
스페치아
스탠퍼드
신용카드
옹립했다
위키트리
이오리
이슈가
일시적으로
전파하고
전무후무한
정진석
정태춘
증진에
지소태후
지소미아
직무대행
철저히
추대하였다
화성연쇄살인
##하시고
##전기차
##어린이집
##아파트
1422년
그리스도교
취약계층을
최소화하기
메탈리카의
트위터에
AKA
EXID
EXIL
Robert
Soul
Word
개념을
건물로
고정문
구입할
김소이
김소혜
늘어나고
다짐을
도교육청은
러브콜
브로더릭
세인트루이스
신뢰를
실종된
유력한
이행하지
이내에
이현주
이채원
정례회
체제에서
출장하였다
출석한
쿠데타로
클레멘스
하야시
희생된
##abil
##브리핑
##참모본부
한국시각
1787년
어려움에
불가피한
오늘날의
조선의용대
나폴레옹의
케네디와
LATAM
▲문재인정부
▲문재인대통령후보
개방형
궁금한
내놓은
농어촌
다가오는
몬테비데오
몬테펠트로
미야자
바그너
바꾼다
벌어졌다
사법연수
서대문구
양호한
자손을
조금이나마
진흥왕의
철학은
추억의
카드사
크라운
탄압을
표방하고
한양대
화이트캡스
##ield
금호산업의
한진칼은
한진칼에
근로인민당을
3연속
American
Conc
ICT
Minos
UBS는
갈라져
개로왕
고토쿠
고유의
기억이
김덕령
노엘은
니키타
다루는
답변했다
손해배상
압박을
애로사항을
오거스터스
완벽한
완벽하게
의뢰했다
재능을
탑승한
##리조트
##레오네
##대부인의
서울중앙방송
##사회복지공동모금
선제후령의
스프링필드
거머쥐어
아랍에미리
College
DGB
IMO
공차코리아
김은성
김만형
논쟁이
농심그룹
대단한
만남을
미네소
미사일을
박대출
박대연
박준규
박종훈
밝혔고
밝혔으며
방사광가속
베니토
보조금
스터전
시범사업
야스오
야스쿠니
오카모토
우에스기
유산슬
의거하여
임지은
장경왕후
장덕수
최정욱
추구하는
컨설팅을
털어다
특채로써
플래시
플래그
한경미
한경직
해안경비대
허남옥
##해져서
##HC000
##OWER
##글로벌모터스
##변호사
광주형일자리
1435년
하나님의
베이비복
삼국유사의
##혁신도시를
출판기념회에
신민주공화당이
BNK금융지주
마흐무드
마흐무드의
Boys
Health
강기갑
거룩한
경무대
고성현
구스타프
김도균
김세련
내무부
노사민
당진화력
대법관
등급으로
라스베이거
루크레치아
매력적인
메가스터디
박지수
산학협력
서인영
스카우
스트리트
스트리밍
승부조작
야권연대가
여부도
여객철도
연말까지
오다큐
읍면동
인테르나치오
작센의
잠재적
정호형
제주시와
제주시교육청
처벌을
카스티야의
컨센서스
컨센서스를
키우기
테오도시우스
트렌드를
패러다
하늘교육
##이닝을
1589년
프로모션
프로모션을
제101
광주시가정의학과
진보신당을
이기택이
대원방송㈜
소외계층을
해운대구
뉴질랜드의
중앙방역대책본부장은
ADO
Center
간주되었다
공신옹주
급격히
김의겸
나이지리아
나이지리아의
놓여있던
다중이용
단순히
대항하는
대권후보
라틴어
리우데자네이
배재학당
불참한
비준에
신춘수
아폴론
아브라함
아브라모비치
오디션
오페라
원외자유
월광학원
월광기독학교
지리산
최민환
크누드
트리플
패키지
포항제철
화제다
휴스턴의
##상담복지센터
##친화도시
아이오와
아이오아이
공동선대위원장을
##사회적경제
다음날인
산업통상자원부장관
한전공대
김재규가
신동아그룹
IBK투자증권
IBK기업은행
에스파냐의
종로학원하늘
성균관대학교
태종무열왕
드래건스
새만금개발
3번째로
CROW
Georg
PRI
SHOP
School
VIP
가세연
강호순
고은별
공민지
궁정화가로
김아기
김범수
남해안
대정익찬
동산병원
뜻깊은
라우키는
레우키포스와
루도비쿠스
무등산
박순자
변수남
상표권
성황을
수완동
스퍼스를
아웃사이더
앞세워
영유아
완주군
웨스트민스터
인연이
전교조
정민곤
천재노창
총회장이
크롬웰
폭발적인
피의자
##보증재단
광주지역위원회
미국프로농구
제주삼다수를
4차산업혁명
NASH
내세우며
국가보안위원회
음주운전
거리두기
친일반민족행위진상규명위원회가
라파엘로
방글라데시
빛가람동
유러피언컵에서
정부서울청사에서
ATM
BIGO
Dragon
FSV
KAIST
Quantum
Volksw
▲김대중
가타오카
간편하게
긴장감이
뉴트로지나
다우토을
다녀온
들뢰즈
디나모
로드리게스
루벤스
마돈나
모색하고
미노그
바가반디
박석규
베아트리
스포팅
스칼렛
슬기로운
신혜경
십자가에
안시성을
얼음과
에프앤에프
열광적인
열악한
예보했다
장윤성
종류의
주필산
즐거움을
카츠유키
콘셉트로
투자유치
트루먼
하모니카
할리우드
호심학원
##기본소득
##고용노동
##고등법원
##조참판
##테마파크
한국교육방송공사
한국항공대학교
의원총회를
문화유산국민신탁
경영지원실장
아나톨리
아마존닷컴
디지틀조선일보는
한국인터넷진흥원
Maurizio
에픽테토스
세미컨덕터
Surfin
심폐소생술
위트레흐트
한겨레신문
존슨앤드존슨
Diab
OD뮤지컬
Paul
System
Triple
거느리고
겸비한
고스란히
공손찬
금정구
노현정
노보텔
달콤커피
동학농민
라스티리가
러닝메이트
로맨틱펀
르브론
무너지자
민자당
민형배
바나나
박은옥
발동한
베버와
벼슬을
별개로
보스니아
삼민투위원장
선량공
선착순
설경구
송민종
스파이더맨
시즈오카
아와미
아워홈
알폰소
애틀랜타
야매요리
에비슨
영랑생가
우디네세
유광섭
윤일균
이삼용
이코노미
이스타항공
인건비
일주일
자비르
장신영
정준일
주진모
캔자스시티
코를레오네
콜럼버스
쿠투조
파스퇴르
판관비
펜타시큐
피에트로
한민당과
후미마
후마윤
##필하모닉오케스트라
한국국민당을
광주송정역
자유민주국민당
##방송통신위원회
경제산업특보를
##경제자유구역
대구경북
국립환경과학원
전주교육대학교
혁신추진위
오브라도르
선임행정관을
도미노피자
STX그룹
무라카미
프라임필하모닉오케스트라
발렌티니아누스
파나티나이코스
원자력안전위원회
로코모티
포고렐리치
Daniele
아크룩스가
던킨도너츠
무함마드
체코슬로바키아
Eugen
GARNET
IEEE
NCAA
Rugani
Samsung
Voice
agonist
n번방
가재울고등학교
가락고등학교
가이아와
간미연
거버넌
고군분투
고호리카와
고혈압
고트로프
공과대학교에서
국카스텐
글쓴이는
김나희
김초혜
나차긴
남만주철도
남바린
노관규
더군다나
덴하흐
두구얼
두카티
드와이트
디즈레일
라트비아
람캄행
랭커스터
레겐스부르크
루다크리스
류환형
르페브르
리저브
마재윤
맞물려
매사추세
맥밀런
맥킨지
메신저
메커니즘
몬트리올
무솔리니
미추홀구
미스트롯
바리톤
바그라티
박서준
박나래
박막례
발데마르
배인혁
백복인
백선엽
밴쿠버
밸류에이션
버지니아
버킹엄
베레주츠키
부룬디
비타민
뽀뽀뽀
상트페테르
서수길
서광범
셀트리온헬스케어
소프라노
손금주
슈투트가르트
스에쓰
스래시
스캐맨더
스털링
아끼지
아인트라흐트
앗살리흐
앙골라
애그뉴
애리조나
양만춘
양근석
언젠가
엄대식
에든버러
엘라다
연창궁부인
오리지널
옥과공공
올랜도
우여곡
우장춘
우마이야
유틸리티
유향열
의인왕후
이렇다
임슬옹
자메이카
장쩌민
정가은
정약용
준결승
차민식
초창기
카테고
케른텐
콜롬비아
타밀일람
톡톡히
티티마
판문점
판타지
팔레스타
페미니스트
페겔라인
펜탁스
포스하임
폭넓은
푸에르토리코
하희라
허은철
호기심을
홍영표
홍귀선
화정3
황학관에서
흐루쇼
흑두루미
##로타리클럽
##흐바야르
##echn
##그랜드호텔
한국원자력안전
프로게임단
전남신용보증재단
원내교섭단체
##정치협상회의
독립국가연합
광양동백로타리클럽
국립해양문화재
전주매그풋살클럽
종합격투기
광양시어린이보육
34만2천개
국군간호사관학교
카이저슬라우테른
자바키슈빌
고흥시니어클럽
화성연쇄살인사건
EXILE
인테르나치오날레
다중이용시설
리우데자네이루
대정익찬회
Volkswagen
다우토을루
OD뮤지컬컴퍼니
펜타시큐리티
남만주철도주식회사
상트페테르부르크
1분
1급
1루
18년
1명이
1학년
1TV
1위로
1개를
1단계
2의
2사
2동
25년
2군단
2가지
2단계
2분기에
3주
3회
3부
3인
3분
3종
3으로
36년
35년
3장을
3경기
3골을
3형제
4자
4동
4녀
4곳
4골
4명을
4명의
4경기
4위에
4라운드
4가지
4명은
5위
5도
50년
5명의
5경기
5명과
5만원
6기
61
6번
6천
6개의
610
7회
7승
7분
7번
7백
700
7000
7골을
700여
780년
7교수
8번
8명
8천
89년
82년
8일에
8사단
8000
8세가
9번
9연
9세기
911
9팀으로
A로
AE
A3
Ad
A에서
And
ANU
ATS
Alex
B의
B에서
Bol
Bas
Bur
Bent
Bro
Bud
Band
Bug
BID
BPA
CG
CU
CD
Cy
CB
CM
Cal
Che
Cod
Cap
City
Cav
Care
Dom
Dre
EG
EE
Es
FT
Ful
Fest
Fai
GK
Gal
GAP
Gend
GLA
HD
Her
Hon
Hum
HOU
IN
Is
Ind
IPS
JFK
KE
KL
KBC
KTV
Kur
Key
LO
LX
Lon
Lou
Lil
Liv
Lab
Live
LOT
MG
Mr
Me
MK
MA
Mal
Mic
Mat
Mus
Mot
Mad
Mich
MMO
NP
OF
Ot
OL
OK
Oh
Ob
OZ
PK
PM
Por
Pol
Que
RS
Ren
Rou
Rom
RPG
SN
SI
SU
SL
SOC
Sim
Sky
TF
Tm
TK
Tom
Tea
Tig
Tem
TTA
Tay
Tour
Us
Uz
U리그
UFC
VO
VM
Vas
WI
WH
WBC
War
Wal
Wes
Wit
XI
X파일
YM
hPa
iOS
la
pour
re
sp
sch
sub
ubc
▲광주시
▲바이오
△박
△건강
㈜티
가던
가에
가즈
가신
가곡
가토
가결
가혹
가극
가면서
가사를
가하지
가지는
가계를
가리지
가이드
가문을
가상의
가치가
가졌고
가졌는데
가경제가
각계
각본
각국의
각지에서
각오를
간도
간단
간디
간판
갈리아
감정
감마
감시
감금
감행
감찰
감옥
감량
감탄
감성을
갑에
갑종
강정
강민
강건
강강
강도
강박
강승
강세
강순
강북
강사가
강구하고
강당에서
강마에
갖춰
같았다
같았던
개항
개소
개청
개표
객원
갤리
거대
거역
거처
거액
거리를
건네
건물을
건전한
걸었다
검사에서
것의
것인데
게양
겐첸
겐나디
겔더
겨우
격인
격렬한
견학
결탁
결별
결코
결의를
결단을
경교
경인
경합
경연
경륜
경위는
계시
계류
계룡
계좌
계략을
고치
고사
고장
고무
고단
고트
고산
고야
고우
고모
고농
고름
고사카
고이치
고르바
고통을
고바야
고상환
고기압의
곡에
곡성
곡산
곡들은
곡들을
곤도
곳은
곳을
공이
공기
공방
공영
공표
공포
공녀
공극
공적으로
공사가
공주시
공적을
공세를
공로를
과의
과부
과격
과장이
과제로
과시했다
곽노
곽지영
관구
관할
관중
관청문
광평
광장에서
광복을
광저우
괴롭
교하
교학
교차
교인
교외
교장은
교사의
구주
구이
구정
구제
구해
구상
구한
구스
구보
구황
구루
구름
구하는
구도를
구카이
구하라
구실로
구설에
구약성
국도
국한
국외
국번
국보
국간
국빈
국기를
국력을
국정을
국경을
군정
군마
군단이
굴비
권은
권상
권씨
권세를
규슈
규칙
규정에
그들
그친
그리는
그곳에서
극찬
극동
극락
극작가
극심한
근린
근대
근접
글로스
금할
금속
금원군
급제
급증
기로
기을
기리
기동
기내
기종
기만
기하고
기사로
기지가
기네스
기사에
기량을
기점으로
기보는
기적의
기동민
긴키
김학
김안
김관
김득
김체
김백
김창
김혜
김응
김낙
김시민
꼽았다
꼽힌다
꽃양
꿈의
끝나는
끼리
끼쳐
나하
나를
나나
나세
나대
나간
나그
나흘
나빠
나서는
나리치
나르베
나델라
낙마
날이
날에
날치
날아
날씨
남하
남월
남진
남녀
남매
남도의
남원으로
남자와
남구에
남기고
남십자
낮과
낮아
낮에는
낳았고
내의
내민
내실
내선
내내
내우
내밀
내륙
내리는
내전에서
내주는
내부대신
넓혀
넘도록
넣은
넣어
네피
네가
네네
넥슨
넷스케
노하
노씨
노연
노란
노동을
노씨는
노이어
노고에
노소영
노이즈
녹취
논리
논산
논리를
놀란
농수
농정
농장
농식품
높여
높일
높다고
높았던
놓치고
누보
누리고
눈앞
눌바
뉴멕시코
느을
느린
늘고
능력
능력이
니이
니나
니가
다국
다승
다르
다각
다산
다이스
다지는
다수를
다수가
다로의
다자이
다행히
다빈치
단기
단단
단호
단지를
단장으로
단위로
단계에
단어를
단행한
단속을
달기
담배
당을
당당
당규
당권
당혹
당숙
당에도
당국의
당당한
당대회에서
당신이
당국은
대위
대치
대방
대당
대금
대세
대내
대략
대출
대덕
대회의
대장은
대장을
대대로
대회사
대제가
대제의
대주주
대검찰
더딘
덕인
덕양
덕분
데다
데블
데프
데루
데탕
델라
도정
도제
도양
도산
도광
도우
도울
도감
도루
도의회
도정을
도약을
도전을
도왔다
도서를
도리어
도라에
도탄에
독보
독수리
돕고
동정
동인
동국
동대
동탁
동굴
동래
동의를
동구는
동서발전
동초등학교
동률을
됐으며
됐다고
되게
되나
되었지만
될지
됨으로써
두지
두드
두었으며
듀오
드라
드리
드웨
듣게
들었는데
등교
등등
등이다
등에서는
등지에서
디카
디렉
디스케
디미에
디자이너
딘딘
딜카
따돌
딸의
딸기
땅에
때도
때엔
때보다
때마다
떠나는
또다른
뜨거
뜻에
뜻하는
라미
라지
라본
라덴
라싱
라이스
라인의
라마다
라우에
라오스
랜디
램지
랭크
러버
럭셔
런칭
레고
레이스
레가는
레베데
렛츠
로치
로컬
로켓
로큰
로디오
로베르
로비를
로널드
로키스
로렌스
로비에
록사
루피
루한
루비
루디
룬트
류승
류리크
류조지
류재현
르노
르앙
르메르
리에
리정
리사
리리
리만
리데
리스트
리베르
리메이
리유저
마자
마주
마도
마진
마틸
마약
마초
마셜
마운드
마스트리
막고
막으려
만다
만수
만월
만지
만능
만장
만찬
만이다
만주의
만하임
말년
말도
말람
말하였다
말렌코프
맛과
망누스
맞바
맞붙
맞았다
맡기로
맡으면서
매디
매달
매콜
매킨
매튜
매슈
매력을
매크로
매니지
맥아
맥북
맺게
맺었다고
먹을
멀티
멋쟁
메종
메클
메릴
멜론
면회
면적이
명에
명시
명승
명확
명명
명숙
명이었다
명단을
모의
모임
모를
모계
모나
모가
모니
모티
모처럼
모르고
목에
목도
목사와
몬테네
몰고
몰려
몰리며
몸이
몸에
못지
못말
못한다
못하면서
몽고
몽타
묘비
묘역
무고
무마
무지
무리
무실
무단
무게
무르
무디
무척
무더
무쓰
무대로
무리한
무차별
무서운
무책임
묵묵
문하
문교
문수
문익
문자를
물품
물었고
미다
미시
미사
미성
미오
미토
미망
미샤
미흡
미켈
미쳤
미군이
미해군
민사
민관
민씨
민식이
민감한
믿음
밀고
밀수
밀워
밑거름
바고
바사
바닷
바테
바덴
바퀴
바르트
바루스
바텐베르크
박규
박세
박형
박광
박중
박래
박희
박힌
박수를
박명수
반군
반문
반당
반등
반포
반려
받기도
받으면서
발주
발령
발터
발목
발맞
밝힘
밝힐
방방
방계
방면
방출
방림
방역을
방면에서
배수
배영
배가
배석
배넌
배역을
배당금
배홍석
백의
백경
백세
백운
백악
백지영
밴드로
버진
버네
버렸다
버스가
버스를
버마의
버틀러
버전으로
번은
벌교
벌여
벌인
벌이며
벌였고
범행
범유
범행을
법안
법상
법조
법칙
법적으로
법원은
법안을
법인의
법원의
베일
베테
베르트
베어스
벤투
벤처
변모
별풍
별자리
별세한
병과
병을
보전
보며
보소
보일
보바
보석
보람
보헤
보았다
보직을
보다는
복당
복스
복지를
본관
본점
본거
본국으로
볼레
볼거리
봉인
봉선
봉기를
부자
부에
부는
부러
부실
부를
부드
부일
부울
부흥
부름
부추
부대표
부인이
부부를
부인은
부대는
부축을
북이
북파
북서
북면
분과
분전
분무
분명한
불이
불충
불확
불출
불발
불명
불매
불량
불펜
불스로
불신을
뷰를
브란
블록
블리자
비자
비주
비하
비정
비영
비인
비엔
비메
비셀
비도시
비용을
비서로
비호로
빅뱅
빅터
빈센트
빌뉴스
빌미로
빚었다
빠졌다고
사파
사관
사신
사립
사와
사양
사공
사비
사귀
사료
사칭
사극
사죄
사상을
사명을
사티아
사생활
사학자
사항을
사치와
사브르
삭제
산다
산토
살다가
살리기
살보면
삼다
삼았
삼각
삼았고
상지
상인
상처
상대를
상의를
상표를
상실한
상처를
새턴
새겨
새보수
샌디
생생
생전
생가
생체
샤이
샤크
서자
서라
서영
서서
서상
서후
서세
서산
서태
서황
서훈
서천
서두
서명한
서창동
석상
선문
선방
선종
선봉
선별
선물을
선공개
설이
설을
설현
설명을
설계를
섬의
섭관
성자
성의
성이
성에
성금
성경
성대
성녀
성훈
성유
성희
성덕
성적인
성장은
성적으로
성덕왕
성격을
성씨의
성과는
성실히
성직자
세전
세실
세습
세금
세련
세한
세레
세네
세가의
세일러
세비를
세상이
세상의
셀주
셀타
셀프
셔틀
셔먼
소문
소성
소령
소금
소환
소우
소망
소그
소회를
소시에
소장의
소문을
소르타
소트니
소규모
소나기
속해
속속
속이고
손이
손상
손태
손소
손병
손창
손자가
손자로
손쉽게
솔직
송기
송성
송구
송혜
쇼다
쇼세이
수험
수에
수임
수복
수어
수지
수년
수신
수령
수술
수송
수락
수코
수천
수집
수평
수장을
수시로
수술을
수보로
숙종
숙종의
순회
순화
순위에
순양전
술을
숨을
숭산
쉽고
슈미
슈거
슈카
슈바
슈페
슈뢰
스어
스리
스폴
스톨
스맥
스캔
스태프
슬퍼
슬프
슬램
슬라이
슬하에
습관을
승마
승점
승선
승달
승격을
시진
시와
시비
시종
시그
시위를
시도를
시인의
시너지
시호를
시위는
시도는
시위가
식별
식스토
신기
신부
신원
신서
신진
신선
신현
신촌
신비
신디
신간
신표
신탁
신봉
신도시
신기술
신정부
신인이
신임을
신부가
신안군
실과
실전
실리
실물
실장
실점
실태
실업
실권
실망
실바
실려
실손
실정에
심도
심대
심연
심바
심대한
심수관
싱클
싶을
싸워
싸움을
쌀을
쌍곡
쌓은
쌓고
써달라
쓰게
쓰토
쓰네
쓰레기
씨메르
아부
아지
아태
아역
아싸
아유
아말
아킬
아리아
아리스
아카이
아산시
아바르
아티스
아카데
아자이
아오니
아타우
아그리
악의
악명
악취
악마의
안영
안도
안서
안용
안남
안규
안토
안두
안톤
안타를
안된다고
안기부
않으며
않으나
않기로
알제
알파
알린
알레
알론
알발
알루
알수가
알렸으며
알코올
암태
암환자
압승
압승을
압수수
애드
애질
애초
애슈
애도의
애비뉴
애들레이드
액상
앨버트
야외
야당이
약사
얀센
양이
양위
양전
양을
양당
양대
양일
양념
어시
어릴
언어
얻으며
엄격
엄석
업비
업비트
없음
없어진
없습니다
에치
에인
에노
에나
에우
에투
에이스
에가와
에이지
에리나
엔지니어링
엘사
엘튼
엘렉
엘리스
엘페이
여고
여지
여가
여성을
여인의
여사와
여겼다
여배우
역은
역설
역으로
역학을
역학의
연행
연내
연중
연탄
연쇄
연사로
연계를
연수를
연주를
열번
열애
열림
열매
열려
열었고
열리게
열렬한
염상
염증을
영문
영강
영적
영관
영예
영농
영장을
예기
예로
예식
예견
예약
예링
예언
예수의
예수가
오라
오정
오월
오사
오해
오나
오산
오언
오클
오슈
오비드
오케스트
오우에
오영식
오가며
오진원
옥진
옥천
옥고를
옥타비아
온두
온전히
올바
올릴
올리고
올린다
올렸고
옮긴
옹성
와다
와해
와니
와인과
완수
완수를
왕정
왕과
왕복
왕을
왕광
왕손
왕징
왕좌
왕자가
왕권이
왜관
외계
외환
외동
외화
외곽
외부인
외야수
외모와
외질은
요안
요즘
요리를
요인이
욕설
용도
용산에
우라
우용
우노
우동
우한
우세
우발
우완
우중
우위를
우분투
운남
운반
운구는
울란
워터
워드
워커
워리어
원기
원서
원행
원술
원할
원만
원예
원균
원으로
원장을
원인으로
원인은
원인을
원군을
원코리아
월성
월산
웨일
웨슬
웰니스
웰링턴
위문
위임
위수
위배
위스
위넨
위에서
위나라
위기가
윈터
윈스턴
유용
유세
유태
유비
유식
유보
유림
유병
유코
유료
유두
유폐
유수의
유경선
유창한
유천호
육박
윤웅
윤씨의
윤태경
으로서의
은단
은행을
을에
음원
응모
응원을
의논
의회를
의식을
의성군
의장의
의식이
의지와
의과대학
의문이
의결을
이학
이신
이남
이세
이합
이가
이우
이권
이색
이근
이걸
이례
이글
이삭
이북
이매
이더
이룰
이말
이곳
이응
이궈
이사를
이었던
이들에게
이로서
이지방
이스파
이소로
이브라
이조판서
이여진
이터널
인문
인적
인원
인계
인삼
인명
인판
인플
인수를
인구는
인디아
일고
일방
일인
일당
일관
일행
일각
일약
일데
일족
일축
일괄
일리아
일화를
일대의
일대에
일화가
일가족
일대에서
일파를
일렉트로
일러스트
일련의
잃은
잃고
잃게
잃었고
임윤
임병
임효
임대를
임기는
임용을
입맛
입대를
있길
있기를
있으므로
있으면
있으니
있음이
자의
자와
자작
자막
자체를
자코바
작가가
잔니
잘생
잘츠
잠수
잠실
잠식
잡게
장미
장정
장세
장순
장온
장갑
장편
장비를
장면이
장소인
재학
재부
재적
재도
재상
재배
재발
재보
재원을
재원으로
재단을
재산을
재미를
재건축
잭맨
저하
저서
저장
저그
저렴
적시
적지
적격
적금
적절
적층
적응
전복
전영
전승
전장
전대
전광
전념
전유
전에는
전까지
전9년
전하며
전력을
전보다
전어진
전부가
전일본
전하성
전입한
절제
절을
절친
점은
점에
점과
점심
접한
접했다
접하고
접속을
정자
정수
정정
정제
정전
정개
정철
정을
정립
정용
정선
정한
정산
정대
정소
정략
정운
정봉
정예
정혜
정량
정엽
정원이
정원에
정복을
정하였지만
정지용
정조가
정면으로
정운용
제임
제노
제왕
제창
제사를
제자를
제도의
제도가
제재를
조리
조남
조환
조규
조배
조우
조조
조운
조머
조심
조폐
조기에
조직을
조치가
조정은
조언을
조준호
조영주
존호를
졸속
종용
종북
좌절
죄인이
주에
주정
주제
주지
주인
주와
주일
주옥
주례
주말
주장은
주기를
주자로
주의를
주말을
죽여
죽였다
죽음을
준주
준이
준장
준엄
준공을
줄여
줄였다
중개
중으로
중장이
중에도
중이며
중등학교
중기의
중공업
중령과
중서부
쥐고
즈음
즉각
즉흥
증여
증상
증대
증권
증설
증액
증진을
지는
지장
지바
지네
지참
지킬
지스타
지정을
지사가
지도를
지위에
지켰다
지단이
지회장
직원으로
직책을
직거래
진전
진을
진실
진술
진동
진한
진중
진주시
진실을
질주
질타
질책을
집이
집결
집닥
징병제
짜고
쪽으로
차재
차영
차원
차범
차상
차트
차현
차가
차장은
차량을
착공
찬양
찬반
찬열
찬성을
찾은
찾기
채이
채무
채우
책과
챔프
처치
처해
처한
천리
천도
천태
천명
철회를
첫날
청계
청사를
체류
체중
체스터
첸나이
첼시의
초월
초신
초등
초래
초점을
촉진으로
총영
총력
총체
총살
총장이
총학생
총신이
최재
최수
최치
최철
최서
최무
최경
최루
최지원
최현석
최재성
최강의
최명수
추이
추서
추궁
추밀
추증
추축
추대를
추세를
추석을
축제를
축제에
출강
출품
출근
충정
충칭
충혜
취재
취체
취하지
취지를
취임을
측정한
치기
치과
치즈
치켜
치요
치타
치뤘
치면서
치르는
친박
친노
친누
친절
친아버지
친분이
침입
침례
침몰
카브
카림
카쿠
카네
카잔
카렐
카톡
카드의
카부스
칼날
칼리지
칼리스토
캐치
캐딜
캔버라
캠벨
캠프는
커다
커미
커진
커플
컨페
컨퍼런스
컨트롤
컬링
컬럼비아
컵에서
케르베
케어비
켄트
코마
코흐
코소
코딩
코카
코닥
코트를
코치가
코나미
콘코
콜을
콜드
콜팩
콩쿠르
쿠노
쿤의
퀴리
크라이나
크레디
크루즈
클러스터
키미
키치
키울
키우는
킬렌
킹스턴
타사
타지
타케
타락
타살
탁지부
탄트
탈해
탈모
탈삼진
탐지
탐욕
태안
태을
태도
태진
태백
태그
태국의
태자로
태종의
태상황
터치
터르노
테너
테살
테스트
테일즈
토즈
토드
토마스
톤당
통학
통장
퇴각
투수가
투수로
튀니지
튜구
튜링
트레
트럭
트레일
트리니
특임
특강
특사로
특성에
특색을
튼튼
틀라
티무
티머
티그
티몬
팀내
팀들은
팀수가
파행
파산
파머
파병
파평
판명
판검사
판소리
팔메
팝업
패전
패하였다
패하며
패스트
패밀리
팬들
팬들을
페론
페니
페페
페더
펙토레
펜싱
편협
편하게
편지로
펼쳤고
평원
평범
폐차
폐업
폐막
포인
포러
포상
포울
포크
포스트
포항공
포워드
포기의
포틀랜드
폭격
폭력
폴은
표한다
표도로
푸아
푸드
푸스발
풀고
품다
품격
품바
풋살
풍월
풍성
프레이
프릭스
프르바
플레스
플러스
피로
피신
피를
피용
피스
피카
피폐
피스턴
피스컵
픽업
핀테크
필수
필리스
핑클
하라
하치
하전
하즈
하영
하당
하승
하남
하퍼
하후
하청
하타
하반
하천
하벨
하에서
하우스
하거나
하국주
학문
학계
학파의
한은
한지
한강
한도
한승
한남
한분
한류
한스
한달
한윤
한네
한참
한홍
한빛
한쪽
한계를
한민족
함에
함정
함양
함경
함형
합숙
합참
합하여
항전
항소를
항우가
항노화
해성
해할
해경
해병
해독
해럴
해줄
해밍
해명과
해명했다
핵개발
했었다
했습니다
행한
행정을
행사로
행위가
행적은
향수
향년
향락
향상에
허정
허드
허난
헌츠
헌터
헤라
헤즈
헤일리
헨리에
현주
현영
현장에
현상이
현안에
혈당
혈액
협주
협찬
협회의
협상은
형님
호위
호노
호타
호황
호반
호톤
호랑이
호비뉴
혼즈
혼합
홈플
홈으로
홈경기서
홈구장으로
홋타
홍사
홍재형
화학
화양
화보
화백
화답
화신이
확실
확장에
확실히
확고한
환웅
환자와
활기
황위
황정
황해
황룡
황통이
회부
회계
회견
회유
회사가
회복을
횡포를
횡포가
효고
효헌
효전성
후의
후회
후신
후아
후한
후설
후처
후퇴
후부터
후자의
후로도
훈훈
휘말
휘하에
휘트니
휴게
휴대
휴가
휴먼
휴가를
휴버트
휴관에
흐로
흐르는
흑자
흑수
흑삼
희곡
히치
히나
히르
히코
히스파
힘으로
##자재
##자수
##자만
##자살
##자이며
##자리에
##자리가
##자처럼
##의사를
##주도
##주게
##주총
##주에서
##주자로
##주교육청
##주겠다고
##이시
##이행
##이후
##이었
##이란
##이마트
##다에
##다오
##위생
##위반
##군에서
##군연합회
##재는
##재산
##재창
##하영
##하드
##하듯
##은숙
##미지
##미상
##미쓰
##기동
##기소
##기타
##기운동
##기부를
##기반을
##기세포
##로에
##로라
##로지
##로만
##로페
##문서를
##에이고
##는다는
##생과
##생인
##라지
##라서
##라호
##라디
##라바
##협정을
##받도록
##받는다
##받았던
##고도
##고스
##고히
##교는
##교리
##교동
##교장에
##교실을
##수이
##수부
##수련
##수립
##수요
##수소
##수스
##수비
##수액
##수렴
##수첩
##수상을
##수준을
##정공
##정화
##정변
##정하고
##정하였다
##정신을
##제과
##제도
##제분
##제과의
##학대
##학원을
##과대학교
##과정의
##치기
##치코
##회생
##복이
##복과
##복구
##복야
##여러
##여한
##여래
##여왕의
##부서
##부녀
##부장은
##부시장
##전지
##전적
##전당
##전람
##전에서는
##마는
##마라
##마당
##마케
##마코
##마쓰
##마켓
##마민주당
##마스크
##마차를
##시지
##시도
##시행
##시일
##시집
##시에는
##시장은
##99
##개최
##개에서
##개국이
##어주
##어서
##어나
##즈워
##즈버그
##즈수영대회
##사기
##사부
##사용
##사이다
##사회의
##사고를
##졌으나
##성인
##성하였다
##민장학재단
##지던
##지리
##지대
##지갑
##지겔
##지부장
##지주는
##지부에
##방문
##방으로
##방에서
##방식을
##방안에
##방문의
##차의
##차는
##구간
##구매
##구은행
##구조를
##건과
##적이며
##영과
##영양
##영암
##철과
##0개
##2야전군
##년도
##인하
##인구
##인원
##인들과
##인프라
##인명사
##츠와
##격대대
##파구
##파이어
##러시아
##을까
##뱅킹
##국회의
##당성
##당할
##당길
##당숙
##당했다고
##리던
##리상
##리움
##리지는
##도자
##도서
##도바
##도심
##도부터
##FP
##FS
##C의
##CE
##CW
##실습
##실용
##실업
##실적을
##습니까
##능력을
##물사
##물이다
##관왕
##관계에
##신협
##신고
##신찬
##신하고
##신학교
##신에게
##했습니다
##했는지
##담으로
##금성
##원전
##원장
##원비
##원예
##원대회를
##해상
##해경
##해준
##서블
##서점
##서트
##서가
##서더
##서기에
##진강
##진행
##진한
##곡성
##곡으로
##피우스
##피안타
##아주
##아로
##아줄
##장치
##장실
##장한
##장비
##장려
##장군에
##점수
##점과
##턴의
##턴은
##턴스
##G급
##립예술단
##무력
##무현
##무형
##무역을
##용의
##용이
##단인
##단에게
##행원
##였기
##mm
##mu
##m에서
##man
##mat
##5대
##5만
##5명이
##5000억원
##6회
##60
##62
##63
##6대
##67
##6명이
##83
##8호
##린팅
##린도서관
##린스키
##터의
##터링
##선교
##선관
##선으로부터
##범은
##술에
##상부
##상당
##상품을
##상사화
##상장시장
##상태에
##계현
##계엄
##남양
##남녀
##IE
##PF
##PC
##PE
##퍼런
##드린
##드에게
##할지
##할랄
##RP
##RA
##RPG
##환에
##환송
##환자를
##양의
##양성
##양립
##양행
##양함
##항에
##게니
##트인
##트롯
##트레인
##노트
##노선을
##노비치
##노스로의
##동성
##동호
##동석
##동하는
##동대학교
##거는
##나로
##나서
##나게
##나면서
##나갔다
##르겐
##경연
##경에는
##후드
##한지
##한데
##세인
##세상
##세탁
##세데스
##세예비치
##합병
##산주
##산은
##산틴
##산단의
##레드
##레트
##레스의
##레포츠
##레나가
##입법
##공여
##공영
##공약
##공히
##공모
##공급
##공학자
##공학을
##공단이
##되는데
##면은
##면세
##3억원으로
##직은
##직업
##대국
##대원
##대동
##대형
##대첩
##대군의
##대왕의
##대전에서
##대군과
##대구은행
##분들이
##확대
##내지
##내었다
##들기
##들여
##들처럼
##준의
##태자를
##태자의
##현충
##가리
##가나
##가공
##가타
##가액
##가스를
##가정의학과
##워즈
##류를
##류장
##형인
##형외과
##촌에
##촌마을
##었는지
##버는
##버대학교
##송라이
##배양
##요한
##요스
##짐을
##겨울
##소위
##소닉
##소했다
##소스로
##득점
##론과
##론철학
##딩거
##스틸
##스호
##스틴
##스탕
##스마트
##스워스
##호정
##호도
##광중학교
##혁은
##혁명의
##혁신을
##팩을
##야스
##야말로
##육성
##으라
##ren
##red
##oc
##ok
##ox
##ogue
##son
##비통
##비밀
##비디오
##비즈니
##왕조
##통제
##일까
##일으
##일째
##일레븐
##우회
##우시
##우선
##우호
##디지
##디파
##디슈
##오로
##오에
##오피아
##있고
##ean
##eed
##토는
##토를
##토와
##토가
##토크
##토큐
##니즈
##니와
##니트
##니얼
##니스와프
##케르트
##너즈워
##티와
##티보
##티잔
##티하드
##채영
##채를
##널티
##7회
##72
##7명
##출한
##출판
##ail
##uk
##ux
##ls
##품격
##품으로
##업체를
##권주의
##조리
##조7
##조약
##설위원으로
##발생
##발도
##청의
##애폴리스
##브러
##브나
##브레
##브영은
##브로드
##보이
##보기
##보드의
##보국회
##컬링
##커가
##간에
##간담
##간접
##간이다
##운이
##운과
##운송
##운전자
##go
##gu
##gy
##gan
##ier
##ior
##ias
##the
##tra
##ph
##순찰사
##패가
##카로
##카시
##카르
##카우스
##카스가
##카메라
##카지노
##종은
##종사
##종인
##표지
##타자
##타인
##타게
##타워
##약한
##증손
##증으로
##증상이
##삼진을
##법상
##연이
##연방
##연계
##연대를
##익이
##만여
##만인
##만한
##슨트
##윤형
##택은
##택이다
##란과
##란젤
##란시스코
##색이
##색에
##명인
##명절
##명하고
##명하게
##링에
##뜨리고
##렸을
##콘신
##콘덴
##콘서트
##됐기
##됐으나
##감리
##감으로
##히기
##히데
##히라의
##히텐베르크
##황은
##망에
##망스
##누리
##누스와
##모자
##모는
##모터
##모집
##바스
##바토르
##투어
##투쟁
##투스는
##투데이
##등이
##프와
##프롬
##프리오
##프레스
##프스키
##프란시스코
##팅게
##체로
##체에
##체제
##체크
##체계가
##혔지만
##UH
##킨스
##L이
##탈라
##쿠츠
##쿠스와
##봉의
##봉을
##봉사회
##암아
##귀족
##vel
##cat
##cont
##백이
##백과
##백을
##han
##ham
##데블
##데냐
##화재
##화수
##화경
##화될
##화하기
##화학자
##포로
##포인
##포트
##포칼
##포스트
##친위대
##녀로
##병의
##병상
##병원은
##병원으로
##휴먼
##kin
##속비서관
##답게
##예선
##예바
##객들은
##훈의
##훈을
##총액
##총장은
##총회에서
##코비
##코스는
##코시티
##ju
##중재
##중국
##걸리
##온의
##온스
##래는
##난의
##난과
##악법
##책의
##메일
##T의
##TBC
##창범
##창적인
##돌봄
##례신학
##절스
##유는
##유격대대
##닝언
##록이
##석주
##석해
##SPA
##페스티벌
##급과
##급여
##셰비
##축재
##축전
##삭스
##ㆍJ
##샤오
##숙을
##숙박
##흥갈
##ée
##랑카
##솔루션
##천동
##천국의
##룡을
##열린도서관
##켰는데
##북구
##변인
##변경
##변화운동
##농성
##농약
##컨트리
##컨설팅
##님께서
##루트
##루스코
##퇴의
##매물사
##field
##테가
##심판
##네의
##네즈
##네요
##판이다
##혜수
##혜영
##율제에
##때로
##려면
##손자
##손해
##밖청소년
##두를
##두섭
##두각
##집에
##집으로
##효율
##났던
##났지만
##극복
##극을
##헌장
##헌관은
##량과
##특구
##측정
##측에는
##탄의
##캠페인
##추는
##말의
##말까지
##ba
##bp
##bal
##플로
##플랫폼
##플로우
##평생
##평균
##평론가
##엘츠
##초에
##win
##ward
##ware
##warz
##저를
##웨이트
##곳의
##액은
##랭이
##침을
##침례신학
##갔으나
##좌복야
##BL
##올로
##슬레
##쳐도
##뷔르템베르크
##텔레스
##릭스의
##릭스를
##골퍼
##골드
##왔던
##런너
##런히
##런파크
##뉴딜
##촉진
##줬던
##줬고
##폭격
##폭스
##쟁점
##염의
##놀트
##취소
##취업
##렌티
##렌부르크
##Q는
##앤씨
##앤소울
##캐슬
##몬트
##딘의
##덕동
##몰과
##쉽을
##뿌리
##쪽으로
##셔너
##텍스
##헤드
##볼라
##볼리그
##볼연맹
##불은
##불교
##밍스가
##헬스사
##뇌혈
##룸에서
##VID
##탕이
##놓을
##놓았다
##큐어
##것은
##듀코프
##느니
##혐의로
##컵을
##텐더
##믹콘덴
##풍의
##멘탈
##ZY
##풋볼리그
##빨리
##챔피언
##으로의
##으로도
##했다며
209
20세기
20년간
19명
19일에
10회
10번
10일에
10명의
10개의
10세가
1000만
대한국민
대한국민당
대한사회복지
대한청년단
대한노인
대한상공회의소
##하는가
##학교의
2005
2003
200만
한국수
한국으로
한국산업
한국당의
한국건설
한국정책
한국통신
한국투자증권
한국농업
한국해양
한국기독교
한국서부
한국사회적
한국토지
15만
15명
1500
지난날
대한민국과
대한민국과의
대표직을
대표최고
##위원이
##위원과
##면서도
광주는
광주와
광주서구
광주비정규직센터
대통령도
대통령경
대통령과의
대통령이었던
113
있는가
있는지를
12살
12명의
12년간
1994
이후인
이후로는
지역위원회
지역에서의
지역아동
지역발전을
지역주민의
자유주의
자유로운
자유롭게
일본어
일본군은
일본경제
일본군이
일본서기에
일본풋볼리그
함께할
##리그가
##리그에서
미국이
밝혔다고
18회
18세기
17대
의원에
의원인
후보직을
후보자에
정부로
정부인
정부예산
국민에
국민과
국민대
국민들을
국민의회
국민당의
국민체육
국민중심
국민안전처
국민모임
국민소통
국민연금공단
더불어민주당을
더불어민주당원
##대학교는
##대학교를
조선이
조선에
조선독립
조선언론
조선귀족
##시아키
경기의
경기인
경기에는
경기력을
경기장에서
경기도시공사
##00회
프로에
프로방
프로골퍼
141
14일에
14세기
##적으로는
##3년부터
서울을
서울과의
서울교통
서울지방검찰청
사회적으로
사회학자
사회운동가
##스트루
##스트투자증권
2세기
2세에게
당시는
당시까지
선수다
선수와
선수들과
선수로서
선수단을
##대표대회
##대표회의에서
민주적
민주시민
민주주의를
민주화운동
민주변화운동
문재인의
##였다는
관계에
1세로
1세를
제1부
제1대
제1공화국
제1서기
제1형사
제12대
제100회
##되어야
자유한국당과
##교육이
##교육부
##교육기관
##교육재단
민주당에
##방송을
국가는
국가가
국가예산
연구로
연구하였다
연구진은
연구소에서
연구용역
축구단으로
이어진
이어졌고
이어가며
이어받게
이어가던
13명의
13세의
기록에
기록도
기록할
기록으로
기록되었다
기록했으나
지원단
지원한다
지원하게
지원했고
지원하겠다
지원군을
지원함으로써
사업자
사업가
사업들을
사업부가
사업비를
사업부문
사업단장
자신에
자신과
자신감
자신들이
이날까지
활동하며
활동하던
활동하였으나
시작할
시작하는
시작되었고
시작되었으며
프랑스로
프랑스어
프랑스와
프랑스에서는
프랑스와의
프랑스군은
중국식
##되었음에도
국회의장과
214
감독직을
감독상에
##라이프
##센터의
시즌과
우승의
##eration
250여
세계로
세계를
세계은행
세계수영선수권대회
세계기아
위원에
위원과
위원장과
참여하기
참여했고
##사업부
##사업조합
##사업조정
이번엔
이번에도
##민주항쟁
9월부터
독일이
독일인
독일에서
교육에
교육생
교육장
교육위원회
교육지원
교육장으로
교육학박사
선거의
선거로
선거와
아들까지
30대
30만
30명
30초
30여명이
아이드
아이작
아이들은
아이들을
아이엘츠
회장에
회장직을
12월에
12월에는
영국과의
국제무
국제선
국제적인
국제협력
국제표준
정치국
정치인이
정치개혁
정치가로
정치권에서
정치외교
진행을
진행하였다
진행되면서
운영차
운영해
운영했다
운영위원
운영하며
운영되고
운영했던
운영하였던
운영중인
##억원에서
8월까지
방송이
11월부터
2325
사이였던
국회의원은
국회의원들이
##ony
##ond
삼성에
삼성전자가
삼성엔지니어링
삼성디스플레이
##항공단
참석하였다
참석했으며
##레이터
##레이트
##레이크
한편으로
##들에게도
6월에
6월에는
김대성
문화에
문화적
문화경제
문화공연
전남지역
전남스포츠
전남동부
현대의
현대와의
현대증권
현대인들이
현대미술
1944
2월부터
2월에는
부산의
부산과학기술
제2의
제2당인
제2훈련
제21회
러시아로
러시아에
러시아에서
##의회에
그러던
그러다가
전쟁은
4월에
4월부터
22만
시민을
시민들을
시민안전
육군에
공동주
공동위원장
공동체를
공동협력
공동설립
소속이
소속팀
소속팀인
##나라에서
2023년
##우스가
SKY
SK인천
SK텔링크
김대중컨벤션
##본부장을
이용주
이용재
이용을
이용하는
이용하여
이용자들이
##스타일
##된다는
사람사는
사람으로서
추진과
추진하기
추진하기로
정의당에서
271
27석
270년
유럽연합
##지원단
##지원단의
##지원사령부
##ena
김영철
김영춘
통합해
통합되면서
것이고
비롯해서
때문이라는
교수의
교수직을
교수진과
##int
공화인민당
프리랜
프리큐어
개최할
개최될
개최하였다
개최됐다
대학에
대학이다
전국이
전국학교
전국적인
전국여성
전국언론
교황과
교황으로
##대로부터
##연합당
계획이
국회로
국회는
국회법
우리공화
우리지역
하나였다
이사의
##산업단
##산업으로
##산업협회
기업이며
기업인으로
주장도
주장했는데
순천의
순천경찰서
출신이자
김정일
김정일이
다시금
방문할
방문하지
방문단은
방문했을
이상재
이상민
이상한
이상근
26개
264
발표에
발표는
발표하였고
사용을
사용해
사용하지
사용료로
##회사인
장관의
장관과
장관인
장관상을
##ork
경찰대학
경찰서에
있었다는
##연구회
##연구센터
만들겠다
만들기를
만들었고
만들자고
설립해
설립하였다
설립되었으며
아버지에게
28일에
선정해
선정하는
선정한다
선정됐다
선정되었으며
선정되기도
학생은
학생을
학생들
학생들과
##기업인
##기업을
##니아의
##니아와
코로나19의
대상은
시장과
챔피언스
물리학의
물리학을
물리학으로
물리학에서는
최고위
최고인민
최고사령관
행정명
행정위원
행정자치
행정구역
##문화센터
들어오자
들어갔고
수상하는
수상하여
수상자가
##운동이
##운동으로
##운동본부
노무현은
배우자
배우고
배우를
배우가
배우이다
아니며
아니라는
##사회에
##사회당은
에드문트
조지프는
중심지
총선에서는
실시하는
항공대
항공우주
2016년에
2016년부터
2016년부터는
멤버다
멤버가
멤버로서
예비창업
2017년까지
사실에
사실과
사실이다
여성이
여성에
임명하고
임명하는
임명하였고
광주시의
광주시장
광주시와
##르트인
1925
1926
지난해에
지난해부터
정책이
정책자문
##발전에도
오후에
##지역은
##지역으로
##지역위원장
경제적으로
경제활동
2012년에는
받아서
알렉시오
알렉세예비치
통일부
통일교의
개발자
개발하고
알려지지
알려졌으며
자동차의
자동차는
자동차가
참가했고
참가하지
참가자를
참가결정
참가예정
결과로
인천국제공항
인천영종
전문지
전문으로
전문가와
제국대학
출연진
출연했던
##기관에
##기관과
##기관이다
이탈리아가
이탈리아에서
이탈리아와의
결정하였다
결정하게
##도시로
##도시설
구성해
구성하고
구성하였다
구성되었다
구성되었으며
사망하는
사망하였다
사망했고
사망하였고
사망자는
성공하여
성공했으며
창당된
창당하였다
창당하게
창당되었으며
창당하였으나
##기술을
##기술원의
공개하는
공개된다
그룹은
그룹이다
대전시
독립운동
독립행정
독립신문
예정으로
예정이었으나
##관리센터
##관리공사
김성재
김성기
스타로
스타드
즉위에
즉위와
즉위했다
즉위했으나
즉위식은
영화제작
안전하고
안전건설
역임하며
1000년
100주년
100kg
100분의
100G급
생활의
생활이
포함돼
포함됐다
포함되지
25일간의
대구방송
데뷔전
데뷔골을
처음에
처음이다
1910년
1913년
김영삼과의
5일부터
고려의
고려아
고려하여
고려에는
고려해야
고려공산
마이너
생각한
생각보다
제공을
제공하며
##시키지
##시키기로
##대학을
##대학으로
##대학에서
##대학원을
##대학펜싱
11일부터
11일까지
고객은
고객들이
고객들의
김종갑
야구에서
필요성
4일에는
4일까지
LG전자가
30일의
30일에는
원내대표도
동안의
로마를
로마와
연맹을
제주도의
제주도가
제주도는
제주본사
2010년에
2010년에는
31개
주요한
##개발을
##개발원
프로그램에
당선에
당선될
당선됐다
당선되면서
바이지겔
보수당의
어려운데
어려서부터
##ato
##ate
2018년에
공격하며
공격수로
발생에
발생과
발생해
제작자
제작에
제작을
제작진은
총장직
평가에
평가는
평가하는
평가전에서
필리파
필리포
2020년부터
2020년에도
조성할
환경생태
2011년부터
2011년까지
3일부터
국내에
국내산
인사와
인사들을
##위원장에
챔피언스리그를
기대하고
기대감이
요구에
요구했으나
일부로
일부가
##이션을
18일을
강진군의
광양항
광양제철
마련에
마련하고
비판이
비판은
비판한
비판한다
##정보를
2일부터
2일까지
대학교는
도시의
박정교를
증가가
출마할
출마했다
출마했고
##고등학교로
##고등학교탁구
5세기
NBA로
NBA와
보고회를
사장에게
안철수는
안철수를
안철수가
청와대의
##체육관에서
26일부터
결혼이
결혼하게
결혼했고
결혼하였으며
동아프리카
북한군의
북한군이
북한대학원
##시장의
##축구단
17일부터
경우도
고구려는
고구려와
레이던
레이먼드
지방으로
지방법원
지방공무원
지속되었다
최종현
최종적인
특별위원회를
특별보좌
특별교부
가수인
가수이다
공작은
공작령의
대신에
미래의
미래한국당
스페인이
스페인은
어머니를
정당에
정당별
정권재창
##els
##ely
##elor
경기도가
매출은
매출을
20일을
20일부터
2013년부터
과정은
다음달
아르놀트
##과학연구소
##heim
21일부터
돌아보고
롯데케미칼
진보당의
진보정의당
14일에는
가능해
가능성도
건강기능
면서도
역사에
역사와
역사적인
확대하는
가족들
가족에게
가족들의
그리스의
그리스는
그리스와
생산자
생산된
생산하는
왕조이다
이미지와
##지사와
15일에는
국가대표로
청와대는
6세는
바르게
발전한
발전시키고
베이카우스
차지할
차지하게
학교의
학교밖청소년
리처드는
노력이
노력했다
노력하였다
노동당이
소련에
전주지부에
위원장도
기독교를
기간이
대비하여
대비하기
인터텍
지휘를
지휘했다
지휘하였다
지휘했고
지휘하에
출전하면서
출전하지
출시가
순천시와
순천시가
순천시에서는
1년치
진출했다
진출하였다
진출하여
총리였던
총리직을
판매해
판매한다
판매한다고
혁신의
혁신적
##스키의
브랜드로
선언을
총재직을
##인으로서
광주광역시는
광주광역시장
광주광역시와
광주광역시가
광주광역시청과
분야에서는
지지자
지지에
지지하여
지지율은
지지율을
활약했다
##its
##ities
KBS는
기술연구원
서비스로
준비한
준비가
준비위원회
포르모
포르테
##이라면
##원으로부터
과학자
과학적
월드비전
유지해
인정할
인정하고
인정하는
인정받고
정보와
정보가
조직의
조직되어
##선거법
2007년에
2007년부터
기념하는
데이메이
전달해
전달하고
전달했다고
전달받은
전달식에는
청소년들의
청소년수련
한나라당의
전년도에
추가해
화순열린도서관
게임의
과거의
농업을
마을에
마을만
마을에서
마을주민
성장동
성장세를
직원의
직원들의
직원들을
직원들에게
##이사자처럼
##시설과
##시설을
##시설도
개선에
개선하기
결성했다
결성하였다
등장할
등장하여
등장하며
평화상
평화통일
##이익률
##단체가
##ouss
1907년
1901년
FIVB
관리제는
반대하여
반대한다
시간과
시간여행
연합과
연합뉴
연합하여
연합군은
연합군에
연합뉴스
우수하고
우수상을
이유에
이유식
확보해
확보와
확보할
##정당인
##스티슬라
##ets
##조선연맹
##중앙방송
박정희와
박정희가
국가대표팀은
국가대표팀에
국가대표팀을
계열사가
문제다
문제점을
예상되어
예상치를
이전하는
이전까지
이해를
이해할
클럽이
클럽으로
해당되는
호남을
회원들이
회원들의
##교회는
2006년에
경영자
경영을
경영난으로
엔터테인먼트와
엔터테인먼트가
탈당파
탈당해
기여를
기여했고
단체를
단체와
올라온
요시무
요시이에
요시타카
요시쓰네
요청할
요청한
울산시
중화산동
진도7
진도군은
1990년에는
50만
50주년
계승한
계승하였다
계승자가
변경의
변경된
변경하여
보내고
보내어
보내주신
않았다고
유진저축은행
임시로
지적한
지적하면서
지적재산
도쿄로
도쿄올림픽
연방주의자
예산편성
오스트롬
올림픽과
올림픽에서
이재성
이재승
이재순
제품이
제품에
제품으로
##협의회는
##통합민주당
##통합지원센터
여수시가
모스크바에
모스크바에서
대응하고
대응방안을
박재범
승리해
승리하였다
에어버스
에어포스
이동섭
이동욱
혐의에
1997년부터
29일만에
강화와
강화하고
강화하는
강화하겠다
개혁과제를
그녀에게
김일영
김일두
나타날
동양대
동양그룹
동양화부
보도자료를
의혹은
의혹과
의혹도
자리인
존재하던
종합대책
종합숙박
청년들이
하였는데
한전은
한전원자력
확산에
확산으로
활용되는
##생활에
##생활시설
##교통사업조정
320여
강조한
강조하면서
부문을
부르기도
서구의
서구는
서구청장
제3자
##진흥협회
광산구을
광산구청장
새정치국민회의로
새정치국민회의를
새정치국민회의와
40주년을
공공체육시설
기원하는
민족의
민족자본
민족해방
민족문제연구소
아내로
언급하였다
의견도
의견으로
의견수렴
인물인
인물들이
군민이
기타를
나이키
나이팅게
다이어
다이요
다이토큐
담당했다
담당한다
담당자는
반영된
반영하고
반영되는
분석하고
시행에
시행한
시행되고
이르쿠츠
이종형
이루는
이루었으며
이루어진
##정책의
##정책관
##ilo
1995년에
1995년에는
경쟁을
발견해
발견하고
발견하였다
발견되어
발견되지
상태다
채널CG
토론을
해외에서
해외봉사
해외취업
사회적가치
프리미어십
380년
3838
설치할
설치하여
수행할
수행한
수행하고
수행비서
이야기로
제기되고
제기했던
황제는
##지방에서
##지방국토
##대책특별위원회
의장인
장제스가
##일보의
##ure
##ura
국방군
국방장관
국방과학연구소
명예의
명예가
전남도가
합병에
합병된
확정된
확정됨에
회의의
회의에는
##의료원은
1987년에
1987년에는
네덜란드에서
목포의
목포신
목포중
바로투자증권
발매했다
보여줬다
선발하는
신라로
크로닌
##us의
자유민주당의
31일부터
한국전력거래소
결승에서
결승전에
경희고등학교
경희중학교
경희사이
달성해
달성할
달성한
달성하고
불교의
불교를
불교방송
운동가
운동권
인민공화국
인민무력
주최로
##인공지능
##버스그룹
자유민주연합에
1883년
월드컵에서
나가기도
논란을
드러난
드러낸
부회장을
세르게이
세르듀코프
스코티시
인수해
일자리창출
합의하였다
합의하여
##평화방송
포르투는
가문과
가문인
공모한
공모사업에
선교부
선교사와
소통해
소통하고
언론의
언론과
언론인
언론악법
제안한
제안하였다
제안했고
투자에
희망이
희망과
1996년에
서울특별시장
강진군민장학재단
고민환
고민하다가
금호1
금호중앙
금호터미널
기준에
남편의
남편과
남편에게
모델이
모델을
상임선대
신청한
자료로
정신과
정상적인
클라쓰
후계자인
##계획에
##ries
삼성전자는
가톨릭평화방송
GS25
GS홈쇼핑
KB금융그룹
근무하다가
노래로
레오폴
발언으로
산하에
산하에서
스포츠의
실적은
일반인
일반적인
일반시민
주도하고
주도하여
주도권을
태어났다는
바른미래당의
바른미래당이
바른미래당은
박헌영이
개인전
경험한
국정원의
김현수
김현정
김현성
김현철
소방관
수비수로
스튜어
영입하는
영입하였다
영입하여
영입되었다
올랐고
올랐으며
책임감을
친구로
친구인
파리에서
합류하면서
##시켜야
사회주의적
사회주의통일
국왕과
남양주시
명의로
수사지휘
않았기
연기자
이와키
파이프
확인하고
##자동차의
##나가고
##나가겠다
##통신기술
##엔터테인먼트와
전문가들이
공무원과
공무원연금공단
금융위원회
금융노조
김해시장
복지TV
안정과
안정적
예방과
예방수칙을
음반으로
축하를
축하했다
축하한다
복귀하여
복귀하였고
수석에
수석보좌
수석코치가
스마트팩
은퇴할
은퇴하고
자문위원회
##스턴트
민주노동당으로
라이온즈가
라이온즈에
아시아나항공과
III
K3리그가
브리티시
신한국당의
신한국당으로
아직은
작품을
주식회사에
##이언스
##전문대학원
##노동위원회
##rad
프리드리히를
김일성과
김수연
나오고
나오지
나오스케
남북한
남북관계
남북정상회담
동부그룹
사진이
사진이다
제출하면
하이투자증권
한화투자증권
한화케미칼
획득한
##시즌을
##노스아이
1992년까지
1955년에
1945년에
소비자에게
소비자들이
조선민주주의인민공화국은
Charl
부진이
부진했고
블루웨이
블루밍스가
사령부
수립에
수립을
수립해
와이파
전통이
제42야전군
평양이
##국제수영
##스케그
##스케이팅
##텔레스의
매출액의
559년
가입자
가입을
건국대학교
건국준비
민중당과
세력은
세력에
스위니
스위스의
시설개선
여기에는
영토의
이강석
이래로
작곡했다
장남인
제7보병사단
집중해
집중할
집중하고
집중하기
김종필이
고등학교에서
공유하며
공급에
공급할
선임했다
선임되었다
세이브
세이브를
시티와의
실패에
이수현
장성삼
전체에
제5기
제5차
제59회
주인공인
치매예방
치매환자와
투입하는
하루빨리
해체되었다
해체되고
후반에
##제국을
##소프트볼연맹
##igit
세르비아인들은
가경제의
경성부
경성대
경성콤
경성광산
국토부
귀족의
귀족들
내려와
내려올
마음의
무안읍
소재의
소재한
스토리로
입단했다
입단하였다
입단하면서
존슨은
최우선으로
패배로
패배를
##철도망
##eme
1892년
어린이와
감사패를
공직에서
공직사회
공직선거법
나서고
나서며
동구청장은
세종지부
소개해
소개하는
소유주
신민당과
아동문학
아동미술부
아래쪽
연결된
연결되는
오리엔
이시언
재난기본소득
적용해
적용한
지시했고
지시했다는
초기와
출판인
출판된
텔레비
텔레그램
핵심인
핵심가치
##iva
1993년에
바르셀로나로
바르셀로나에서
소프트웨어의
페이스북을
감소했고
개편에
개편한
거두어
구매한
김구의
김구라
노르만
받았는데
비상장
비상국민회의
비상대책
비상계엄
선생님
위반한
위반으로
이때부터
이웃들에게
이웃사랑
일어났고
지냈으나
프레디
프레드릭
프란체
프란시스코
후원하는
##소방위원회
지역사회와
국제공항으로
마이클스
홈페이지에서
395
SPD
SPFL
국무총리로
김진환
달러에
떠나서
떠나게
떠나면서
마사미츠
마사시게
몽골의
반발하던
시리아군은
아키라
않는다는
올리버
은행장
작가로
조승수
조승래
조승우는
중단할
중단했다
표현의
표현한
표현으로
혁명가
혁명으로
##트비체
##흥군연합회
##농업기술센터
대표팀의
대표팀을
1870년
1874년
1980년에는
이라크군
##시키고자
필요하다는
트럼프는
플랑크의
플랑크와
워싱턴포스트
워싱턴침례신학
379
370
거부하고
거부하였다
거부하고자
공산당이
기본적인
김기태
김기식
김기춘
노벨상은
노벨평화상
부터는
불리며
승격해
승격하고
승격했으나
시스템에서
약속한
여름에는
연주와
이벤트는
인권변호
입당한
입당하였다
자체적으로
자체사업의
집행위원회
집행위원회는
하락한
해적당을
해결해
##이어서
1503년
하나금융지주의
행정안전위원회
페르시아어
페르시아와
연세대학교에
450
대공국
동맹의
동맹에
등록을
바오다
받는다고
방어전
부분이
부분은
부분을
상대인
유치한
이기고
이론에
창업주의
클래스
##공동대표
##공동체를
##맥스소프트
1978년까지
크로아티아인
새천년민주당과
새천년민주당을
전두환으로부터
기능이
득표수
득표율을
만든다
맞이한다
상승이
상무집행
수요자
수출을
신속하고
알리는데
암살당하자
이성우
점검을
점검하고
정몽준
진주성을
진주성이
창단해
창단한
창단된
창단하였다
체육관
체육대회
친일파
친일인명사
투수코치
##부문에서
1862년
1946년에
골키퍼로
골키퍼였던
루트비히의
루트비히는
가정제의
검토해
검토하고
다카아
도입하여
두산중공업
마리노스와의
마리노스로의
물러난
방영한
방영되고
보호에
부정축재
부족이
부족해
사무처장
식품공학자
아랍어
오히라
우려가
전환이
전환을
지급을
지급한다
통치하게
형제인
형제와
##회장에게
##사이에
##사이시
##아이파크
##odel
한국동서발전은
한국동서발전㈜
1845년
1841년
1837년
1833년
중화인민공화국이
마무리했다
마무리하고
여운형의
80만
개정안을
건립되었다
골든레이
골든블루
모리사다
바뀌게
발탁돼
발탁됐다
보이면서
부모의
비디오판
사태로
선포하고
선포되었다
선포하였으며
선덕제
선덕여왕의
수익금
수익성이
유통업체
재판관
재판에서
정종순
청주상당
현지시간
회복하고
효과적으로
##장관회의
##경영인
##lay
##평가원
1984년에는
SK하이닉
들어가고
문화체육관광부와
542
60대
600년
Theory
가을의
가을에
간호병과
그린카
글래드림
김용호
나누었다
라리가의
바람의
밝히고
방역에
불러일으
선고받
실현에
실현하기
실천하는
애플리케
연예계
이외에
인근의
자녀가
작성된
전사한
전사들을
전당대회를
점령할
점령했다
점령하였다
종교가
종교개혁
주목하는
지내면서
지내다가
취약지역
파견해
파견하고
페이턴
페이코
펼쳐진
합동참모본부
##전선에
##str
##조사위원회
1850년
사령관인
캐릭터다
방탄소년단의
PD와
PD수첩
간부공무원
관람한
관람가
관람하며
권한대행을
김경문
대책에
덴마크에서
리더십
밀란으로
반란이
배출해
배출한
밴드에
부사장을
부대와
사무총장을
사무총장의
선택하였다
야마다
여론의
여론조사에서
자격증
장수군
재개하였다
제시한
주재하며
처리했다
취소했다
취소됐다
카카오페이
탈퇴한
탈퇴했다
태풍으로
##관계자
##관계가
##상황을
##상황실
민주평화통일
챔피언십에
타이틀전
3학년이던
654년
ASF
KCG
가져와
가져온
강경준
개입으로
개입하였다
권력에
김희승
내세웠다
네이든
노선인
드림스
봉사활동
부총리는
부통령의
부통령을
비중은
비중을
서명하고
서명하면서
선전미술부
수여를
수여하고
시도지사
응급의학과
이병철
이병훈
이병헌
이뤄져야
장악할
장악하였다
정인영
정인홍
집권여
집권했다
차별이
차별을
투어가
형태를
후지코
후지TV
##해주길
##스럽다고
10세회
1495
1492년
1493년
1473년
제164
국회의장실에서
공동체와
##ander
코로나바이러스의
호남대학교는
3차전에서
MC로
겨울전쟁
겨울왕국
고문은
김민철
김민찬
보낸다
부상당한
상품으로
상하이에
유명하다
유명했던
인식하는
재임기간
전자지갑
차남이다
추기경의
파라과이
파라모어
파라과이의
파주시는
파주시의회
파주시립예술단
편성해
편입되었다
편입되었고
협조해
형성된
형성했다
##기간을
##여객철도
##마이너스
##사랑상품
##보험공사
1455년
1452년
1453년
1세와는
최고위원과
도시재생뉴딜
J2리그로
조흥은행에서
1천여
53회
거듭나
거듭하는
고교생
고종이
고속도로
국무회의에서
김지영
김지선
김지산
김승일
김승연
김준환
떨어져
떨어졌다
리가포칼
박병규
방식의
브래멀리
비밀을
빌헬미나
사항이
살해하고
서기호
서기국장은
원자핵
원자론주의
전개해
전개했다
전개하고
조카이자
주교를
주변의
치러질
침공에
항의했으며
후임에는
지역민들과
##자로서의
받아들일
유진기업은
이야기했다
435
668
ITZY
가르치
가르쳤다
공항은
그리츠
그리하여
그것은
김한신
김한표
단일화
도와줄
도와주는
디자인에
목소리
무사히
무사사구
문무왕이
문효세
발행하는
발행가액
배치되어
보장왕이
수입하여
실제로는
앵커는
연수원
익산지방국토
전주시장
제한적
제한하고
주력하고
항복하지
형사부
##주식회사는
##사무소에서
##박물관에
1806년
1807년에
1959년부터
부회장에게
플레이오프에서
신익희는
가상계좌
가상현실
계급에
계급을
계급으로
공천을
공헌을
공헌했다
공헌하였다
광복군
규정하고
내부에서
느끼던
느끼게
대체하기
동원F
동원하여
루카의
무대미술부
미술평론
미술교육부
바라며
바라프
바라보며
법흥왕과
법흥왕에게
부활의
부활을
부활절
부활시켰다
설득하여
소송의
수록된
술탄의
시흥에서
연남생
연대기
연설했다
유아기를
입문한
자기자본
자산은
재단법인
전철과
지상파
진급한
진급하여
진급하였으며
치료제
카이스트
평균자책
해소하는
해소하기
활발하게
후손들
후손으로
##사건과
##사건으로
##own
##종합지원센터
아이유가
국회부의장은
혁신도시로
SM엔터테인먼트가
마케도니아로
삼국사기에
ISU
MLCC
격파하여
격파하며
구체적
극복해
극복하고
김명진
김유신
김유화
남원부
누나이다
동남권
멸망했지만
무령왕의
무령왕은
무소속의
뮤직비디오
베를루스코
보성읍
부시장은
사상적
사촌이자
수학에서는
연루된
연루되면서
영락제의
이화여
이창선
정확히
정현웅
제독과
조봉암은
조봉암과
종목에서
중도주의
채택된
토니상
표창원
하반기에는
할머니인
휘그당은
##아들인
##ult
부르봉파르
보여주었다
자원봉사센터
하느님을
가담하지
감안할
공감하는
국비가
기탁했다고
마쓰노
매체에
방법은
복무한
분열로
분열되었다
브라이언의
비틀즈의
사라졌다
사임했다
사단장
살인사건
성적에
신상품을
심사위원
십자군에
아인슈타
아리마
연습을
왕족으로
유대인
이광수
입사하여
자매결
정명환
정명훈
정명훈이
제이콥
제9차
제9대
젝스키스가
진나라가
##하나은행
##ization
경찰서장
전북도지사와
LG전자는
나타나지
선교사들에
NASA의
프란치스카
1군으로
475년
LCD
공정하고
공간이
공간에서
관료이다
김규식이
독자적인
독자적으로
마인드
무장이다
무장친위대
박찬주
박진영이
베스트일레븐
병사들이
복합화
실행에
여겨지는
여겨진다
움직이고
움직이는
익스프레
자랑했다
자랑하는
차르로
카르탕
투쟁을
폐지하고
##장학금
##동맹을
##세력은
##대장군
광주전남본부
1775년
1620년
순천만습
순천만국제
국립중앙박물관
돌아가게
일으키자
일으키기
일으키고
상임고문에
해양수산국장은
해양수산과학원
아키히토의
아우구스테
천정배의
2루수
2루타를
Arm
가동하고
고시엔
김형수
나카노
낙선하고
넘겨졌다
니시테쓰
대기실에서
대립이
대립하던
도전장을
되었으면
마틴의
매카시
명령에
문성왕이
발발하였다
빼앗은
빼앗아
빼앗겼다
소년의
수영구
순간을
스피드
스피어스
스탠리
신도들의
신용현
신용등급
아트센터
얼굴로
에이핑크
위키리크
유기동물
유관순
이고리
이슈로
이었다는
일시적인
임용시험
전파되어
전선이
정착을
주축이
지구당
체계적인
추대되었다
카고는
포스코휴먼
함락되고
함락되며
효율성을
##전국연합
##전국남녀
##나눔문화재단
##광산나눔문화재단
1829년
1427년
서울시장과
30분쯤
전남대학교병원
유니버시아드
명예회장의
최소화하고
브래그와
베를린의
민경욱이
3만3
519년
62개
EXO
GNU의
LINC
LIVE
SW융합교육
Sound
가량의
개봉하는
거절하였다
건물주
게오르게
고이케
고이즈미
고발했다
고발장을
구간에
구혜선은
군대에게
납부한다
노출된
도모하기
러브레이스
레코드가
막내딸로
무산되었고
무효화
미니애폴리스
발간된
브로셔스
사옥에서
삿포로가
상속권을
수용할
스톤스
스톤에이지
신사군
신사참
아테네의
안드로니
오프닝
우주안
유타카
이내에서
이순종
입장도
정례브리핑
조용식
조용래
종로구
주연의
직전인
진지하게
총독이
최용건
최연혜
추락한
카메라에
칼뱅은
콘서트를
쿠데타
클리퍼스
태극학
택시기사
퇴임하였다
퇴임하며
한미정상회담
한미FTA
할아버지이다
합격해
해임된
혜택이
희생자
희생타를
##동지회
##30분
##iew
##최고대표
1725년
중국인민정치협상회의
2022년까지
통합민주당의
##ineering
파이터로
김해시의회
ASME
프란치스코는
부동산PF
호날두가
1만여
1만톤
2번은
GMC
▲문재인대통령직속
견제하기
공통의
구리남양
농어업
다가올
동성왕은
루스벨
말씀을
메르쿠
메르세데스
미야모토
박마리아의
방향에
보살이
부군수는
부패방지
북쪽의
북쪽에
북쪽으로
북조선분
분노의
분노를
빠져나가
상업가
새벽부터
새마을지도자
새마을부녀
선사하는
선사하기
실험물리학
아미누
안드레
안드레이
이선재
임관제도를
자사주
자발적인
자손이었지만
재학생들은
전후로
접촉자
접촉을
정당이라고
제8차
제휴해
지목되는
진영에
진흥왕이
창의사
창의적인
친선경기
크라위
파나마
현황을
##인력개발
##인력공단
##ute
##ifa
한국남부발전
1577년
이사벨라
총선거에서
페르디카스가
금호산업은
국정감사
농림축산식품해양수산
박태준과
베텔게우스는
Asia
CPI
CPU
KOREA
UN군
강릉방송국
개로왕의
개로왕이
개국하였다
게시물
게시판
경호원을
경혜공주의
권영길
금액으로
기증한
김선민
김효중
다다아키
민원실
반공주의
발의한
사마사
사형에
상회했다
생모인
서머너즈워
세워졌다
소멸하였다
손해액
수소전기차
신학은
아파치
완벽히
유권자의
유권자들의
윤보선을
은메달을
인상적인
임영신
자본가
재능기부를
저희가
정복하여
정일권
정순왕후
조각부
지식과
진입한
진압하고
최진실
측정분석
탑승객
터뜨렸고
편의성을
프랭크
한마음
##방위군
##ched
##cheon
1744년
프랑코포
들어간다
즉위하였다고
LG유플러스는
타이완으로
돌아온다
간담회에는
가맹점망을
누리꾼들
누리꾼들은
파트너십을
Company
That
formu
가스프롬
가쓰야
거짓말
게르만
게르하르트
김무성은
김호규
김두관
나뉘게
나주시장은
당나라에
드럼세탁
들여다
레닌주의
만남이
무시한
문정왕후
반박했다
방지하기
생제르망
스터디
스베인
슬로건
승진했다
시립국제수영
시바타
알릴레오
앤드류
앤드루
오카다
외손자이다
육상교통사업조정
음식점
이춘석
이베스트투자증권
일상생활
자극하는
천문학자
칭기스
폐쇄한
혼란을
##자문회의
##40분
##박람회를
1700년
1703년
1431년
제18회
30여개
아이폰11
들어서게
베이직으로
진도개테마파크
농협중앙회장
정의개발당의
알아사드
알아사드와
신민주공화당을
아메리카노
BNK금융그룹
임진왜란이
검모잠이
서재필은
Good
Hearts
Korean
NBC유니버
Soft
개헌을
고연수와
공략에
남동구
내무대신
네이션스리그
대법원이
레나르트
로이터
로이히텐베르크
론칭한
마라톤
마우리키우스
매일유업
멀리하였다
모토로라
무기징
무관심
박지훈
박탈당했고
보육서비스
블레어는
서초구
선호했다
소용이
시가총액
신형원
신민주연합당으로
아바스
안동시
야드비가
양승숙
에픽하이
외조부
외조부인
원칙에
유성엽
유민수
유키오
윤상현
율리우스력
자아냈다
장병완
전동화
정문공
정광용
줄어들게
중간에
참고로
참고하거나
파워트레인
평등사회당
프린스
화합을
##axy
##axOS
국가원수가
1349년
아이즈원
아이템을
현대중공업지주는
##문화예술회관
스타디움에서
동아시아의
고용정보원
프레데리고
이자벨의
이기택은
물러나며
물러나게
고로쇠수액
송시열의
크리에이티브
3녀를
3루에서
500여명이
ADD
Airlin
GC녹
Peter
ZARD의
가공의
각별한
강태환의
격상됨에
결합해
과도한
구자철
기재해
김미연
남쪽으로
닌텐도의
다문화가
단식농성
당대당
도달하였다
되돌아
되돌려
라운드에서
리오그란
말고도
메디치
메디컬
메뉴를
발레단
백성들의
베드로가
비스마
비스콘티
서양화부
세자빈
실습실을
아쉬운
안창호가
연애의
예고편
예편한
오디션을
오열하였다
오열하였고
옹정제
의용병
의병장
인지도를
잔류파
재미있는
지리적
진해장군에
진평왕의
크누트
투신자살
파기환송
판결했다
포장마차를
포럼은
피겨스케이팅
합리적인
후지와라노
흥선대원군의
##공수특전
##비행단
100년을
1549년
1181년
부산경남방송
시민축구단
육군본부는
공동선대위원장
인사청문회
검찰개혁에
한전공대가
기상캐스터로
기상캐스터는
득표율로
골든이글스
아라곤의
서포터즈
서포터들은
ASML은
삼성SDS의
태종무열왕의
펄어비스가
광개토왕
사로잡혀
오하이오주
프로게이머이다
01시즌에
Ducat
Forb
Mok
THK
△김영
강영훈
강타한
공민왕
공무원이
공예부
교도소에
구출된
그때까지
그렇지
극장판
김아랑
김장김치
김택진
김택용
김봉호
김봉룡
꿈꾸고
남해화학
낭만주의
당헌과
드래곤즈
딕슨과
레우키포스
루시드
매진해
맥도널
모범이
미스매
박순화
백제신찬
법학에서는
병무청
보궐선거
불거지면서
붙여진
블로그
사르코
사르데냐
삼척시
서경배
성황리에
성추행
성추행한
쇠퇴를
수수료
스퍼스가
승객이
신자르
신입행원
아델리나
안상원
앞세운
야노시
어디서
연관된
오고타이
운용되고
유한양행
윤희순
인연으로
입헌민주당
전도연
조종사
주세페
줄어든
줄어드는
증조부인
청문회를
취항한다
카디널
카디프
클랜시
테무진
하드리아노
항소심
항쟁을
회고록
##sworth
##품질관리
##보증공사
1085년
한국이미지
한국중부발전
한국중고등학교탁구
미국프로골프
사회학에서는
민주국민당을
제1기병사단
정치인이자
사이클론
정보통신망
법무부장관으로서
자리잡았다
SMAP의
새누리당을
NASL
블루윙즈와
뮤지션들의
유벤투스는
국가보안법
알사이드가
조병옥의
과학기술정보통신부
중앙집권화를
방글라데시의
유러피언컵
Blue
Plus
갈릴레오
거기서
고마움을
광학솔루션
그램퍼스
그레이트
기사단의
김윤환
노원구
담아낸
대담에
독거노
떠오른
레이나의
레이나는
리키와
마찰을
만력제
모터사이클
모닝은
미스터트롯
바실리우스
바디프
박기출
박문원
발효된
보임되었으며
비고라이브
사반왕의
소경이라
손예진
수료생
숙련된
순치제
스포르팅
시현했다
신하에게
신무왕
신무왕이
아리스토텔레스
아리스토텔레스의
안보실
에티엔
에티오피아
여주인공
역학조사를
오이시
오시이
오마이뉴스
옮기면서
옹진군
요동지역의
원광대학교
유스팀에서
의열단
이치로의
장난감
재계에는
정주여
정형돈
주사파
준수하고
줄기세포
중대본
증언했다
진패선
차명진
최문순
친수공간
칼라스는
캐서린
캐서린이
캐롤라인
탈취한
태광그룹
태광산업
티맥스소프트
파생하였다
포트폴
프론탈레
한민구
훌륭한
##치매안심센터
##설명회
##그래프
##메니스탄
##유니버시아드
##효과가
대표발의한
1223년
지역특화
국제교류기금
대학일자리센터는
루이지애나
정권교체를
정권교체와
인정받던
메이크업
노동계급의
슈퍼맨이
발매된지
미용예술학과는
자한기르의
Engineering
삼양식품의
Social
Societ
지주회사이며
총동창회장
LIG넥스원
2NE1의
스밀레츠의
플뤼겔스
플뤼겔스가
메리츠종금증권
메리츠종금증권은
1박2일
BANG
CAF
Devot
ROE
Ultra
▲광주비정규직센터
강소농
견당매물사
경덕왕이
계명대학교
고쳤으나
관동군
광한루
교과서
권리당원
근친혼
금성대군
기생충
나날이
나왔다고
네버후드
뇌물공여
단연코
대마도
데어데블
돼지고기
드루수스
마녀가
면접을
명실공히
모교인
못하여서
무신론은
문주왕
문덕면
뭉크뭉
미루어
백기완
백일홍
법제처
베른하르트
병영면
부지런히
부녀회
브레즈네
비대공
사모펀
사쿠라이
상관이었던
석패율제에
쇼이구를
수강생
스폰서
아비스파
양산박
엇갈린
여우주연상을
연금술
연희전문학교
영위하고
와일드
와카야마
외사촌
요르요스
우범곤
워즈워스
유년기와
윤동식
윤석열
은거하였다
이철승
이아페
이희영
이쾌대
자영업자
적발된
정차역
정승환
정갑영
제압하고
조문객들은
조서연
조경태
직격탄을
채플린
치렀고
칼로얀
코레일유통
클루브
토후국
투르크메니스탄
파르티잔
페트로브나와
포스터를
푸른길
플라이급
피고인
학무국장
한센병
힘쓰겠다
##수행게임
##세무서
##공학부를
##채널인
##크라테스
##hood
##중소기업
##유가행
##독일방송
##침략대책특별위원회
지역현안
자유선진당
국민청원
국민건강보험
교육과학기술부
제2군단장에
경제부총리
야구해설위원
일부개정법률
바르톨로메오
베이스타스
##ology
확정지었으며
정신궁주
남북협상에
Child
블루팡스가
United
유사나헬스사
히데타다
도미니코
에르투룰의
뛰어넘는
##범죄수사처
119구급대
에버턴과의
주한미군
Frederic
IFEZ의
야드비가와
루프트한자
버팀목이었던
Pepper
어우러진
다쓰노코
이둘희를
해트트릭을
허니버터칩을
SPC행복한장학금
7차례의
Dave
ENM
ESS
Green
JB금융지주
KeSPA
Midd
PI필름
Prim
Richard
TAAG
Train
VfB
What
㈜광주글로벌모터스
가좌도서관
걷게된
걸맞은
고도화
고드망
금아버스그룹
기든스
김시습
김익렬
낭암학원
녹동고등학교
눈높이에
대영제국
델루나
독단적으로
동두천
되새기고
럭키금성
마다가스카르
막바지
말미암아
매거진
맹활약을
멜로망스
무승부를
박물학
박범계
백령도
베조스
베아트릭스
보천보
복지사각지
부황인
불구속
불합리한
뷰티아티스트
브뤼셀
블레이드앤소울
비류왕은
사명감을
산하기관으로
상반기에
성격이
성윤모
소르본
소가노
솔라나
수로왕
수탈을
스베르케
신군부
신계륜
심은주
심해졌지만
싱어송라이
안치되어
안병용
알프레트
압록강
액티비티
업데이트를
여영국
연제구
예금보험공사
예브게니
왕궁에서
위드이노베이션
유물론철학
유가상장시장
은언군
의전과장
이륙한
인목왕후
재규어
재활용
저널리스트
저출산
저질렀다고
적법한
전재수
전보되었다
전계대원군
종근당
진원면
진선미
진솔한
차석용
창건한
천일염의
쳐들어가
친군영
카우산틴
카이사르
칼럼니스트
캠퍼스를
케플러
코칭스
키몬다
타결에
투게더광산나눔문화재단
판재류
페라라
폰티액
플리트비체
한돈협회
행주대첩
허블의
현덕왕후
획기적으로
휘신공주
힌두교
##교향악단
##68HC000
##세라믹콘덴
##역도선수권대회
##오염물질
##권한대행
##발레단
##총동원조선연맹
##갑산상사화
한국표준협회
광주학생독립운동
지역산업맞춤형
일본국유
조선공산당의
서울행정법
1389년
사업추진에
세계야구소프트볼연맹
전남문화관광재단
전라남도순천의료원
태어났으나
보수정당으로는
아르카디우스
##ission
예산결산특별위원회
청년농업인이
기타시히메의
##프로젝트
##lavia
스트라스부르
카를로마누스
엑스엘게임즈
마쓰다이라
무엇이든
의사결정을
고위공직자범죄수사처
러브콜을
미야자키
사법연수원
##사회복지공동모금회
DGB대구은행
미네소타
베이비복스
대권후보를
새만금개발청
베아트리체
동학농민혁명
러닝메이트로
로코모티프
거버넌스
디즈레일리
메커니즘을
우여곡절
팔레스타인
국립해양문화재연구소
EXILE의
82년생
Bentley
Buda
Dream
FT아일랜드
Full
Fairies
GKL
Galaxy
Human
HOUSE
Lonely
MMORPG
Polit
Queen
Rouge
TmaxOS
Taylor
Uzi
Vasco
WHO
YMCA
▲광주시가정의학과
㈜티맥스소프트
가이드라인
강강술
강순팔
고단샤
고야산
고우다
고농도
고르바초프
고바야시
관청문서
구이도
구보타
국번없이
국간사
김혜윤
꽃양배추
나하스
나그흐
나르베코바
날치기에
날씨로
남십자자리
내우외
네피도
넷스케이프
노하우를
농식품부
눈앞에
눌바누
니이타니
다국적
다이스케
다자이후
대방이라
대내외
대회사는
덕인당
도라에몽
두드러
드웨인
디카프리오
라본티
럭셔리
레베데프
렛츠런파크
로큰롤
룬트슈테
르앙벌레
리리외
리데르크
리베르타
리메이크
리유저블
마자랭
마틸다
만지케르트
맞바꾸
매니지먼트
맥아더
멋쟁이사자처럼
메클렌부르크
명숙공주
모가디슈
몬테네그
못말려
무지개
무실점으로
무르탈라
문익환
미켈란젤
바덴뷔르템베르크
발맞춰
방방곡
백악관
버네사
벌교읍
벤투호
보바리
보람을
부에노스아이
부일장학
부울경
불출마를
블리자드
비영리
삼다스톤의
삼각무역을
샌디에이고
서라벌
서서히
성희롱
세한대학교
세레소
세네갈
셀주크
소시에다
소르타니
소트니코바
손소독
수평적
숭산기념관에서
슈미트
슈바벤
슈뢰딩거
스폴레
스맥다운
시진핑
신표틀
신탁통
실리콘
심대평
싱클레어
쌍곡기하학
아타우알
안서현
안규백
애질런트
양전닝
어시스턴트
에치젠
에인절스
에투알
염상섭
오우에쓰
옥진궁주의
온두라스
왕징웨이
외환위
우용득
울란바토르
위스콘신
유식유가행
유두석
윤웅렬
이남재
이합집
이매뉴얼
이더리움
이말년
이응준
이스파한
이소로쿠
이브라히
인판티노
일데브란
일렉트로닉
임윤택
임병택
자와할랄
자코바이트는
잘생긴
잘츠부르크
재보궐
적층세라믹콘덴
전승에서는
전어진의
절친한
정봉주
제노바
조배숙
조머펠트
준이치로
지장보살
차재헌
차범근
천리마
초등학생
최수종
최루탄이
추밀원
취체역
침례교
카브리니
카렐리야
캐딜락
커다란
커미셔너
코소보
콘코바르
키치너
태상황제로
터르노보를
테일즈런너
튜구스케그
트레일블레이
트리니티
티무르
티머시
티몬과
팝업스토어
평범한
포울센
포항공과대학교
포기의사를
풍월주
플레스너
피스마이너스
하즈피
한네만
한홍택이다
항전하고
해럴드
향락에
헤즈볼라
헨리에타의
홈플러스
효고현
흐로닝언
히코네
히스파니아
##영암군연합회
##비즈니스센터
##ㆍJTBC
##흥갈문왕
##좌복야를
##뇌혈관
대한노인회
한국서부발전
한국사회적기업
광주서구갑
일본경제침략대책특별위원회
일본풋볼리그에
국민체육진흥
조선언론보국회
전남스포츠과학
부산과학기술대학교
제2훈련소장
공동설립자
사람사는세상
전국언론노조
항공우주국
참가예정팀
인천영종소방서
독립행정법인
안전건설소방위원회
특별교부세
정권재창출을
건강기능식품
베이카우스리가
학교밖청소년지원센터
에어포스원
한전원자력연료
민족자본은행
다이토큐의
채널CGV
경희사이버대학교
수사지휘권을
수석보좌관
Charles
경성광산전문학교
워싱턴침례신학대학교
인권변호사의
상무집행위원을
친일인명사전
민주평화통일자문회의
원자론주의자인
익산지방국토관리
미술평론부
부르봉파르마의
베스트일레븐에
구리남양주교육청
농림축산식품해양수산위원회
formula
육상교통사업조정법에
Software
Airlines
리오그란데
Ducati
미국프로골프협회
유사나헬스사이언스
싱어송라이터
예브게니예비치
유물론철학은
적층세라믹콘덴서
0의
06년
1주
1리
1상
1가
1순
1절
1심
1톤
1당을
1사단
1명의
1기로
1시간
1패를
1만원
1주택
1주년을
1대대
1등을
1경기에
1계좌
1분기에
1패로
1루에
1순위로
1학기
1패의
2주
2강
2면
2분
2호
2달
2패
2모
2팀
2척
2심
2곳
2볼
2장을
2명이
2시에
2개월
2시간
2명과
2명으로
2km
2개소
2곳을
2주간
2이상
2패로
2호기
2척의
2실점
2청으로
3군
3기
3전
3파
3국
3승
3할
3E
3법
3처
3집
3위를
3국의
3명의
3대의
3인이
3인의
3회에
3시즌
3년간
3위는
3명은
3곳에
3명에게
3호선
3분의
3번의
3패의
3곡이
3청으로
4주
4로
4인
4를
4m
4배
4조
4발
4종
4천
4살
48년
43년
4대를
4000
4경기에서
4인조
4패로
400여명이
5부
5차
5건
5배
5석
5위를
5사단
5위로
5라운드
5곳에
5차례
5등급
6차
6강
6인
6남
6분
6곳
6골
65년
6위를
6명이
6명의
6000
60여
6명과
6과정
6차례
6대대
60여명이
7인
7만
73년
7억원
7세기
7분에
7가지
7km
7인조
710
8기
8차
8선
8곳
8번째
8개월
800만
8석을
8주년을
8뉴스
9건
9인
9만
9척
9천
90년
900
9명의
9000
9개월
9개소
A에
A를
A와
A조
AL
Ac
A급
Af
AM
AQ
A라는
A사가
Ari
Ara
ASA
A씨의
Ast
Aff
App
A90
Award
B에
B2
B를
BG
B와
Be
Bu
BK
BO
By
Ber
Ben
Bal
Bic
Bat
Bil
Bus
Bed
Bri
Bra
Bea
Big
B씨가
Best
Bern
Bank
BEV
BLO
Bill
Body
C로
CI
Cr
Can
Cas
Cle
Cra
Cre
Cli
Cum
Call
CAP
CLP
Clavia
DR
Do
DK
Dw
Der
Dou
Dig
Div
DPS
Dub
DNC
DNA
Die
DHC
DPM
DUH
ER
Ev
Ec
EA
EV
Ele
E23
EEC
Ess
Ever
Fe
Ft
FL
FD
FW
FX
Fin
Fri
FNN
Fine
FDA
Feder
Fek
Foss
Frid
GG
GE
G1
G가
GT
GD
GA
Ger
G스타
Gos
Gir
G20
GNK
Gud
Gov
Glo
GFP
Ha
H조
HU
HT
Hy
H본부
Hol
Het
Hot
Hist
Hell
Hann
Hung
Harm
I의
Id
IZ
IBC
ICA
Iris
Ibar
JI
Jr
JO
JFL
JUM
Jose
K5
K팝
KEP
Kon
Kel
KOC
Kim
Karl
KMF
La
Lu
Li
Les
Lom
Lev
LEA
LPG
Lib
Lik
Lower
Liew
M2
ME
MJ
Mer
MBA
MOC
Mov
Mann
MAN
MIT
MTF
Mission
N9
No
NS
Ny
NW
NX
Nan
Nou
Net
NDC
NER
Nich
Nav
NPA
Night
Nabil
Need
OC
Ol
On
Ok
OT
OEC
OTC
OCI
OIE
OVID
Pan
Pil
Pent
PFL
Pick
Penn
Poo
POWER
Pier
RE
Ré
RM
Res
Rol
Rus
Rad
Rick
Rank
Rose
Rizz
S4
Se
Sh
SB
Sen
Sem
Sun
S스파
Sev
SEA
Sant
Sav
Sec
Sho
Sinc
Sali
Slay
TC
TR
T1
To
Ts
T모
TW
Tre
TAM
TBN
Tower
Torn
UK
UT
UA
UM
UFA
Uter
UHF
Ve
VV
Vis
Vent
Vir
Vay
V10
Vert
WA
WBS
Wom
Way
Well
WCW
XP
X선으로
XTC
YS
YB
Yes
You
YTV
Z홀딩스
al
con
cib
da
des
es
en
est
fi
flo
gr
kt
mm
mar
on
pro
part
pect
red
rot
rhy
tim
tell
up
von
wom
zone
▲정
▲4
▲신
▲1
▲노
▲동
▲한
▲익
▲포
▲지역
▲시민
▲의료
▲전남
▲청년
▲20
△노
△S
㈜는
㈜파
㈜거
㈜호
㈜뜨
㈜두
㈜와이
㈜로우
㈜드림
㈜진성
㈜이마트
가미
가라
가사
가방
가차
가도
가섭
가나
가경
가가
가바
가림
가속
가객
가루
가두
가액
가꾸
가했다
가하여
가하게
가라는
가겠다
가이나
가기가
가치는
가이던
가치와
가브리
가정의학과
가보로
가모프
각국
각서
각의를
각지에
각오로
간을
간무
간토
간달
간절
간사인
간언을
간절한
갈고
갈지
갈리
갈린
갈래
갈매
갈리스토
갈문왕
감기
감성
감지
감출
감히
감추
감초
감스트
감명을
감정이
감행한
감성으로
갑을
갑천
갑선거
갓난
갓갓
갔다고
갔다가
강문
강임
강마
강을
강신
강서
강준
강일
강권
강만
강명
강반
강판
강렬
강민주
강사는
강세를
강타와
강다니
강대국
강채영
갖다
갖던
갖기
갖혔다
갖도록
같고
같다고
개학
개를
개나
개분
개조
개창
개풍
개까지
개성을
개인의
개명한
개인공
개성왕
개성과
개소에
개조를
거다
거사
거인
거물
거장
거칠
거쳤
거인의
거으로써
거점을
거울의
거성인
건운
건조를
건전성
걸려
걸렸다
걸출한
검을
검거
검색
검사는
검체를
검술에
것보다
게일
게베
게릴
게임을
게스트로
겐로
겨해
겨누
겨루는
격에
격정
격을
격으로
겪었던
견해
견조
견제를
견해가
결속
결집을
겸허
겸하고
경이
경은
경과
경부
경마
경어
경안
경리
경산
경대
경품
경보
경화
경포
경초
경리가
경의를
경향을
경관에
경비정
경문왕
경미한
계원
계양
계훈
계유
계엄
계셨
계성군
계시는
계은숙
고의
고미
고생
고제
고부
고건
고인
고남
고경
고레
고분
고찰
고디
고씨
고운
고귀
고석
고척
고급
고열
고루
고혜
고손
고추
고칠
고촉
고착
고뇌
고젠
고켄
고지를
고제가
고사가
고쳤다
고문을
고정의
고야마
고향을
고타마
고쿠라
고연수
고의로
고재성
고배를
고강도
고품격
곡사
곡이다
곤지
곤두
곤지의
곤스케
골인
골뱅
골드
골디
곳이며
곳곳에서
곳곳을
공은
공제
공안
공리
공습
공진
공양
공후
공세
공소
공론
공업
공조
공청
공병
공룡
공판
공장은
공군은
공부의
공군이
공부를
공장의
공세에
공조가
공로가
공영주
공시했다
공성왕후
공습을
공학과에
과는
과민
과분
과잉
과제를
과장과
과제는
과반을
과목을
과산화
곽재
곽개
곽상훈
곽영주
관문
관점
관산
관백
관음
관훈
관례
관하여
관장이
관직을
관세법
괄목
광자
광물
광해
광서
광진
광우
광릉
광덕
광장과
광대한
광물을
광경을
광지회
괴소
괴테
괴뢰
괴문서를
교의
교제
교부
교전
교민
교리
교신
교각
교란
교장을
교대로
교사가
교사로
교원의
교회에
교회는
구시
구월
구강
구도
구금
구장
구세
구준
구청
구걸
구슬
구에서
구했다
구제를
구장과
구제의
구호를
구역을
구데르
구애를
구하려는
구가게
구태림
구동하는
국수
국어
국사
국적
국물
국산
국포
국반
국유
국향
국장은
국적이고
국경에
국적의
국면에
국호인
국력의
군에
군제
군과
군벌
군국
군함
군현
군청
군림
군총
군에서는
군대로
군공항
군인을
군비를
군정의
군단은
군주를
군정에
군립중앙
군부대신
굴절
굴지의
굴리엘
궁합
궁내
궁극
궁으로
권리
권장
권산
권면
권현
권광
권역
권순
권창
권율
권칠
권리에
권지용
권위의
귀라
귀도
귀향
귀빈
귀스타
규범
규합
규현
규정을
규제가
그대
그저
그람
그쳤
그늘
그었다
그렸다
그보다
그나이
그라운드
그라스
그곳에
그밖에
그들이다
그영향
그다지
그야말로
극에
극진
극한
극히
극적으로
극찬을
근육
근절
근녕
근거리
근절을
근간을
글이
글에
글러
글에서
글자를
글러스터
금자
금치
금방
금파
금관
금상
금와
금태
금감
금난
금맥
금상을
금품을
급여
급사
급강
급식
급감
급히
급으로
급등한
기이
기기
기정
기마
기즈
기민
기차
기적
기금
기한
기분
기가
기득
기우
기조
기표
기법
기림
기숙
기슈
기압
기옌
기사를
기사는
기원이
기금을
기자는
기적을
기법을
기사화
기종을
기리시
기렸고
기무라
기운을
기발한
긴고
긴장의
긴밀히
긴즈버그
길로
길에
길티
길렀
김하
김교
김여
김국
김신
김점
김립
김면
김길
김애
김운
김법
김황
김화
김책
김웅
김극
김숭
김병원
김씨가
김주택
김조한
김인식
김함의
김계현
김요한
깊다
깊고
깊어
깨기
꺾은
꽃보다
꽃길을
꾸려
끈다
끝맺
끝났다
끝나기
끝났고
끼는
끼친
끼쳤다
나구
나해
나범
나상
나얼
나탈
나코
나얀
나쁘
나혜
나집
나팔
나빌
나라는
나가는
나르는
나시오
나디아
나줬다
나루에
나리타
낙하
낙점
낙동
낙향
난다
난드
난투
난중
난카이
난이라고
난항을
날짜
날리고
날개를
남의
남이
남정
남과
남인
남을
남서
남송
남택
남포
남악
남측
남짓
남았다
남자의
남았고
남기는
남부에
남경환
남기지
남봉길
남우주연
남제주
남무가
남호정
납득
났는데
낭시
낭트
낭독
낮추고
내재
내는
내라
내수
내구
내항
내게
내야
내역
내연
내몽
내릴
내었다
내면서
내는데
내정을
내부의
내린다
내실을
내레이션
내전으로
내일은
내리기
