[PAD]
[UNK]
[CLS]
[SEP]
[MASK]
!
"
%
&
'
(
)
*
,
-
.
/
0
1
2
3
4
5
6
7
8
9
:
A
B
C
D
E
F
G
H
I
J
K
L
M
N
O
P
Q
R
S
T
U
V
W
X
Y
Z
[
]
`
a
b
c
d
e
f
g
h
i
j
k
l
m
n
o
p
q
r
s
t
u
v
w
x
y
z
~
·
é
–
‘
’
“
”
․
‧
▲
△
〈
〉
《
》
「
」
・
ㆍ
㈜
前
南
君
國
大
宗
山
文
明
本
李
氏
王
現
皇
軍
金
가
각
간
갈
감
갑
갓
갔
강
갖
같
개
객
갤
거
건
걷
걸
검
것
게
겐
겔
겠
겨
격
겪
견
결
겸
겼
경
계
고
곡
곤
곧
골
곳
공
과
곽
관
괄
광
괴
교
구
국
군
굳
굴
궁
궈
권
궐
귀
규
균
그
극
근
글
금
급
긍
기
긴
길
김
깊
까
깨
꺾
께
꽃
꾸
꾼
꿈
뀌
끄
끈
끌
끝
끼
나
낙
난
날
남
납
났
낭
낮
낳
내
낸
낼
냈
냐
너
넌
널
넓
넘
넣
네
넥
넨
넬
넷
녀
년
념
녕
노
녹
논
놀
농
높
놓
뇌
누
눅
눈
눌
눔
뉘
뉴
느
는
늘
능
늦
니
닉
닌
닐
님
닛
닝
다
닥
단
달
담
답
닷
당
대
댓
더
덕
던
덜
덤
덧
데
덴
델
도
독
돈
돌
돔
돕
동
돼
됐
되
된
될
됨
두
둔
둘
둥
뒤
뒷
듀
드
득
든
듣
들
듬
듭
듯
등
디
딕
딘
딜
딩
따
딸
땅
때
떠
떤
떨
떻
또
뚜
뛰
뜨
뜻
라
락
란
랄
람
랍
랐
랑
래
랙
랜
램
랩
랫
랭
략
량
러
럭
런
럴
럼
럽
렀
렇
레
렉
렌
렐
렘
렛
려
력
련
렬
렴
렵
렸
령
례
로
록
론
롤
롬
롭
롯
롱
뢰
료
룡
루
룩
룬
룰
룸
룹
뤄
뤘
뤼
류
륙
륜
률
륭
르
른
를
름
릉
리
릭
린
릴
림
립
릿
링
마
막
만
많
말
맛
망
맞
맡
매
맥
맨
맹
맺
머
먹
먼
멀
멋
메
멕
멘
멜
멤
며
면
멸
명
몇
모
목
몬
몰
몸
못
몽
묘
무
묵
문
묻
물
뭉
뮤
므
미
믹
민
믿
밀
밍
및
밑
바
박
밖
반
받
발
밝
밤
밥
방
배
백
밴
밸
뱅
버
벅
번
벌
범
법
베
벤
벨
벼
벽
변
별
병
보
복
본
볼
봄
봉
봐
봤
부
북
분
불
붉
붕
붙
뷔
뷰
브
븐
블
비
빅
빈
빌
빙
빚
빛
빠
빼
뽀
뽑
뿌
뿐
쁘
사
삭
산
살
삶
삼
삿
상
새
색
샌
샘
생
샤
서
석
선
설
섬
섭
섯
섰
성
세
센
셀
셉
셋
셔
션
셜
셨
셰
소
속
손
솔
송
쇄
쇠
쇼
수
숙
순
술
숨
숭
숲
쉐
쉬
쉽
슈
스
슨
슬
슴
습
승
시
식
신
실
심
십
싱
싶
싸
쌀
쌍
쌓
써
썬
썼
쏘
쓰
쓴
씀
씨
씩
아
악
안
않
알
암
압
앗
았
앙
앞
애
액
앤
앨
앱
앵
야
약
얀
양
얘
어
억
언
얻
얼
엄
업
없
엇
었
에
엑
엔
엘
엠
여
역
연
열
염
엽
였
영
예
옌
옛
오
옥
온
올
옮
옹
와
완
왈
왓
왔
왕
왜
외
요
욕
용
우
욱
운
울
움
웃
웅
워
원
월
웠
웨
웰
웹
위
윈
윌
윗
윙
유
육
윤
율
융
으
은
을
음
읍
응
의
이
익
인
일
잃
임
입
잇
있
잉
자
작
잔
잘
잠
잡
장
재
잭
쟁
저
적
전
절
젊
점
접
정
제
젝
젠
젤
져
졌
조
족
존
졸
좀
종
좋
좌
죄
죠
주
죽
준
줄
중
줬
쥐
즈
즉
즌
즐
즘
증
지
직
진
질
짐
집
짓
징
짜
짝
째
쩌
쪽
쯤
찌
찍
차
착
찬
찰
참
창
찾
채
책
챌
챔
처
척
천
철
첨
첩
첫
청
체
첸
첼
쳐
쳤
초
촉
촌
총
촬
최
추
축
춘
출
춤
충
춰
취
츠
측
층
치
칙
친
칠
침
칩
칭
카
칸
칼
캄
캐
캔
캘
캠
캡
커
컨
컬
컴
컵
케
켄
켈
켓
켜
켰
코
콘
콜
콤
콥
콩
쾌
쿄
쿠
쿤
쿨
퀴
큐
크
큰
클
큼
키
킨
킬
킴
킹
타
탁
탄
탈
탐
탑
탕
태
택
탠
터
턴
털
텀
테
텍
텐
텔
템
토
톡
톤
톨
톰
통
퇴
투
툰
툴
튀
튜
트
특
튼
틀
티
틱
틴
틸
팀
팅
파
판
팔
팝
팡
패
팩
팬
퍼
펀
펄
페
펙
펜
펠
편
펼
평
폐
포
폭
폰
폴
폼
표
푸
풀
품
풋
풍
퓨
프
픈
플
피
픽
핀
필
핑
하
학
한
할
함
합
핫
항
해
핵
햄
했
행
향
허
헌
험
헝
헤
헨
헬
혀
혁
현
혈
혐
협
혔
형
혜
호
혹
혼
홀
홈
홋
홍
화
확
환
활
황
회
획
횡
효
후
훈
훌
훗
훼
휘
휴
흐
흑
흔
흘
흡
흥
희
히
힌
힐
힘
##악
##하
##였
##다
##i
##e
##g
##o
##을
##키
##는
##립
##거
##장
##막
##성
##전
##의
##사
##이
##자
##니
##천
##시
##당
##위
##원
##호
##마
##허
##ㆍ
##외
##빈
##치
##에
##서
##씨
##웨
##스
##트
##가
##효
##세
##짐
##민
##안
##실
##은
##뿐
##임
##모
##공
##간
##파
##아
##로
##주
##엽
##루
##션
##도
##해
##건
##맹
##언
##고
##프
##들
##화
##토
##정
##부
##읍
##E
##P
##문
##학
##명
##했
##필
##드
##뷔
##골
##박
##타
##너
##먼
##동
##유
##과
##현
##준
##크
##듀
##1
##0
##일
##업
##연
##애
##지
##기
##독
##병
##네
##소
##년
##그
##룹
##농
##홍
##보
##회
##를
##히
##6
##5
##대
##미
##포
##조
##선
##상
##말
##흥
##군
##한
##국
##짓
##재
##던
##수
##티
##방
##곡
##려
##산
##살
##되
##용
##령
##요
##단
##체
##축
##람
##까
##으
##며
##물
##노
##팀
##d
##c
##a
##r
##록
##어
##합
##비
##야
##와
##르
##코
##인
##교
##육
##맨
##멜
##게
##측
##터
##테
##평
##양
##깊
##t
##b
##l
##2
##윙
##즈
##투
##감
##n
##k
##틀
##작
##근
##우
##역
##표
##행
##류
##나
##제
##무
##진
##만
##랑
##태
##날
##두
##결
##권
##창
##영
##앤
##젤
##레
##황
##탑
##린
##완
##할
##받
##렸
##리
##등
##었
##옥
##바
##오
##헬
##징
##면
##각
##냐
##카
##베
##4
##분
##남
##발
##릉
##번
##내
##희
##본
##겠
##절
##왕
##형
##돈
##력
##길
##있
##락
##틱
##경
##란
##톤
##S
##식
##렉
##닉
##톡
##홀
##름
##여
##갑
##충
##강
##불
##적
##쳐
##블
##심
##데
##광
##싱
##종
##률
##차
##버
##관
##직
##접
##석
##취
##탁
##턴
##생
##법
##범
##I
##A
##칼
##텔
##침
##저
##널
##통
##신
##찰
##청
##순
##켈
##디
##럼
##증
##설
##콜
##갈
##승
##캠
##헌
##퇴
##망
##펠
##낸
##구
##매
##없
##라
##몇
##백
##입
##케
##철
##숙
##왔
##온
##7
##8
##든
##m
##h
##y
##w
##s
##워
##킹
##급
##돼
##젠
##틸
##㈜
##3
##9
##변
##담
##출
##십
##된
##빠
##C
##속
##른
##럽
##송
##찬
##계
##항
##탈
##윤
##뉴
##슬
##엔
##M
##램
##u
##엠
##협
##론
##덕
##v
##p
##래
##킨
##누
##머
##훈
##혼
##질
##B
##손
##험
##극
##격
##척
##될
##솔
##족
##죄
##곳
##슨
##됐
##펜
##겐
##점
##량
##브
##중
##앙
##잠
##겸
##운
##녹
##픽
##처
##엘
##규
##밖
##균
##후
##월
##복
##목
##휘
##둔
##술
##흐
##죽
##퓨
##츠
##슈
##억
##메
##L
##품
##센
##따
##러
##집
##힌
##렀
##컬
##푸
##난
##N
##환
##D
##림
##때
##익
##춰
##북
##색
##놀
##득
##섭
##반
##봐
##련
##R
##음
##율
##훼
##쓰
##논
##페
##못
##열
##료
##즐
##뷰
##달
##났
##킬
##념
##벼
##개
##G
##칭
##큐
##존
##울
##착
##금
##배
##퍼
##랍
##더
##풍
##채
##뀌
##V
##H
##롤
##튼
##쿠
##빌
##셀
##움
##편
##왜
##총
##았
##겨
##습
##녀
##융
##클
##덴
##즌
##패
##플
##잔
##귀
##괄
##K
##탄
##함
##책
##빙
##F
##컨
##밀
##T
##욱
##혜
##찌
##켰
##별
##엇
##검
##텍
##졌
##J
##판
##참
##슴
##혁
##확
##액
##향
##택
##랐
##째
##컴
##봉
##풀
##층
##é
##Y
##듭
##닝
##폐
##객
##쪽
##돌
##추
##랜
##능
##텐
##글
##획
##긴
##삼
##촌
##딩
##쾌
##끼
##섬
##멘
##텀
##렘
##콩
##답
##렇
##뇌
##눔
##궁
##피
##캔
##새
##춘
##캐
##딸
##써
##예
##혀
##릭
##커
##초
##룡
##짜
##올
##약
##꾼
##몬
##뤼
##봤
##압
##룩
##팅
##웅
##몽
##런
##례
##컵
##친
##쉐
##져
##엄
##칙
##럴
##됨
##냈
##샤
##활
##얀
##덤
##O
##멸
##씩
##딜
##볼
##링
##겼
##템
##닐
##랭
##괴
##W
##멤
##걸
##U
##님
##께
##략
##켜
##뤄
##쩌
##둥
##렛
##잡
##느
##칠
##암
##갔
##톨
##굴
##즘
##김
##f
##섰
##흡
##맥
##셔
##륭
##뮤
##견
##걷
##렌
##켓
##킴
##염
##벨
##눈
##델
##첼
##응
##폴
##좌
##벤
##쟁
##햄
##혔
##헤
##젝
##폰
##z
##욕
##뜨
##쥐
##밍
##랙
##롯
##쌍
##몰
##또
##핑
##흔
##홈
##촉
##퀴
##빛
##틴
##것
##혹
##렬
##뚜
##렵
##낙
##벅
##특
##쉬
##웠
##튜
##밴
##렐
##X
##뱅
##롭
##몸
##롬
##옹
##쉽
##곤
##넬
##캄
##넨
##최
##팔
##벌
##많
##닥
##펀
##곽
##븐
##탠
##삭
##먹
##쓴
##늘
##놓
##뢰
##닌
##닷
##줄
##않
##탕
##죠
##셜
##콘
##겔
##릴
##쯤
##륙
##핵
##싸
##털
##칸
##붙
##넷
##x
##갓
##셨
##떠
##넌
##쳤
##찾
##펙
##럭
##옌
##핀
##닛
##덜
##j
##돔
##줬
##납
##알
##쇄
##빅
##끌
##묘
##맺
##랫
##묵
##므
##꾸
##얼
##듯
##팡
##툴
##꽃
##쿨
##숭
##뭉
##짝
##즉
##웃
##눌
##녕
##혈
##듬
##픈
##휴
##졸
##렴
##잉
##뜻
##륜
##딘
##켄
##풋
##씀
##콤
##랄
##셋
##벽
##콥
##같
##멀
##섯
##늦
##궈
##눅
##릿
##묻
##둘
##낼
##붕
##폼
##Z
##롱
##앗
##폭
##깨
##긍
##낮
##끝
##q
##뤘
##앨
##맛
##춤
##룬
##탐
##큼
##헨
##쁘
##쿄
##땅
##맞
##궐
##룸
##웰
##쏘
##핫
##챌
##힘
##튀
##떨
##첸
##혐
##힐
##앵
##밤
##셉
##윗
##칩
##랩
##윌
##윈
##넣
##찍
##갖
##갤
##꿈
##캡
##쇼
##뉘
##숲
##밥
##봄
##첨
##왈
##돕
##끄
##룰
##넘
##뿌
##셰
##샘
##팩
##떤
##챔
##Q
##첩
##밑
##뽀
##숨
##쇠
##뛰
##펄
##멕
##툰
##잘
##삿
##믹
##딕
##넥
##잇
##빚
##높
##큰
##밸
##썼
##쿤
##앞
##왓
##흑
##쌀
##뒤
##좋
##팬
##톰
##흘
##좀
##엑
##떻
##싶
##샌
##끈
##댓
##낭
##넓
##캘
##곧
##촬
##△
##팝
##맡
##EP
SEP
##으로
##에서
20
##했다
19
10
##하였
##하고
##었다
201
대한
##하는
##이다
##주당
있다
##하였다
##하여
##으며
##학교
200
##에게
##부터
한국
##에는
15
##0년
##민주당
지난
##민국
대한민국
##위원
대표
##까지
광주
##통령
##회의
##한다
##면서
11
##9년
대통령
199
있는
12
##7년
이후
지역
위해
자유
##들이
##6년
일본
##8년
##5년
함께
##혔다
##불어
미국
밝혔다
17
18
##지만
의원
후보
##되었다
##불어민주당
##리아
##2년
##리그
정부
##4년
국민
더불어민주당
##적인
##하기
##시아
##대학교
조선
##1년
##라고
##00
##하게
프로
경기
##장은
리그
통해
##았다
##하며
##으나
14
사회
##국당
2세
서울
##3년
##재인
##적으로
당시
##스트
##주의
선수
##한국당
##그룹
##의당
##에서는
##들의
##장을
문재인
##랜드
민주
##대표
말했다
프랑
1세
##였다
##는데
##위원회
198
것으로
관계
되었다
##되어
제1
##라는
자유한국당
##교육
했다
민주당
13
##방송
##남도
##사를
##겠다
16
이어
##FA
24
##들은
FC
자신
지원
국가
대해
연구
축구
활동
##하면서
##했고
프랑스
중국
##되었
사업
국회의
10월
##리스
회장
##들을
기록
이날
##er
##센터
##BC
시작
그는
위원
##도록
21
중앙
감독
참여
25
시즌
현재
3월
교육
1월
7월
세계
독일
##라이
9월
선거
이번
##하였고
우승
5월
##사업
아이
에서
운영
##로나
##BS
##민주
관계자
그의
##장이
196
195
따라
##on
##동당
30
12월
아들
##에도
진행
영국
정치
##이자
국회의원
197
8월
천황
##일에
##항공
같은
UE
국제
##리고
UEFA
23
전남
##이며
##됐다
방송
##억원
3세
위한
참석
11월
부산
##었던
등을
삼성
##리에
사이
현대
##리를
한편
##레이
문화
##기를
2월
라고
##들에게
러시아
이라고
제2
194
4월
것을
22
그러
김대
##의회
##력을
6월
육군
##하지
##상을
소속
전쟁
##졌다
##위를
##화당
##공사
##기에
##an
코로나
##본부
전라
공동
관련
##그램
정의당
##했으며
한다
##원은
##은행
##리가
##스타
##나라
사람
##스의
##국민
시민
##화국
##된다
202
이용
##동차
김대중
##en
##지원
##인민
27
열린
제국
추진
##와의
SK
김영
통합
개최
##들과
비롯
##등학교
등이
때문
유럽
##in
##버지
따르
것이
교수
대학
또한
전국
프리
하나
##우스
전라남도
교황
##자가
##회를
##리학
김정
된다
의해
##하다
##ar
모두
##연합
##명이
그러나
기업
##19
따르면
올해
이에
계획
사용
우리
장관
##대로
##했다고
국회
##회사
26
경찰
많은
선정
순천
##였던
##자로
##르크
학생
##or
##이트
##산업
자신의
다시
발표
이사
출신
##연구
##란드
주장
##기도
대한민국의
방문
##이스
##로스
##정을
##기업
##비스
대상
##로운
##피언
코로나19
가장
있었다
##장으로
##니아
MBC
설립
시장
아버지
주민
하는
##군은
##되는
만들
이름
##운데
이상
특히
##하자
##하겠다
##문화
##지를
대회
##과의
##었고
1일
배우
28
들어
2016년
다른
##되고
가운데
그리고
노무
등의
챔피언
최고
##사가
##프트
##하였으며
문제
상황
여성
이라
임명
##이고
##먼트
##대를
##리는
루이
씨는
에드
조지
##워드
##운동
라며
물리학
수상
총선
행정
##당을
##렸다
##사회
##스크
노무현
다양
실시
중심
##서관
##스는
##al
##식을
2017년
있도록
정책
원내
이탈
##발전
192
지난해
광주시
경제
알렉
자동차
##성을
##군의
##광역
아니
##명을
##경제
다양한
인천
##당의
##르트
국민의당
사실
사건
최초
통일
##에서도
2014년
##광역시
독립
예비
하였다
##로서
##났다
4세
알려
##사단
##스터
##기관
##관리
##머니
##후보
받아
전문
창당
항공
##es
##주시
##권을
2012년
그룹
성공
참가
##스가
##명의
##터테
연구원은
관계자는
때문에
이탈리아
멤버
적극
출연
##일까지
##기술
결과
새로운
하고
##당이
##정치
##했던
##지역
##선을
##인먼트
##리즈
##터테인먼트
개발
공식
구성
역임
오후
##일부터
##소년
191
에드워드
스타
영화
있으며
##페인
공개
샤를
예정
태어
포함
##지는
##대회
##분기
##교육청
##ic
##서는
##스를
즉위
##이나
##이었다
##원을
##로부터
##복지
100
김성
사망
생활
야구
이승
전북
##하면
##자인
대한항공
김영삼
고려
대전
제주
##사는
##자를
프로그램
결정
대구
데뷔
처음
##번째
##특별
고객
로마
으로
##전을
##도시
##도서관
##정부
##대학
##BA
2009년
마이
앞으로
여러
##장과
2010년
2015년
11일
보수
세리에
연맹
필요
##시키
##스와
##공화국
##제로
##약을
25일
원내대표
알렉산
31
김종
##자리
##트남
##제가
##되었고
29
33
LG
동안
라이
생각
시리즈
총장
##이었던
##자의
##안전
##기로
##재단
##at
##협회
경남
안전
있던
주요
평가
헨리
##지로
챔피언스
5일
강진
받았다
인사
있어
제공
##의를
##치를
##지고
##금융
공격
광양
당선
라는
브라
비판
##고등학교
##정보
##비아
대상으로
5세
것은
동아
되어
모든
바이
어려
일부
최근
필리
환경
##화를
##체육
##왕후
##개발
193
##위원장
챔피언스리그
결국
마련
박정
발생
선출
요구
제작
출마
##당은
##세계
##대의
2019년
2011년
3일
7일
9일
NBA
받은
사장
소비
조성
##다고
##사의
##이션
##가와
##동을
##보다
##리히
##디오
10일
4일
결혼
기독
보고
이적
졸업
직접
##레스
2일
각각
공화당
국립
국내
이를
타이
특별
##왕의
##철수
##한다고
기대
도시
오는
윌리
지방
##하던
##시장
##부장
##리오
##었으며
2018년
2020년
26일
경우
안철수
정당
청와
확대
##el
##전자
##임을
##제를
##경기
##직을
것이다
계속
대학교
사랑
어머니
##다가
##의원
##사로
##과학
##he
윌리엄
공작
레이
베트남
센트
여수
왕조
전했다
증가
최종
##마트
##국의
##증권
##구려
##계를
일본의
17일
18일
24일
##되었으며
30일
28일
센트럴
고구려
과정
대신
스페인
영광
영향
인해
학교
##이지
##이라는
##시에
##시민
##도로
##도를
##했지만
##라인
##왔다
##변인
##러스
2019
2013년
위원장
리처
미래
바른
북한
설명
전투
지속
##부의
##투자
##움을
2008년
비롯한
가수
노동당
동생
매출
모습
생산
소련
없는
##장에서
##니다
##스키
경기도
1년
다음
돌아
바르
이끌
정권
##성이
##지사
##ri
##림픽
청와대
리처드
6세
가능
군수
그리스
분야
아시아
인터
지휘
직원
진보
##기가
##축구
##우리
의원은
국가대표
27일
이라며
K리그
건강
롯데
면서
발전
씨가
역사
이미
전주
지도
지지
회원
##성군
##스코
##도의
##산당
##개의
활동을
KBS
SBS
기간
노력
더욱
아르
출시
##대에
##인의
##리카
##카이
##신당
20일
14일
순천시
대비
마지
산업
수도
시절
영업
이하
지냈
총재
판매
포르
##스탄
##선거
##란다
##금을
##으로서
의원이
22일
##인민공화국
기독교
마지막
가족
광산
받고
새정치
스웨
진출
혁신
협력
##안을
##건설
##부를
##군이
##수를
##관광
15일
21일
참석한
2년
기관
내용
등에
박근
번째
월드
유지
조직
##해서
##병원
##음을
190
광주광역시
대통령이
##000
예비후보
거쳐
게임
과거
내년
마을
메이
브랜드
선언
성장
어린
오전
하지만
활약
##ion
##이라
##자치
##시설
##공화당
##했으나
##과를
##무원
19일
2007년
스웨덴
8일
대변인
데이
드라
바란다
서비스
이정
잉글
정보
준비
차지
총리
화순
##이사
##가는
##인이
박정희
박근혜
공화국
관리
관광
기술
농업
역시
이해
인정
전달
청소년
출전
한나라
회사
##ol
##이는
##위에
##트로
##트를
##티아
##나이
##중앙
##으로써
16일
잉글랜드
6일
기념
됐다
역할
추가
탈당
##전에서
##자는
##임스
##부르크
##단체
##노동당
##어난
##심을
경기에서
프리미
중심으로
35
경영
등장
베이
엔터테인먼트
이유
전년
주관
##다는
##ou
##가의
##기는
##되면서
##환경
1990년
12일
후보로
##하기도
##민주주의
23일
계획이다
앞으로도
검찰
결성
계열
과학
등과
반대
법무
시간
않고
음악
해당
혐의
호남
활성
##et
##학년
##명한
##am
##협의회
미국의
TV
공연
부인
비례
연방
연합
울산
이전
페르
피해
##이익
##이라고
##로벌
##정당
##포츠
##나다
##제의
##었으나
##하였으나
2001년
국가대표팀
50
FI
개선
단체
대선
모스크
보건
앞서
예상
오스트
제임스
클럽
##하이
##it
##스티
##로동당
##무총
##진을
##통합
##st
2005년
2002년
##국민회의
##연구소
모스크바
개혁
그녀
마르
승리
요청
재위
제품
중화
체결
카를
폴란드
확보
##자유
##원이
##문을
##연맹
##왕이
2006년
##민주연합
아니라
통일민주당
여수시
비례대표
40
강화
계승
구단
구축
기자
기여
등으로
보내
부르
서구
에어
올라
이는
이라는
임시
크리스
##하려
##원의
##로는
##부는
##인으로
##FC
알렉산드
기반
기존
김일
대응
만에
변경
보도
않았다
예산
전략
지금
청년
출범
한전
해군
##장에
##사에서
##루스
##정책
##학과
##일랜드
##조선
##진흥
##리지
##식회사
##았고
2000년
한국전
대표는
1997년
##하기로
프랑스의
공공
되는
또는
올림픽
우수
유진
유시민
의혹
이재
자리
존재
초대
취임
##장의
##너지
##수의
##생활
##디어
##운드
대통령의
29일
새정치국민회의
KT
건설
경쟁
기타
담당
시행
완도
요시
의견
이동
인물
장제
좋은
지적
찾아
평화
하였
활용
##스로
##가를
##민당
##크로
##대책
##상정
##수는
##교통
##카드
##쳤다
정부는
비롯해
광산구
드라마
갖고
기원
도쿄
동양
신세계
심상정
아내
언급
업무
없이
연속
이종
제3
종합
행사
확산
##서를
##학자
##르기
##인규
##리의
##바이
##켰다
1995년
정부의
이승만
FIFA
32
강조
같이
김재
나이
노동
맞아
명예
반영
발견
아우
여자
유튜
제외
제기
중요
토론
황제
##il
##거나
##원으로
##웨이
##해야
##동안
##일러
##지방
##북도
김정은
주장했다
예정이다
다이
동시에
민족
박재
부문
신문
엘리
일으
전남도
##의료
##치는
##스템
##가가
##부했다
##베르
##TV
2004년
사회적
##ent
프리미어
경희
글로벌
끝에
나타
분석
의장
이루
전망
지명
진도
채널
최선을
캐나다
합병
해외
##사와
##트리
##세의
##세를
##주교
##인다
##력이
##에서의
1999년
1987년
문화방송
국방
기획
보유
본격
불교
수행
이야
있고
주최
크로
크게
홍보
확진
##시픽
##실에서
##공항
##프로
##어진
##감을
##두고
##리우스
##었지만
##경찰
##적을
##누스
대표가
조선로동당
13일
지원을
사업을
##국민당
이름을
광양시
2차
38
결승
경상
공모
드러
선발
인민
회의
##원에
##미래
##조합
##법인
##처럼
##으로부터
자유민주당
188
후보는
조선인민
감독이
제2차
##스타그램
최초의
설명했다
월드컵
한나라당
SM
가지고
공무원
높은
도쿠
두고
반도
발매
부회
불가
상임
설치
슈퍼
유니
이듬
이끄
인스타그램
투자
하이트
##om
##위로
##드로
##기의
##대한
##상이
##인을
##인공
##었는데
1996년
후보가
##00만
우승을
김정숙
경남대학교
예비후보는
이끄는
GS
관한
교통
군사
그를
기준
네덜
논란
로스
목포
바로
변호
인도
투표
해남
##는다
##마을
##민의
##모토
##지에
##회에서
##포르
##선수
##비를
##le
##리당
##ur
##덕왕
##개월
##겼다
##갔다
대표이사
사회당
사회주의
강진군
포르투
##나이티
하이트진
네덜란드
KB
고양
금호
노래
되고
산하
상태
선교
소통
수원
신라
연기
영입
운동
위치
유로
유일
이인
인수
지분
하여
확정
희망
##is
##치고
##세가
##정의
##부가
##부대
##드는
##드리
##기획
##르는
##나가
##린다
##식품
##점을
##했다는
서울특별
선거에서
참석했다
제국의
최초로
영광군
아시아나
활성화
이듬해
국정
나가
나경
남편
명이
세르
쇼와
아일랜드
않은
애니
언론
유나이티
일반
전해
제안
주도
책임
친구
해양
##사령
##사관
##간의
##도가
##학을
##학생
##드의
##일보
##군을
##단은
##르타
##워크
##계획
##엔터테인먼트
##예술
##뚜기
##하는데
대통령은
1998년
정부가
삼성전자
31일
역할을
유튜브
박재규
프리미어리그
하이트진로
AFC
CJ
가문
기상
김현
김태
내각
노회
달성
따른
레오
모델
박헌
보여
스포츠
아들이
없다
오늘
올랐
이러
일제
일자리
자료
지정
추정
##전에
##자와
##시켜
##원식
##골을
##조의
##체를
##투스
##있는
##us
##피아
2003년
전문가
태어났다
혐의로
엘리자
포르투갈
서울특별시
노회찬
박헌영
1차
근무
새누
수사
수비
스코
신청
않았
앨범
오브
의료
이다
이와
이슬
자문
정상
정식
중인
직후
합의
합류
##ea
##자동차
##트워크
##세기
##공산당
##소를
##용진
##단을
##진보
##종의
##버스
##버트
##법원
##승을
##격을
##중학교
##0년대
국민당
##00여
2세의
독일의
바른미래
한국전력
도쿠가와
이러한
엘리자베
of
감염
고민
규모
금융
논의
뒤를
마케
만나
만큼
발언
상대로
소방
신한국당
실적
앞두고
영상
요한
음력
있을
자회사
충청
파이
행복
확인
후계
##ed
##전히
##사이
##원과
##호를
##씨는
##부에
##했는데
##군에
##통신
##구하고
##라트
##하였는데
자유민주연합
프로젝
사이에서
이용섭
이사장
##투자증권
영업이익
아시아나항공
나경원
유나이티드
이슬람
5개
II
개인
경험
군인
그가
농협
당부했다
되었고
명의
바탕
보인다
복지
블루
사퇴
수석
신천
안정
에도
예방
오스
온라인
의미
작품
제조
찰스
최대
추천
클라
퍼시픽
한진
##서비스
##공업
##파크
##아시아
##주년
##독립
##회에
##포스
##수가
##되지
##ra
##어들
##나는
##제는
##메달
##개혁
##혁명
자신이
2020
보수당
라이온
군민
김동
동구
매우
브리
소프트
스튜
스마트
아프
아닌
제4
플레이
획득
##자원
##치로
##지와
##기념
##네스
##노스
##비시
##테르
##리로
##카오
##관을
##청장
##래프트
##반기
##런스
##활동
##므로
##으로는
있다고
조선민주주의
민주노동당
연구원
시작했다
천황의
브라운
어려운
과정에서
지냈다
김일성
반도체
조선민주주의인민공화국
St
가졌다
건륭
공유
국왕
기초
김해
김수
김인규
나라
나섰
명칭
목표
민중
블랙
스위
아나
연세
연고
예선
요미
은퇴
음반
이수
조국
조양
조약
한화
호텔
홈페
##시는
##시간
##트는
##트의
##공단
##주는
##학원
##드라
##지의
##대비
##비치
##르고
##교회
##행을
##받은
##받았다
##식이
##닉스
##메이
##습니다
##한다는
발표했다
엘리자베스
36
Ch
김우
남양
남북
넘어
맡았다
수준
시설
아직
앙리
올렸다
왕위
재정
전통
제출
챌린
치매
하이
합당
##자들의
##시즌
##시켰다
##스턴
##스케
##들에
##했을
##드리히
##지가
##대는
##단의
##노동
##as
##비전
##인은
##틀랜드
##앤젤
##레일
##리나
##SA
##관에서
##신을
##협력
##중에
##메라
##함으로써
##셔널
1992년
민주공화당
1세의
사이에
사실을
처음으로
기원전
로스앤젤
바탕으로
조양호
5년
가진
가입
가톨
경성
고용
공급
귀족
동부
마리아
먼저
무안
뮤지
복귀
불구하고
소유
시리아
아마
아스
여기
예능
이란
자이
장성
정용진
주식회사
질병
최우
하노
하인
해체
##이기도
##시오
##원에서
##마의
##주를
##부와
##드를
##물을
##ch
##평군
##우드
##행정
##제국
##제약
##리어
##관이
##직원
##텔레
##철도
##퍼스
##하고자
1955년
##억원으로
참석해
통합진보
개최했다
프리드리히
마이크로
##ation
모습을
메이저
새누리당
가톨릭
000
4분기
각종
강원
계약
고등학교
네트워크
녹색
뉴욕
대우
람보
로버트
막스
막부
많이
박사
사령
사진
선임
세종
소장
수립
여운
오뚜기
유명한
이강
이때
작곡
장군
장남
전체
조사
주인공
콘스탄
텔레
플랑
핵심
향후
헝가
황후
히로
##하마
##ig
##em
##os
##전문
##이가
##니어
##천시
##민족
##실을
##정에
##정의당
##부인
##0여
##수로
##ci
##야마
##리와
##구에
##라운드
##슈타
##봉사
##릭스
자유당
189
후보를
1989년
제19
1945년
포함한
필요한
필리프
매출액
인터뷰
법무부
오스트리아
##르기니
신천지
요미우리
람보르기니
4차
55
NA
개편
관심을
니콜
다하겠다
따뜻
마사
마무
마음
몽골
물론
비상
사과
선보
시는
신민당
실패
아동
연결
영토
오토
오른
올리
왔다
유재
은행
이런
이웃
있었던
제7
조승
지시
축하
출판
페이스
표현
핀란드
하루
후원
##하도록
##iv
##성왕
##전남
##위는
##치가
##웨어
##스에
##고를
##EO
##명과
##소프트
##농업
##선대
##상공
##흥군
##국제
##비드
##르도
##역을
##표를
##받아
##라도
##롭게
20대
대통령과
1991년
지역의
1980년
1988년
##ers
1950년
아들인
##하다가
만들어
공개했다
김종필
진보신당
어린이
스코틀랜드
로스앤젤레스
자이언
콘스탄티
페이스북
3년
8세
거두
것에
국토
근로
기본
나오
나폴
뜻을
민간
부진
삼국
세이
세력
소재
승리를
와이
위반
이시
인재
입당
적용
정신
중이다
창립
트럼
팀의
패배
평양
프란
해결
해적
행사를
##사카
##자들이
##치오
##아의
##아노
##건강
##정한
##유업
##크라이
##업체
##지도
##회는
##대가
##미르
##상의
##국인
##수산
##령을
##단에
##인트
##평양
##구를
##계에
##항을
##래드
##냈다
##OC
있다는
1993년
선수로
민주자유
민주국민당
시작으로
##ing
하나금융
총선에서
알려져
##관리본부
중화인민공화국
한전K
완도군
조선인민군
바른미래당
프로젝트
나섰다
질병관리본부
3분기
CEO
SN
TBC
YG
가경제
감사
감소
관심
구매
나서
달러
동맹
매년
바오
반발
받았
방법
백작
불법
서로
선생
소개
스티
시티
아키
요코
원을
이래
이것
일어
작업
재난
중소
지배
집행
초기
촉구
파리
##ir
##이로
##자이다
##서에
##스부르크
##가족
##화가
##애인
##보를
##히토
##상은
##흥왕
##산시
##단이
##인이다
##nd
##무를
##식에는
##차를
##3리그
##복을
##품을
##렀다
##더불어민주당
##혁신
지난달
프로듀
민주정의당
1979년
출신의
이라크
필요하다
지적했다
세르비아
기상청
한국전력공사
소프트웨어
홈페이지
챌린지
플랑크
자이언츠
41
4년
7세
거부
건국
공직
공산당
구조
국무총
귀국
김기
내려
노르
동기
마드리
맞이
맨체
미나
반면
발굴
보다
사고
상당
상생
승격
시대
싱가
아래
약속
연주
열고
우크라이
유신
이건
인권
작은
재직
제5
중단
진주
창업
창설
콘라트
태평양
투입
판단
프레
하락
후반
힘을
##하거나
##였고
##ot
##성과
##이의
##서발전
##씨의
##씨가
##공동
##도는
##부문
##부분
##타르
##과는
##기구
##소방
##되자
##ce
##어로
##절을
##데이
##슬라
##un
##셀로나
##텐츠
10개
##하였지만
조선의
회장의
기록했다
교육감
1978년
1948년
##연구원
태어난
##특별자치
마이클
##시키고
브라질
바르셀로나
이정미
화순군
이루어
올랐다
영업이익은
요코하마
맨체스터
싱가포르
37
39
the
건의
계약을
기능
김연
김진
김구
꾸준
나치
남자
남부
내셔널
노태
다니
달리
도움을
되었으며
둘째
등록
떠나
레드
마스크
맡고
받는
방침
법률
베네
부정
부분
불리
블라
수요
스토
시장은
신규
않는
왕국
유치
일어난
자체
자리를
정동
정몽
준우
지자
지낸
집중
카페
통한
팀이
하겠다
회장은
후쿠
##키는
##거리
##이드
##이어
##천년
##마크
##에트
##서실
##서울
##스토
##트니
##도에
##PS
##동생
##보고
##산을
##물관
##르게
##즈의
##바로
##분에
##퍼런스
##돌프
대표팀
지역사회
의원과
2세는
현재의
국제공항
문화체육
SK텔레
수상했다
소비에트
데이비드
알렉산드로스
의견을
유로파
유일한
연세대학교
남양유업
아스널
하인리히
여운형
트럼프
34
45
42
80
J리그
강력
걸쳐
검사
공산
그해
그런
담양
대부분
디지
라디오
만주
반응
부터
사태
사후
살아
상무
상징
새천년
신동
신속
싱글
아시
알아
암살
앞장
어떤
에너지
예수
오리
왕비
외교
요리
우려
워싱
원래
위하여
유통
유벤
육성
이성
이자
이로
이바
이혼
이반
이벤
입학
입단
장로
적이
전두
점검
정은
정종
존슨
중에
차례
친일
현장
환자
후에
훗날
##하라
##od
##사화
##사인
##자에
##시마
##시대
##당에
##에어
##스카
##트비
##가지
##아티아
##회가
##군단
##수아
##수영
##우는
##나고
##베이
##석을
##ue
##누엘
##활동을
##폴리스
##랫폼
대표와
184
187
민주평
프랑수아
중앙정보
감독은
1967년
영국의
정치적
##억원을
부산시
1949년
1946년
##지원센터
방문해
들어가
노무현재단
알려진
소비자
##부장관
영향을
바른정당
인터넷
##축구연맹
관광객
페르시아
보건복지
토론토
크로아티아
수비수
뮤지컬
우크라이나
지자체
문화체육관광
유로파리그
워싱턴
전두환
70
Cl
가정
간의
개정
검토
경선
골키
광고
군주
글래드
다카
대공
대하여
도움
만든
바뀌
방어
방역
방탄
부의
부족
사례
사장은
상승
소식을
수출
시스템
씨와
아무
알고
알리
열어
유승
이명
이론
인디
있게
점령
창단
청주
최다
출생
캐릭
통치
페이
피아노
하며
해리
헌법
홍원식
회복
##하지만
##ia
##im
##전선
##이노
##시티
##당과
##가인
##아이
##명으로
##동서발전
##기와
##소에
##그라
##ck
##인과
##터스
##베르크
##분야
##데르
##신의
##구는
##없이
##라노
##계층
##량을
##메이션
##클럽
##패를
한국동서발전
1994년
경기를
1세가
1984년
##되었으나
1968년
공동대표
관련해
사람이
열린우리
것이라고
만들기
대회에서
행정안전
알려졌다
역임했다
선출되었다
노력하겠다
위치한
이인영
애니메이션
아프리카
김우중
대우그룹
SNS
SK텔레콤
새천년민주당
골키퍼
방탄소년
3개
4개
J1
PD
SP
△더불어민주당
강점
골든
교체
김홍
김경
나갈
나왔다
너무
더불어
동문
득점
루마
마음을
매각
못한
미군
바람
발탁
방영
보이
보였다
비난
비디오
빅토
사무총
새롭게
선포
소위
소상공
아울
야마
업체
역대
오히
완료
의하면
이기
장교
재판
전희
전환
정비
정우
주재
지내
지급
집단
체육
체험
촬영
출발
취업
클래
탄생
통과
파견
펼쳐
포기
형제
##하에
##id
##장관
##시킨
##에르
##가로
##화점
##토니
##정이
##정은
##부로
##드가
##기경
##보건
##회견
##조사
##상에
##수와
##코프
##평가
##만원
##만에
##베르트
##널드
##청년
##디아
##후의
##참여
##렇게
##같이
15세
##회의에서
지역경제
186
국민의
2세와
제1차
회장이
기록을
##사업을
1966년
현대자동차
교수는
이상의
##문화방송
최고의
예비역
구성된
비판했다
왕조의
지도자
이유로
주관하는
##진흥원
신세계그룹
강조했다
아나운
따뜻한
마무리
노태우
J1리그
루마니아
54
60
AI
In
KC
K3리그
Un
가지
가까
관람
관내
교토
권한
그레
글을
내세
노선
노벨
당초
대책
대통합
덴마크
등에서
루트비
말을
못하고
물러
박상
보호
부대
부여
부총
북구
불러
브르타
상대
서부
선택
성인
스트
스테
식품
신임
신종
심재
아랍
양성
여름
영어
오사카
유엔
이원
이회
이집
있었고
자원
자녀
장기
장휘
전사
젊은
제일
창원
체포
초반
취약
투수
티베
파라
플랫폼
하다
현지
흡수
##성은
##니스
##시스템
##당인
##스에서
##화된
##문학
##일스
##연을
##회장
##미널
##re
##20
##즈베
##창수
##리페
##오는
##카와
##왕은
##있다
##경영
##여자
##광주
##종을
##디미르
##ub
##달라
##퍼니
##향을
##예프
##초등학교
한국인
대표를
지역을
185
183
14세
2세가
1981년
국회의장
참여한
##라이언
운영하고
아들로
진행했다
전남대
##됐다고
전쟁을
이름으로
1920년
사건으로
제주특별자치
프로그램을
결정했다
동아제약
##왕후의
전투에서
베이징
기자회견
크리스티
공공기관
##대책본부
업무협
##선수권
자문위원
행복한
오스만
무안군
통합진보당
사령관
바오로
꾸준히
정은경
캐릭터
아나운서
루트비히
브르타뉴
장휘국
1위
1조
75
AS
JT
The
가을
가격
간호
간부
강지
강경
거의
계기로
고문
골을
구글
그래
기부
길을
김용
김희
나누
나눔
남구
네이
더블
도입
동료
득표
리더
반란
방안을
밴드
보낸
보컬
보성군
본부
부사
부탁
비중
사무
상품
서명
선전
선제
스카이
스스로
시청
시기에
신성
실현
애플
약칭
없었다
연예
영상을
왕가
왕위를
요크
의정부
이외
인간
인한
일환
임직원
잠시
재개
전시
전당
전기
정의
정기
조흥
주로
죽고
집권
총괄
최소
추기경
취득
케이
콘퍼런스
태풍
터키
투어
펠리페
플라
필라
한신
합스부르크
향해
협약
형성
##사에
##이를
##시험
##원군
##마이
##마스
##에너지
##서스
##스파
##스럽
##트가
##화학
##명은
##과정
##과대학
##현석
##지부
##보험
##대행
##군과
##재학
##재생
##산물
##코리아
##게임
##li
##la
##우의
##베이션
##홀딩
##데스
##AM
##신문
##케이
##머스
##규모
##았던
##뮤니
##춤형
150
대표의
##회의를
있는데
147
1세와
김영록
##연합회
공식적으로
바르샤
평화민주당
동양방송
제외한
중요한
국방부
논란이
스위스
최우수
노르웨이
마드리드
베네딕
이명박
소상공인
전희경
대통합민주
조흥은행
2대
3대
3학년
65
68
MC
갈등
거둔
교류
권력
기하여
끝난
나온
나머
남아
농촌
놓고
누구
도착
때까지
라리가
런던
마리
무역
박병
반드
발루
밝히
베르
보면
본부장
봉사
붉은
브래
비밀
빌헬
상하이
선도
셋째
소설
손자
송영
수여
수익
승인
신한
심각
아틀
아센
언더
여전히
원장
유사
응급
이뤄
인근
인식
자격
작성
장악
전에
정세
정인
정규
제시
제도
조원
주변
주목
증거
진격
차남
천주교
치러
카카오
캠페인
콘텐츠
클린
파주시
편성
해방
현역
협조
효과
##ev
##전의
##이에
##이던
##이지만
##시의
##시코
##에선
##아버지
##주민
##주택
##프는
##들로
##들도
##화에
##토모
##드린다
##일을
##일자리
##소에서
##대상
##국을
##티스
##려고
##으므로
##ad
##ro
##25
##태규
##권의
##레디
##린이
##리스트
##바르
##오카
##관계
##ud
##NA
##음에도
##빌리
##았으며
##밀리
##추진
##느냐
##델피아
대한제국
광주은행
대통령을
조선일보
선수는
대해서
대해서는
위원장은
참여해
참여했다
운영하는
1960년
##and
공동체
챔피언십
문제가
실시했다
적극적인
평가를
어려움을
졸업하고
타이틀
지속적으로
이끌고
이해찬
시간을
호남대학교
오스트레일
그녀의
카를로
추정된다
마케팅
##주년을
이수만
헝가리
김연아
디지털
장로교
방탄소년단
아울러
오히려
클래식
그레고
이회창
제주특별자치도
필라델피아
##홀딩스
반드시
클린턴
오스트레일리아
2시
5대
53
84
Jo
NH
가져
개막
갤럭
건립
게이
계기가
규제
금지
기회를
긴급
김준
김지
김제
김승
높아
뉴스
대리
대처
도중
동신
레알
루돌프
마산
마침
마찬
머물
메리
메탈
모리
문효
문무
미드
발행
부모
북부
상호
상사화
선고
성과를
센터
신인
실천
아사
아라
아메
안양
야쿠
양자
어르
에게
엑스
여론
영산
오바
올스타
유명
이주
이며
이르
이끈
이마트
인공
임대
입장을
자연
재임
전자
좌파
주교
진단
차별
처형
취소
탈퇴
테일러
편입
항공사
혁명
협업
후임
후지
##전은
##사랑
##당에서
##치아
##세자
##안에
##주식회사
##정우
##부산
##크래프트
##지지
##지능
##기간
##기준
##소속
##보드
##대전
##상황
##살인
##되며
##되면
##용을
##단과
##으면
##어트
##코스
##테크
##th
##틀러
##나와
##제에
##진은
##만을
##리크
##식으로
##여명이
##데타
##차로
##법에
##AR
##담을
##um
##덕여
##곳에
##운영
##반도
##개선
##예산
##웠다
10세
##위원회의
##7년에
이후에는
지역민
지역구
149
##주의를
제16
감독의
현재까지
교육을
아이돌
1959년
1958년
1954년
1976년
3세는
3세의
##레이드
소속으로
프리메라
##ard
최고위원
상황을
##운동가
정책을
받아들
적극적으로
스타크래프트
##복지센터
발생한
도시재생
대변인은
##통합당
경상남도
부회장
불가리아
슈퍼리그
건륭제
세이부
다니엘
블라디미르
유벤투스
##이노베이션
바르샤바
나머지
갤럭시
2천
2학년
400
J2
가상
개입
건축
겨울
계급
고종
고속
고향
곡성군
공헌
공항
공약
구속
그린
그것
그들은
그대로
그동안
긍정
까지
나아
남성
농림
당원
대장
대원
델타
도민
도와
동참
드림
떨어
뛰어난
리가
리버
마오
목소
무대
박성
박영
받을
밝힌
부시
부임
부활
분위
비교
살해
상반기
성과
수록
수입
시도
시상
시험
신설
신익
씨의
양현석
어떻
얻어
에는
여행
연수
완성
왕국의
왕가의
외국인
운행
윤치
의한
의하여
이병
이석
인증
자치
장학
전날
전주시
정도로
조건
종교
종료
주제로
죽음
지켜
지위를
진급
처리
카타르
통산
푸틴
하면서
학술
한정
할인
함평군
합작
항의
헤르
##하의
##다운
##사건
##자력
##니지
##가지로
##세에
##로를
##주로
##도니아
##프의
##프를
##들어
##필드
##연대
##애를
##지주
##기독
##병사단
##회원
##국이
##국으로
##티브
##단으로
##축산
##으니
##으면서
##ay
##ap
##인들이
##km
##제품
##영의
##영철
##내고
##형을
##형발전
##여객
##적이고
##관은
##통일
##신인
##라의
##라를
##mer
##래곤
##됐고
##중공업
##균형발전
##NC
##혜선
##졌고
##봉암
##추어
##예수
##뱅크
##붙였다
2016
2017
##부터는
159
이후에
지역에
위해서는
의원을
의원의
후보자
##2년에
리그인
사회민주주의
서울대학교
##그룹의
감독으로
1961년
1970년
1975년
국제축구연맹
소속사
코로나바이
공동으로
한다고
##지원청
SK하이
##자로서
##산업개발
문제로
정책에
##대회에서
여러분
필리핀
필리포스
##과학기술
증가한
스페인의
이끌어
가능성이
중화민국
##하려는
알렉산드르
하였고
##베르토
이야기
SM엔터테인먼트
##모토노
민중당
동기대비
미나모토노
앞장서
민주평화당
중앙정보부
심재철
어르신
J2리그
신익희
어떻게
0으로
1일에
2회
2개
2번째
3위
IS
IB
IT
Le
ST
in
가치
가맹
가르
간담
강등
거듭
결의
고지
고대
공천
공주
공군
국무
군은
그리
기구
김유
김병
김석
나선
내부
누르
다케
단독
대림
도미
등은
때부터
루카
마크
맡아
모여
무사
무령
무소속
받았고
배출
보르
부상
부통령
사항
사진을
성폭
속에
손을
손흥
수학
수많
신정
신민주
실질
안산
앵커
어렵
에레디
연대
예술
외무
운동을
원정
응원
의빈
이스
이은
이영
이른
이중
익산
일을
임원
있었
있지만
자기
작가
전공
전직
접근
정성
정확
정권을
제한
조봉암
중장
진에어
천안
초청
최규
추모
치료
침공
카롤
토니
통신
포천시
플로
한성
한일
합동
해소
행동
협회
형태
활발
##ow
##키스탄
##거운
##전한
##사무
##이치
##시와
##치의
##에른
##스테르
##트르
##세스
##세유
##실장
##로로
##토스
##정과
##학회
##했기
##박물관
##0대
##일리
##년간
##대회를
##미디어
##재를
##나르도
##진영
##레어
##리코
##리케
##식의
##여성
##종합
##IS
##신교
##구역
##라스
##80년
##송을
##계의
##슬러
##ug
##B금융
##슨의
##점으로
##목으로
##NK
##DC
##DN
##배우
##쿠스
##함에
##맥스
##같은
##쇼핑
2013
한국당
대표로
리그의
145
당시의
##주의자
선수권
##위원회를
1985년
관계를
제15
자신을
국가균형발전
활동하고
중앙당
시즌에
아이유
에서는
1952년
1974년
러시아의
제2대
##본부장
SK그룹
##들과의
하나로
올해의
계획을
아버지인
이름이
##사회당
##all
아니다
사건을
멤버로
출연해
역임한
제주도
##시키는
2020년도
모습이
마지막으로
서비스를
정보를
전달했다
예상된다
##ity
마르세유
부르봉
의혹을
경희대학교
변호사
##사관학교
레오나르도
고민정
마케도니아
경험을
목표로
텔레비전
니콜라이
국토교통
삼국사
하나금융투자
준우승
유승민
자원봉사
강지환
일환으로
빌헬름
마찬가지로
오바마
##예수교
손흥민
수많은
신민주공화당
1로
1명
2분기
4대
57
66
64
AC
EBS
FA
IOC
LH
격파
고노
공감
광복
교장
국군
권태
규정
그랜
극복
근거
금메달
김민
김명
김한
끝내
남원
내다
노인
누나
느끼
단일
달라
대체
덧붙였다
도널드
동원
되길
되면서
두산
둘러
뒤에
드래프트
디자인
때는
마티아
막시
맞서
멕시코
멸망
명을
모아
못했다
무료
무덤
뮤직
미술
발전을
밝혀
버펄
번역
범죄
법흥왕
변화
보성
부위원장
분열
비틀
비서실
사임
사단
사촌
서기
선진
세우
세븐
손학
술탄
시게
시라
실제로
심사
않을
야당
얘기
에르
우선
이제
이광
이익
이개
이낙
이들은
이렇게
있었으나
자산
잘못
장수
전반
점을
정명
정무
제이
제정
제독
제6
젝스키
조정
조태규
좋아
주문
죽자
중부
지상
참조
채택
책임을
체계
추석
측은
친환경
카이
토머스
통하여
패션
폭로
하회
했지만
허용
허브
혹은
화장
회장을
훈련
##성에
##이기
##시로
##시를
##당한
##위의
##트에서
##세한
##아트
##아들
##로당
##해양
##프레
##문에
##문제
##문재인
##명에
##소가
##소로
##보는
##보호
##조가
##선으로
##재판
##수호
##되기
##물리학
##야구
##인인
##인데
##교류
##평을
##평화
##즈가
##나기
##나무
##권은
##영준
##황후
##받고
##리교
##리에서
##카고
##분을
##경남
##식에
##식은
##관에
##관계를
##석이
##법을
##순천
##케스트
##러운
##NG
##NU
##벤처
##쏘시오
2018
2009
##에게는
한국의
대표적인
정부에
더불어민주당의
프로축구
사회민주당
사회복지
서울대
선수가
프랑크
1982년
##교육을
##교육지원청
13개
10월에
기록이
시작된
감독을
선거에
1969년
1964년
삼성그룹
##레이션
전쟁에
##ant
김대중은
추진해
SK이노베이션
교수가
의해서
##art
발표한
설립한
주민자치
문제를
상황에서
##운동을
행정부
창당한
##ess
성공을
결과를
1919년
태어나
##ica
생활을
알렉산데르
제공하는
당선되었다
동아쏘시오
바이에른
기대된다
학교법인
지속적인
그녀는
카를로스
에어부산
기반으로
유진기업
행사에는
노동자
아우디
아우구
확진자
##프로그램
인스타그램에
해남군
지분을
감염증
한진그룹
스튜디오
스튜어트
매출액은
민주자유당
오리온
보건복지부
문화체육관광부
부의장
행정안전부
빅토리아
이집트
##선수권대회
언더우드
그레고리오
야쿠르트
인공지능
국가균형발전위원회
손학규
이개호
이낙연
3차
47
43
52
5G
9세
95
98
JY
ML
Re
가는
가마
가담
감안
강남
같다
겪고
고교
공장
공간
공정
구청장
기탁
기울
깊은
농구
누리
늘어난
다나
당수
도로
디비시
로드
마쓰
마리오
마카오
맞는
맡은
매체
무한
무렵
무대를
문희
물리
민선
밀란
바라
바꾸
박주
박찬
박진영
방안
배치
버스
병원
보장
분리
분데스
불과
불리는
사전
샌안
설득
성립
성적을
세운
세력이
신고
신상
신우
실무
안타
애덤
연간
연루
연습
열차
예카
오를
오르
오픈
외에도
우익
유아
유스티
유영철
의사를
이화
이창
이랜드
이같이
익스
일리
자주
자바
자매
장애인
전화
전면
정현
제프
조카
종사
종목
주력
중도
지하
지키
지지를
차기
차르
철도
청나라
초고
커뮤니
클리
키예프
타고
트위
특수
특혜
파악
펼쳤다
폭행
표창
프라
학습
항복
했던
했으며
헤이
형사
호러스
홈런
황태
황제가
회의를
후손
후에는
휘그
히틀러
힘입
##하르트
##다이
##ov
##성전
##니치
##시스
##시가
##위가
##마다
##마르
##치와
##웨스트
##스포츠
##세력
##민턴
##로의
##도비
##해를
##건은
##언을
##문은
##필더
##드민턴
##타이
##타마
##동조합
##애나
##지에서
##기계
##농협
##대에서
##대통령
##미술
##포로
##국장
##방울
##팀을
##어를
##비는
##비용
##인권
##터리
##테리나
##감독
##kg
##행위
##제프
##태호
##오프
##면을
##적이
##관으로
##라클
##ul
##론을
##브리
##중한
##페이
##더스
##쿠라
##TA
##졌으며
##례를
##됨에
2015
2014
##위원장으로
119
지역위원장
180
경기에서는
1세는
##위원회는
제13
했다고
##겠다고
기록하며
참여를
교육부
아이파크
1963년
사이의
문화재
김대중이
추진하고
26일에
사실이
이탈리아의
##기술센터
1912년
사망한
##특별위원회
생각한다
국립중앙
타이거
기대한다
어머니는
군수는
포르쉐
혁신도시
스웨덴의
농업인
탈당한
과학기술
활성화를
공연을
피해를
체결했다
부르고
보도했다
전략기획
장제원
하였으나
일으키
이야기를
##경찰서
상임고
활성화에
해양수산
하노버
마이크로소프트
강원도
콘스탄티노
프란치
한전KDN
관심이
이건희
정동영
##토니오
네이버
베네딕토
발루아
아틀레
정세균
미드필더
코로나바이러스
에레디비시
이른바
최규하
##스테르담
동아쏘시오홀딩스
JYP
분데스리가
샌안토니오
신우철
예카테리나
1천
1부
1위를
2위
44
6개월
88
90
96
Ar
Al
CS
DJ
NC
SS
가동
가게
강동
강한
개설
개신교
거주
격려
경고
고소
고흥
고흥군
권유
그려
기소
김상
김형
김광
나와
나중에
내외
널리
니시
다만
단계
대동
대령
대형
도전
동남
되자
뛰어
레미
로빈
마틴
맞춰
맞춤형
메시
메인
명령
명단에
목적으로
무장
무엇
민영
민생
밀려
박유
밖에
발발
발렌
배구
배드민턴
백화점
번주
베스트
복무
본명
본선
부동
분쟁
비해
뿐만
사상
사장이
산림
살인
성씨
성남
소년
쇼군
쇼핑
수렴
스페
스피
시카고
실제
십자
아주
아름
안티
암스테르담
앗딘
어느
얼마
얼굴
에마
여의
여겨
역전
연남
연설
연출
영암
올린
왕족
왕으로
우상
움직
원년
위키
위협
위기에
유기
유대
유관
이경
이슈
있지
자랑
전인
전진
전개
정도
정지
정태
정착
정교회
제9
조사를
주축
주택
중구
진나라
착용
창출
천계
철수
체코
체제
총리가
최호
축제
카고
컴퓨
코파
클라이
탄핵
특정
팀은
팀인
파트
평균
포스코
표트르
피터
하지
하기
하반기
함영준
해서
해산
호소
홍콩
확장
황제로
##하나
##였으며
##였으나
##니는
##당으로
##호는
##호텔
##치며
##에이
##스하
##가게
##세이
##실한
##모로
##공간
##공주
##파의
##아르
##ET
##문이
##드와
##너스
##동맹
##과장
##준비
##11
##일의
##일은
##일로
##연수
##지자
##지게
##기고
##기록
##네시아
##그레
##보장
##회담
##대장
##대대
##미를
##포를
##조를
##상에서
##국은
##티식
##요시
##노조
##어린이
##합니다
##비가
##교안
##게이
##터미널
##테네
##테쓰
##lo
##만이
##영은
##리트
##리티
##카데
##왕과
##형의
##길을
##경에
##SD
##식에서
##강에
##차례
##신이
##없는
##라와
##케이션
##뉴스
##pp
##브를
##밖에
##율이
##페르
##TS
##커스
##올림픽
##봤다
##컵에서
##쩌둥
##렌체
##쇄살인
##하였던
##었다고
2008
광주전남
대통령에
1998
일본군
미국에
179
182
정부와
148
1983년
민주당의
162
국가보
중국의
##되었는데
기록한
##ern
위원회
21개
현재는
이번에
##사업에
1962년
정치가
전남대학교
3세가
현대그룹
문화예술
관련된
##하다고
기업인
장관을
국회에서
국회부의
경찰서
순천만
학생들이
##org
출신인
조지아
1921년
인천광역시
사실상
독립을
4세는
출연했다
즉위한
전북도
공격을
정권의
그리스도
산업혁명
내용을
차지했다
결성된
다이쇼
##의료원
나타났다
진도군
보유하고
본격적인
본격적으로
확진자가
##경찰청
인민수호
인도네시아
KBL
KBO
선교사
##사령부
가문의
아들이자
규모의
라이온스
브리핑
하노이
##igh
##전문학교
제19대
인터뷰에서
NASA
나폴레
한전KPS
아키히토
이벤트를
도움이
SPC
JTBC
대통합민주신당
브래그
프리메라리가
마오쩌둥
그랜트
버펄로스
세븐티식
힘입어
인민수호부대
00
1군
1번
1억
1개
2부
48
56
62
76
99
BNK
GNU
MV
Ro
Sou
Wor
가서
가슴
가치를
강인규
개그
개념
건너
게오
고시
고령
고든
곧바로
관악
관료
교회
구수
구입
군단
근처
김소
김규
나카
남은
남연
납부
내가
내렸다
넘겨
다리우스
당내
대립
대안
대결
대주교
대법원
대규모
더글
돌파
동일
동계
등극
떠났다
라인
라면서
레코
레논
리드
리눅
리니지
매카
명문
무효
무려
무산
미니
미쓰
미얀
미디어
받지
벤틀
병사
보급
북아
북미
붕괴
브로
사위
사옥
삶의
서해
서정
선조
설리
설계
섭정
세력을
세인트
소녀
수용
스톤
스탠
시대에
식민
신사
신도
신용
쌍방울
아트
아인
안드로
않아
않는다
에이
역을
열었다
오릭스
옹립
완전히
음주
의사
의회
이현
이만
이내
이순
이복
이채
이들의
일이
일시
일조
입장
입사
입문
있었지만
자동
자크
자한
자살
잡아
장녀
장성군
재단
전력
전철
접수
정례
정당이
정재학
제대로
조현
조용
조작
조계
주고
주어
주식
중의
중에는
지구
지사는
직무
천정
총독
최성
최대의
출장
치른
카친
칼뱅
캐머
투쟁
품질
하게
한종
할머니
할아버지
함락
항일
했으나
행사는
허위
허가
헌덕왕
협의
협약을
호날
화성
환영
황교안
효율
흥행
희생
##ie
##if
##ec
##gue
##장막
##장애인
##성으로
##전기
##전국
##사고
##사항
##자들은
##자들에게
##위대
##치킨
##가니
##가능
##안심
##모델
##공원
##공헌
##파를
##파와
##로브
##주에
##주고
##션은
##도르
##해왔다
##건을
##화운동
##드로스
##지면서
##기지
##소득
##보병사단
##선이
##상규
##되기도
##축제
##av
##르바
##인지
##인재
##즈와
##우에
##우주
##나눔
##제르
##진다
##만으로
##태원
##권이
##린의
##렸고
##베트남
##경환
##범죄
##IA
##디자인
##증을
##설팅
##구와
##라가
##철우
##협의
##vN
##por
##훈련
##브라
##러리
##NN
##반을
##페스
##났고
##책을
##TO
##올린
##님의
한국민주당
##까지는
##회의실에서
11번
##9년에
이후로
지역에서
미국인
미국에서
177
더불어민주당이
리그에서
2세를
##스트를
##위원회가
제1사단
민주당과
중국인민
중국공산당
우승에
1956년
30분
진행된
진행됐다
천황은
##억원의
부산광역시
사이타마
현대건설
전쟁의
사람은
시민의
시민이
2022년
개최된
모두가
기업의
선정되었다
출신으로
코로나19로
설립된
만들었다
임명되었다
물리학자
실시된
사건에
##est
##지역의
##ich
고려공산당
LG전자
있어서
당선되어
5세는
1934년
##보다는
##경기에서
사랑을
고구려의
역사상
##카이도
수도권
지냈으며
##학년도
기여한
취임하였다
장제스
언급하며
연속으로
이종배
나이로
명예회
사회적경제
주최한
유니버
GS그룹
고양시
##사령관
모델로
자료에
자료를
안정적인
스마트폰
연고지로
아마추어
##cien
##슈타인
신천지예수교
와이번
중소기업
프로듀서
국무총리
유신정우
조선의용
방침이다
##누엘레
정우택
기자회견을
크리스티안
업무협약을
ASM
이외에도
##스럽게
조원태
증거장막
##덕여왕
리버풀
SK하이닉스
삼국사기
권태홍
내다봤다
막시밀리
시라크
트위터
부르고뉴
부동산
에마누엘레
나폴레옹
미얀마
천정배
카친스키
캐머런
호날두
06
1만
16년
1분기
300
4회
49
5천
51
67
8개
94
A씨는
De
LA
Scien
US
and
de
tvN
▲전
가와
가량
감리교
강의
강희
강화를
개시
거절
건물
것과
경계
고위
고로
고등
고베
곳이
공통
공과대학
광역
구간
구체
구리
그들의
기회
김천
김치
김씨
김건
김부
나는
낙선
남조선
남겼다
노스
노력을
늘어
능력을
닉슨
다수
다수의
다마스
단장
대막
대화
댓글
도모
독자
동성
되었
뒤에는
리오
마인
마누엘
막내
만족
만드는
많다
말씀
말았다
말하며
맡는
메르
몇몇
모바
묘사
문성
문의
문정
문학
미하
미사
미야
미카
민경
바꾼
받으며
발간
배포
버락
베를
베오
베이스
보니
보안
복합
부군
부담
부패
북쪽
북조선
브라이언
비치
비즈
빼앗
사법
사라
새마을
생태
서대
성적
셀림
속에서
숭정
스프
시대의
신학
신뢰
실행
싶다
아미
아베
안내
알바
앤서
없을
에버
엑소
엔리케
연락
연계
영역
영락
영웅
오프
올려
옮겨
왕위에
우드
우즈베
유리
유력
유학을
윤소
의심
이들
이지
이행
이오
이었다
이르는
인종
인구
일정
임용
임관
임무를
자리에
자그레
작전
잡고
전무
절대
정진
정통
조합
주는
죽은
지미
직위를
진지
진영
진짜
진흥왕
징역
징계를
창의
철학
첫째
체감
최연
최상
추대
추방
충북
카드
카르
카메라
코르
콘서
쿠데타
크라
클레
키움
타임
택시
테마
퇴임
트빌리
특집
파인
파나
페리
포천
피렌체
필립
하에
하야
하는데
한미
한인
한양
한때
합격
해임
해상
해운
향한
허석
허창수
헬싱
현실
현황
현장을
협력을
혼인
홍준
효성
효과를
히데
히어로
힐러리
##하시
##iz
##iel
##ey
##키가
##키아
##거래
##장인
##전이
##전으로
##이프
##자이자
##니가
##시킬
##당금
##위에서
##스테
##스러운
##가정
##세는
##세르크
##모를
##공을
##공무원
##파인
##로마
##해주
##들로부터
##부총
##ER
##과이
##15
##0만
##일이
##지구
##기능
##병을
##병대
##소장
##소의
##회와
##조정
##조사를
##상과
##재현
##령의
##ab
##비트
##교수
##양왕
##ber
##즈미
##나의
##진이
##만의
##태경
##영민
##레츠
##리게
##력과
##경을
##경비
##렉션
##렉트로
##률을
##생명
##AP
##십자
##슬리
##ut
##곳에서
##점이
##메니아
##퍼드
##편을
##융합
##함과
##검사
##컴퍼니
##글스
##예방
##OU
##께서
##옹주
##최고
101
10년
2002
한국남
대한민국에서는
##위원을
##위원으로
1995
172
178
181
후보의
조선노동당
##1년에
서울시
민주주의
1986년
제1군단
132
##방송공사
160
FC는
FC의
FC로
중앙선거
참여하였다
선거를
아이디어
1971년
방송인
2월에
1942년
정의당의
사람들이
이용해
추진할
추진하는
통합민주당
것이라는
대학과
하나의
사용했다
대회인
행정복지센터
실시한
##지역본부
역임하고
포함해
사망하자
김영삼과
##대학원
##시키기
원내대표가
정당인
계속해서
사랑의
영향력을
가능한
분야에서
롯데그룹
활약하고
데이터
이정희
총리로
농업기술센터
프리미엄
이유는
이전의
페르디
요청했다
기존의
우수한
기타리스트
분석했다
기획재
보유한
주최하고
회의에서
금호산업
##계획을
오늘날
발언을
자회사인
후계자
한진칼
플레이오프
명칭을
녹색당
히로시마
영토를
근로인민
이시영
해적당
후쿠다
강력한
##수영선수권대회
Club
인디애나
##그라드
KCC
제일기획
취약계층
스카이팀
최소화
마침내
메탈리카
나아가
윤치호
##기독교
##축산식품
고지용
보르자
참조기
##벤처기업
프란치스코
레미콘
최호진
컴퓨터
클라이맥스
더글러스
유신정우회
증거장막성전
막시밀리안
김건모
김부겸
민경욱
앤서니
윤소하
자그레브
트빌리시
헬싱키
홍준표
08
2조
2군
2만
3개의
5000
6년
7개
AK
CP
Con
Cor
GM
GO
KO
LI
Ma
RC
S20
UBS
감자
강릉
개방
개봉
걸친
것도
결정을
경호
경향
고이
고발
공사
공익
과정을
관여
괴팅
교사
교섭
구혜선
궁금
기장
기사
기젤
기증
기쁘
김원
김선
꺾고
낳았다
내놓
내에서
노출
농어
눈에
뉴턴
니키
다다
담은
담긴
답변
당일
대거
대기
도교육청
도지사
동서
동독
동물
동성왕
듣고
들은
들었다
디즈
라치오
레전
로페스
루스
루이스
마르크
마치고
말한다
명령을
명절을
모건
못하는
무라
미세
민원
박원
발의
방향
벌어
법적
보살
본래
부주
부부
분노
비용
빠진
빠져
사마
사직
삼촌
삿포로
상업
상속
새로
새해
생존
서장
서포
석사
선물
세대
세조
세웠다
소외
소중한
송가인
수호
수감
수영
순간
스왈
시기
시흥
시내
시대를
실종
실험
싸우
아산
아테네
안에
안드
압도
압박
애로
얻은
엄마
없어
엔씨
연극
열렸다
오티스
올림
우루
운항
원의
원로
위성
위촉
유학
유타
유근
윤보
을지
의학
의뢰
이고
이틀
인프
인상
인생
인하여
일찍
임진
임영
자사
자발
자본
자격을
장인
장흥군
재무
재능
재학생
전성
전후
점차
정일
정말
제8
제치고
조각
종로
주간
주한
주장을
주장이
주지사
중공
중종
즉시
지나
지목
직전
직업
진정
진입
차이
차량
차원에서
찾는
찾았다
채용
철저
총대
총애를
추억
충격
측이
칼리
캘리
크라이
타일러
탄압
태극
테레
트랜
트레이
특검
팀을
파벨
판결
편의
평소
폐지
풋볼
핑크
학부
한명
한번
한반도
함평
합쳐
했고
행위
헬리
현장에서
혐의를
혜택
홋카이도
화물
확대를
후일
히트
힐링
힘든
##하늘
##였지만
##다르
##ist
##ge
##키로
##성화
##사법
##사협회
##이크
##자본
##니버
##시청
##마저
##치에
##에만
##씨를
##트릭
##안이
##파이
##해온
##고시
##고로
##프리
##정상
##정비
##부처
##ED
##문덕
##명에게
##필름
##드래곤
##타우
##타리오
##동의
##동부
##동에서
##유통
##현대
##일본
##지며
##지어
##소는
##소시
##보이
##보미
##포니아
##조한
##군에게
##수에
##수록
##방위
##체계
##팀인
##ces
##che
##ry
##어스
##야의
##코바
##인천
##교한
##양구
##ld
##행사
##영방송
##레가
##레인
##레나
##받는
##카가
##발의
##식과
##광산
##률은
##버그
##청문
##망을
##구장
##라에
##출을
##계약
##협상
##훈이
##슨은
##점에서
##량이
##중인
##중심
##처를
##목을
##DR
##율을
##율은
##료를
##더라도
##HO
##클리
##플러
##혜진
##혜왕후
##판을
##참모
##능력
##예를
##냈고
##벤션
##특보
##닛폰
##콥터
##헨티
1000
2011
2010
대한독립
##에게서
한국시
##위원장을
대통령직
120
129
일본에
정부를
국민들의
조선대학교
사회공헌
서울에서
당시에
관계가
137
##겠다는
16세
자신들의
연구를
활동했다
사업에
사업으로
기록해
기록하였다
시작한
21대
1월부터
세계적인
##ont
진행한다
진행했다고
국회의원을
천황이
천황과
3세와
삼성SD
제20대
제국주의
SK에너지
비롯하여
##ine
교수와
하나이다
##우스는
전라남도는
##ars
이에야
경찰의
경찰이
방문하여
##니아누스
주민들의
##하겠다고
여성의
총선거
광주시교육청
경제적
4세와
##기관으로
받아들이
그룹의
성공회
성공한
참가하는
개발에
역임하였다
공개한
김성준
김성진
김성태
이승옥
원내대표는
라이브
##재단은
경남대
당선된
바이올린
##체육회
마련했다
출마를
출마한
타이완
##ell
사랑하는
윌리엄스
북한의
모습으로
돌아가
##ris
아르메니아
아르헨티
##선거에서
1908년
##000억원
준비를
박근혜는
계열사
반대하는
개혁을
지금의
의혹이
이재현
##바이크
##지방법원
나타나
전망했다
경상북도
불가피
국정감
주도한
논의했다
충청남도
충청북도
파이터
후계자로
의미를
##스케어
경성대학교
##민족행위
나폴리
감사드린다
달러를
방법을
선생의
촉구했다
공직자
마스크를
후쿠오카
현대자동차그룹
내세우
아랍에
티베트
부사장
##liam
대해서도
문무왕
영산강
제16대
가맹점
젝스키스
화장품
##케스트라
누리꾼
애덤스
콘스탄티노폴리스
아름다운
파트너
##카데미
리눅스
벤틀리
한종현
노스웨스트
대막리지
우즈베키스탄
괴팅겐
레전드
유근기
을지문덕
캘리포니아
헬리콥터
09
1기
1회
2로
2루
2위를
3당
3만
300여
46
58
500
6개
7대
82
87
91
93
A의
As
Amer
Co
Col
DG
En
HDC
IC
IM
IF
Lam
Lea
Min
UC
Wil
▲문재인
가쓰
강연
강제
갖춘
개의
개국
개관
거리
거머
거대한
게재
게르
격리
겪는
견제
고토
고창
공을
공인
공차
곽상
구본
구충
군의
군대
권영
그와
그라
그림
그에게
기아
기억
긴테쓰
김호
김효
김은
김주
김만
김두
끌어
끌었다
끝으로
나주
나뉘
남로당
내정
높이고
눈길을
다가
다짐
당의
당명
당명을
대대
대단
대중
대폭
대상을
덕분에
데에
도호
도서
동쪽
동메달
되었는데
등도
디비전
딸로
때에
레닌
마흐
막부의
만화
만약
몬테
무시
무궁
미들
미네
민정당
밀라노
바다
바그
바비
박씨
박준
박흥
박태
박종
박차를
받게
밝혔
방지
배경
백종
벌어진
법원
베텔
보는
보이고
부장
부천
분류
불안
불렀다
비토
삼아
삼양
상원
새벽
서민
서재
서류
서머
선배
성향
성능
세워
소리
손에
손해
송수
숙의
스이
스베
스틸
슬로
시인
신격
쌍용
아모
아리
아담
악화
안에서
않도록
않았고
알렸다
야스
양호
양식
양향
양주시
에스파
여당
여왕
연쇄살인
열리는
예측
오세
오지
오카
오랜
온타리오
왕자의
용인
우에
우원식
위기
유고
유권
유족
윤종
은메달
이씨
이선
이달
이춘
인기가
임동
임택
입원
입대
있으나
자손
작년
장경
전파
전하고
접촉
정리
정희
정순
정복
제목
제퍼
조금
조례
주주
준장이
준장으로
중위
지소
지명을
직속
진압
청취
체제를
최용
최진
출산
출석
충주
측정
친정
칭호를
카툰
컨설팅
컴퍼니
케네
코미
코리아
탈락
태창
토트
토지
트로
트리
특채
편집
펼치고
폭스
표방
플래
피에르
하느
학사
학과
한경
항상
해야
허남
협연
협의회
혜공
호흡
혼자
혼란
홍무
홍범
화이트
화신의
후기
##하에서
##다른
##io
##ian
##op
##키스
##성의
##전과
##전쟁
##이와
##이센
##자이
##자문
##자산
##니스트
##시켰
##원자력
##호선
##마일
##서부
##스톤
##스투스
##가치
##가이다
##안부
##실히
##간다
##파일
##주가
##주군
##도우
##해왔
##해져
##해졌다
##언스
##화와
##EA
##PA
##박람
##타와
##동에
##동지
##동물
##준호
##크스
##10
##1대
##연은
##연금
##기기
##그와
##히트
##미가
##미나
##선은
##말을
##국가
##수현
##수칙
##티코
##방역
##려는
##령과
##단지
##축은행
##어도
##비의
##비로
##와이
##인력
##인들의
##교의
##교회의
##ter
##즈키
##즈는
##즈에
##감이
##역에서
##행한
##나갈
##나그룹
##제와
##제국의
##진의
##태후
##두로
##창호
##창업
##영업
##영식
##렸던
##리기
##리한
##리며
##등급
##바다
##오스
##면으로
##분이
##발을
##적은
##관련
##직에
##ID
##통을
##통운
##청을
##디스
##디션
##디움
##구리아
##라엘
##hin
##37년
##변호
##슬로
##족의
##됐으며
##브영
##운용
##슈바이크
##메이트
##메네스
##반민족행위
##RP
##훼손
##났으며
##더릭
##클로
##클린
##플라
##함을
##FL
##밀한
##액을
##글로벌
##예비치
##응급
##홈쇼핑
##닷컴
20년
##했다가
2000
2007
한국정보
151
157
15일에
대표이
대표적
광주형
광주세계
110
대통령후보
##6년에
170
175
174
후보에
후보와
후보에게
##리아의
프로이센
경기는
14대
142
143
##그룹은
프랑코
제14
130
135
이어서
##리스토
기록은
중앙정부
참여하는
##사업의
아이스하
1957년
1953년
진행하는
진행한다고
국회의원에
1973년
방송된
부산은행
현대산업개발
소속된
##ann
전라북도
시민들의
김대중의
제국이
개최했다고
때문이다
것이었다
대학생
사용하는
우리나라
장관은
경찰은
선정한
선정했다
이사벨
##로스와
설립되었다
만들어진
이름은
##하겠다는
들어서
상황에
수상자
총선을
##사회복지
중심의
1926년
인천시
독립운동가
항공은
구성원
1917년
1918년
1915년
포함하여
즉위하였다
100여
고려대학교
LG그룹
라이벌
##안전처
##안전본부
공격수
비판하였다
##개발공사
마련해
출마하여
지방자치
대학교의
대신해
대신하여
영향으로
미래통합당
1년간
돌아온
6세가
회원국
지냈고
내용의
공화국의
등장하는
이유를
전년도
전년대비
##our
연방의
제품을
통일민주당을
구축을
임시정부
##하려고
예산을
활용해
나이에
신문왕
분석한
부회장이
##00만원
금호아시아
신라의
유일하게
전해졌다
프리미어리그의
보여주
감염병
실적이
파이널
##서비스를
브라운슈바이크
연고로
은퇴한
##노동부
마이크로시스템
조승우
##ive
##ivers
거두었다
중소벤처기업
홈페이지에
판단했다
##공동체
##소방서
반응을
신속한
알아사
이바지
친일반민족행위
바뀌었다
알리기
열린우리당
바람에
부총리
북구갑
티베리우스
비중이
선제후
연예인
평화민주당을
누구나
송영길
신한은행
김준성
동신대
문효세자
아사히
아메리카
진단했다
항공사로
다니엘레
농림축산식품
김병내
대림산업
무령왕
이스라엘
카롤루스
국토교통부
MLB
고교쿠
디비시온
문희상
정현복
지하철
아틀레티코
니시닛폰
여의도
국회부의장
SPC그룹
MVP
남연군
이만희
중국인민지원
모바일
베오그라드
최상위
##세르크세스
아랍에미
League
구충곤
무궁화
박태준
백종원
베텔게
서재필
송수건
양향자
케네디
아이스하키
금호아시아나그룹
03
2AM
3연
59
77
79
85
89
9개
BB
BBC
BTS
CBS
Com
EU
EX
Fr
FK
HB
LNG
NBC
PC
So
SW
Th
TBS
UN
for
㈜오
가스
가로
가고
가리
가짜
간다
간사
갈라
강기
강요
개로
개통
개헌
거다
거룩
검모
검사를
것임을
게시
경북
경혜
고유
곡으로
공기업
관측
광화
구현
구분
구스타
국장
국비
국왕의
군대를
권고
권오
그에
기용
기대를
김도
김덕
김삼
끌어들
나주시
노사
노엘
노영민
논쟁
농가
누르고
눈물
뉴사
닐스
다루
다섯
닥터
당주
당진
당나라
대강
데모
데리고
도내
동북
두번째
드럼
드래
들고
등급
라스
러브
레나
론칭
롤링
루크
루터
류사
르네
리옹
리구리아
링컨
마감
마우리
막기
만났다
말이
말한
망명
맞은
매입
맺었다
먹고
명현
모하
모토
모았다
목사가
무기
무대에
문선
미용
바트
바젤
박일
박완
박능
박물관
반공
반박
반대로
발기
발휘
방식으로
번의
벌였다
벨파
보조
보어
보통
보이는
본다
봉사단
부서
부른
뷰티
블레어
비오
비잔
빌보드
빠른
빠르게
사는
사도
산학
삶을
상의
상회
생모
선사
성우
소독
소송
소멸
송종
수는
수장
수소
수학자
수밖에
수페르
스트리
시립
시사
시정
시각
시범
시의원
신흥
신작
신민주연합
신제품
아파
아침
알베르트
애장
야드
양평군
어제
어도비
언제
얻게
없게
엘시티
여부
여객
여동생
역학
영조
오거
오만
오경
오래
올랭
완벽
왕이
외국
외손
웨일스
위그
위험
유키
유성
유포
유출
유치를
유학생
유가족
의거
이노
이송
이르기
인기
인텔
인테르
임신
임금
입지를
있기
자민
자택
잠재
장병
재조
잭슨
저작
전선
전속
전혀
점유
정조
정광
정조의
정계에
제천
제휴
제주시
조기
조오
조별
존중
좌익
주립
주거
주전
주니치
준회원
줄리
중세
중간
즐길
증진
지향
진로
진흥
차이로
착한
찬성
창조
첨단
청산
청구
초기에
최정
최저
최후의
충돌
충북도
친선
칭기
카자
카이로
캠코
커졌다
컨센
컨소시
컴백
코치로
쿠사
쿠빌
탑승
털어
토대로
트와
트렌
티켓
패러
편찬
편지를
펼쳤
평생
폐쇄
포위
포터
프랜
프랭
필름
하자
하원
해군의
했는데
행위를
향상
허영
현직
협상
호조
호응
홍문
홍익
화재
후안
후궁
훌라
훼손
흔들
흥덕왕
힘이
힘들
##하루
##하라는
##였는데
##다니
##다이스
##장로
##장학
##전군
##의가
##의로
##의약
##사키
##사항을
##이면
##자금
##자들을
##니까
##시스트
##당했다
##당하고
##치유
##서기
##서구
##웨일스
##트와
##트라
##가며
##가격
##세자의
##안은
##안과
##안군
##실이
##실천
##실에
##실로
##임이
##임금
##모리
##공장
##공학
##공연
##파에
##파로
##파노
##아랑
##로도
##로와
##로우
##고한
##고속
##화의
##토르
##정원
##EE
##문의
##타로
##타크
##타리
##타운
##동발전
##유산
##과장은
##12
##일렉트로
##업에
##업고등학교
##연의
##기아
##기상
##소영
##농구
##보스
##보살
##회에는
##5억원
##대군
##미는
##미스
##상업고등학교
##군사
##국장은
##재해
##수사
##수도
##수석
##티움
##티스트
##되게
##되도록
##단계
##체국
##노프
##노부
##노피
##어때
##비정
##와는
##르의
##르노
##교를
##테이
##borg
##2M
##우키
##우치
##우스의
##행이
##무스
##무역
##무라
##권에
##레오
##받을
##리조
##오자
##오니
##오일
##분의
##분투
##번의
##내는
##내며
##내어
##ST
##홀에서
##여대
##여름
##강을
##블로
##심에서
##직으로
##직에서
##석은
##생을
##저축은행
##신으로
##청은
##청에서
##청소년
##캠퍼스
##구의
##백화점
##ha
##30
##담당
##MS
##론은
##브리지
##흐트
##메드
##NE
##환의
##색을
##페스트
##퍼시픽
##VB
##HC
##왜란
##플렉
##플러스
##책에
##TN
##졌는데
##택시
##추고
##피크
##피탈
##캐피탈
##친구
##OM
##렌스
##줬다
2006
한국은행
15년
158
##위원장은
##위원장이
대표하는
##까지의
11시
112
118
12개
일본을
18세
##되었다가
정부에서
국민회의
조선시대
통해서
서울중앙
선수이다
민주화
제17
134
161
이어지는
FC를
지원하는
지원하기
국가원
축구단
활동한
사업은
회장과
위원장을
중앙방역
25일에
시즌을
시즌이다
세계에서
독일군
우승으로
##사업은
아이즈
아이폰
1951년
정치인으로
1977년
8월에
##항공사
23일까지
현대중공업
1940년
소속의
사람들에게
##된다고
2021년
이용한
개최하고
전국적으로
##우스웨일스
우리공화당
장관이
선정된
학생들을
발표하였다
이사금
주장하였다
시장에
아버지가
##문화관광
##문화예술
1일부터
여성가족
임명하였다
임명되었으며
##운동에
1929년
1922년
광주시가
사건은
##기관인
##관리위원회
항공의
2012년부터
성공적인
출연한
구성되어
스타벅
공개된
김성주
김성수
데뷔했다
처음에는
2009년에는
알렉산더
알렉산다르
LG유
안전한
평가했다
제공할
##금융그룹
광양읍
5세의
5세가
어려움
환경을
1939년
마련됐다
요구했다
요구하는
결혼식을
정당이다
동생이다
매출이
분야에
지휘하는
건강을
건강한
역사적
순천시는
판매하고
진출에
선언하였다
활약한
인정받아
출전했다
##중앙회
잉글랜드의
보건소
여수시는
기여했다
기반을
유진산
자리에서
인물이다
이종걸
이승만은
명예훼손
중요하다
부문의
일으킨
일으켰다
채널을
결승전에서
불가능
상임대표
목포시
##ley
상태로
운동에
##정의학과
자회사로
고용정보
고용노동부
소유하고
여기어때
##철도공사
가톨릭교회
올리며
이웃을
출판기념
삼국유
인재를
입당하여
시티즌
이것이
작은도서관
정몽헌
준우승을
공산주의
담양군
아시안
요리토모
이성호
이벤트
이기택
Univers
가까운
스테파노
##여자대학교
업무협약
강경화
더블린
갈등을
도착한
심각한
제주특별자치도개발공사
Joh
김제시
차별화된
##ARD
받아들여
대원방송
드림스타
목소리를
정확한
제15대
고노에
가마쿠라
홈런을
##미술부
제13대
문화재청
과학기술정보
천계제
세븐티식서스
리니지2M
매카트니
서정대학교
아인슈타인
안드로이드
##안심센터
##상규명
고로쇠
남조선로동당
미카엘
비즈니스
우드빌
최연소
해운대
한국남동발전
페르디난
미세먼
박원순
부주임
엔씨소프트
우루과이
임진왜란
총대주교
학부모
Lamborg
William
거머쥐
도호쿠
스이코
신격호
제퍼슨
코미디
토트넘
##hini
중국인민지원군
㈜오뚜기
검모잠
뉴사우스웨일스
류사오
명현관
박능후
벨파스트
송종욱
올랭피크
이르기까지
카자흐
컨소시엄
쿠사나기
쿠빌라이
트와이스
중앙방역대책본부
Lamborghini
05
02
1등
1순
1층
3명
3D
3층
4강
4명이
4개월
7기
73
7세의
9시
9회
97
9일에
A씨
AP
AO
A리그
CF
Cent
DM
He
HMS
Kor
LC
LV
Mn
MD
Mar
MOU
Pet
RP
SF
USA
ZARD
bh
가이
각별
간주
감사의
강성
강태
개교
거짓
거론
거래
것처럼
경주
경력을
경덕왕
고정
고연
고백
공립
공원
공부
공관
공신
공략
과도
관찰
관리를
구자
국공
권력을
그만
급격
기다
기성
기회가
김세
김문
김보
김미
나고
나토
나윤
나중
나이지
난징
남긴
남동생
내무
네이션
넷마
넷째
노조
노선을
녹음
농민
농심
농기계
높이기
놓여
뉴질
능주
니에
닌텐
다스
다해
다문화
단식
당대
당한
당대표
대사
대외
대권
대승
덕진
데려
덴버
도달
도서관
독도
독점
돌입
돌봄
동해
동지
동창
동상이
되돌
되는데
두루
두려
뒷받
드론
드라이
듯한
디펜
딸을
때의
떠난
떨어진
뛰었다
라틴
래퍼
랜드로
레온
로이
로저
로부터
리스
리우
마거
마치
마라
마친
만남
만난
맞게
매장
매일
맺고
멀리
메가
메이지
멘토
면세
명절
모르
목사
목적
몰락
못했고
무가
무관
문보미
미키
미리
박대
박탈
박지원
반복
발급
방사
방상
배당
배터리
법과
베니
베드로
벤저
벨라
병합
병력을
보존
보좌
보잉
보이며
보이스
보이지
보냈다
부처
부품
부쿠
불어
불참
브루
블루스
비다
비유
비준
비록
사로
사형
사커
사과를
사마의
사보이
산악
삼았다
상장
상가
새만
색소
생물
서독
서인
서양
서귀
서삼
서초
석방
석탄
선호
선덕
설치를
성사
성균
세자
세월
세상을
소수
소요
소피아
소식이
송시
수주
수산
순으로
쉐보
스키
스터
스카
스톡
스케
스팬
스퍼스
승부
승진
시키
시의
시에
시가
시드
시바
신춘
싶은
아케
아낙
아들을
아브라
않게
알게
알릴
알베르토
앞에
앤드
야권
야놀
야로스와
양보
얼라이언
엄청
업계
없다고
여기에
여당인
역량을
예배
예편
오제
오신
오페
오하이
와서
완전
왕의
왕녀
외부
요하
요새
우젠
웅진
원자
원외
원칙
원하는
원성왕
원자력
월간
월광
위탁
위기를
위스키
유민
유네
유산
유길
유격
육상
율리우스
을지로
음식
음료
의용
의결
이마
이베
이범
이념
이뤘
인지
인턴
인사를
일가
일화
일상
일가가
입성
입건
입법
있었는데
있습니다
자아
자진
자금
자금을
자세한
작사
잡지
장을
장이
장애
장석
장덕
장례
장군이
장보고
재차
저명한
적은
전임
전동
전한
전역
절차
점포
점에서
접어들
정다
정읍
제거
제명
제안을
조이
조치
조세
조명
조병
조소
조던
주체
주둔
주었다
주도로
주도의
죽인
준공
중추
중에서
지주
지리
지드래곤
직을
진해
질문에
차로
차단
참전
창시
책봉
처벌
청원
첼시
총리를
최민
최형
최신
추구
축사를
출간
충분
충남
측근
치열
치렀다
침체
카트
카터
칼초
캄보
케임
코스
쿠팡
크누
타자
타격
탄소
탈출
탐방
태종
테르
테오
토너
토요
퇴위
투신
트라
특화
파기
파티
패한
펄어
페예
펠릭스
평등
폐위
포장
포드
포지
피닉스
하키
하위
하면
하계
하태경
학위를
한마
함태호
해제
호세
화산
화합
확충
활약을
황자
후지와
휴스턴
흥선대
##하위
##하학
##하진
##하라고
##다드
##ib
##eg
##gon
##ool
##는지
##거리를
##성도
##전시
##전략
##이었지만
##니카
##시당
##원한
##치면서
##서로
##가에
##가고
##가미
##세로
##세대
##세포
##안의
##안보
##뿐만
##임은
##모어
##공의
##공산
##파트
##파가
##아몬
##로가
##로써
##주주
##주신
##주었다
##루의
##루이
##해군
##건의
##고의
##고도
##프라이
##들께
##화로
##부르
##부품
##EC
##명수
##명희
##했었다
##했음에도
##드인
##골로
##박사
##박스
##타를
##먼드
##지니어
##기부
##기금
##네마
##네부르크
##소원
##소나
##소리
##홍보
##보로
##회관
##회관에서
##대병원
##미에
##미칼
##조에
##선의
##선언
##상스
##상담
##상으로
##상자원
##군다
##한의
##한국
##국립
##국에
##재난
##방안
##방과
##곡을
##산군
##되던
##용준
##령이
##요리
##단장
##단에서
##체험
##체계를
##으려
##물산
##노이
##노미
##노총
##노르트
##팀의
##팀이
##팀으로
##c치킨
##ac
##ast
##어머니
##비노
##비서실
##야수
##인사
##인에
##인조
##인식
##교구
##테리어
##bc
##2동
##23
##투표
##역사
##행복
##나마
##나를
##제일
##제철
##태를
##태훈
##권센터
##레슈
##렸으며
##리자
##리치
##리테
##등의
##었을
##바겐
##오를
##면에
##베데
##절도
##형사
##력으로
##락을
##경쟁
##경기에
##홀름
##적의
##블랜드
##심의
##광주시
##관의
##석으로
##생물
##법이
##법률
##통상자원
##청이
##청에
##디를
##구조
##매치
##입니다
##케미칼
##왔고
##85
##ho
##ss
##워스
##젠베르크
##39
##계승
##슬링
##MH
##MW
##협동조합
##론이
##론주의
##덕을
##죄를
##곳을
##점검
##브웨
##브르
##브란
##운을
##규가
##월드
##술을
##츠는
##츠를
##메르
##메이라
##집을
##난이
##환을
##환이
##환자
##음이
##료로
##달아
##GO
##쿠니
##총독
##KA
##검찰
##졌지만
##판사
##랐다
##봉사단
##캐스터
##OT
##님이
##둥이
##갔고
##ft
##렌코프
##밴드
##펙트
100년
2012
2004
200여
##에게도
한국독립
한국방송공사
154
##0년에
대한민국은
광주의
광주대
광주대학교
##회의소
##한다면
11일에
대통령인
1992
1997
125
지역으로
위해서
##8년에
미국과
176
17세기
18대
의원으로
후보자로
국민참여
##하기에
##하기를
조선공산당
조선총독
프로게이
리그에
리그에서는
14개
사회민주
서울의
서울에
선수의
선수들이
선수이자
선수이며
민주사회당
제10
제1회
제18
1380년
24시간
지원에
지원해
지원하고
국가에
연구소
활동했고
##되었던
##되었지만
사업의
사업이
시작하였다
시작한다
시작됐다
위원을
위원장으로
중앙집
중앙도서관
시즌2
시즌에서
5월부터
아이오
##민주화운동
관계자들이
따라서
##one
12월까지
진행하고
정치인
방송에
방송국
방송에서
11월에
부산경남
삼성카드
삼성생명
삼성물산
현대오일
제2회
1944년
공동선대
관련하여
한다는
이용빈
이용대
##end
추진을
프리메이라
하나인
전라남도교육청
김정호
기업으로
우리카드
국회에
경찰에
선정돼
학생이
학생들에게
발표된
이사회
이사장은
이사장을
이사장이
주장에
주장한다
주민들이
##문화재
배우로
들어갔다
이라면서
임명된
조지프
##사회적
실시하고
정책위원회
2014년부터
##로서의
참가했다
참가하였다
참가하여
개발한
역임했고
1914년
스타디움
##대회는
대전의
데뷔하였으며
데뷔전을
고객들에게
김종대
김종규
##안전대책본부
인사청문
동아시아
바이킹
환경부
1938년
1935년
선출된
선출됐다
제작진
2019년도
이적하였다
이적하여
##과학원
##증권은
미래를
2008년에
가수로
동생인
다음날
돌아와
돌아오
진보당
진보신
##축구협회
발전에
기간에
아르타크
출시한
산업통상자원
시절에는
##선거에
##으로서의
새정치민주연합
2년간
내용이
내용은
1904년
광주광역시교육청
성장할
##이라도
드라가
이정현
공화국연합
회사인
회사이다
추가로
경영권을
등장한
검찰개혁
결성한
시간이
음악을
연합군
페르난
피해자
50여
체결하고
체결했다고
통일민주당의
40개
기여할
서구을
에어아시아
지금까지
출범한
한전공
한국전쟁
경쟁력
경쟁력을
장제국
찾아가
하였으며
활용한
##크로일렉트로
도쿄에서
동양척
업무를
##바이오
반영해
유튜버
제외하고
김정은이
김정은은
일으켜
전남도교육청
광양시는
결승전
공모를
1880년
조선인민당
유니클로
교통국
기준으로
논란에
투표를
산하로
하여금
희망을
애니원
제안했다
해양치유
기상캐스터
않았던
정식으로
규모가
군인이다
군인권센터
의미가
군민들의
획득했다
조선민주주의인민공화국의
건륭제의
김해시
시설물
제출받은
합당하여
##노동조합
5년간
여기서
제19회
NATO
올리브영
##선대위
페이스북에
동맹을
받았으며
받았지만
스티브
일어나
작업을
집행유
프로듀스
투입해
##슬라비아
##ung
이루어졌다
##서울대학교
그런데
이자벨
다카우
강점기
골든이
김홍용
사무총장이
권한대행
초반에
##여자고등학교
반란을
본부장은
의정부시
협약식에는
##마이크로일렉트로
나온다
인근에서
주목을
차남으로
치러진
타이틀을
대리점
안양시
후임으로
슈퍼리그의
박영선
헤르만
IBM
IBK
ST마이크로일렉트로
김유성
사항은
성폭력
활발한
FA컵
무덤인
밝혀졌다
비틀즈
##재판소
다나카
안타까
연습생
커뮤니티
클리블랜드
국립중앙도서관
김광수
동남아시아
무엇보다
박유천
주축으로
##ight
World
북아일랜드
##ect
유니버설
ASML
김천일
다마스쿠스
미하일
서대석
스프링
콘서트
파인만
중앙선거관리위원회
기쁘다
동서대학교
소외계층
크라이슬러
혜택을
##정상회담
##현대산업개발
삼성SDS
HDC현대산업개발
마흐무
미들급
박흥주
아모레
유고슬라비아
혜공왕
홍범도
##응급의료
대표이사는
광주세계수영선수권대회
마이크로시스템즈
HB엔터테인먼트
광화문
대강당에서
드래건
모하메드
비잔티움
애장왕
조오섭
University
John
페르디난트
미세먼지
류사오치
LVMH
Mnet
bhc치킨
나윤수
넷마블
뉴질랜드
뒷받침
랜드로버
마거릿
방상훈
벤저민
부쿠레슈
비다쓰
사로잡
새만금
색소폰
서귀포
서삼석
송시열
스톡홀름
아케메네스
아낙시
야로스와프
오제세
오신환
오하이오
요하네스
유네스코
유길준
장석웅
조소앙
케임브리지
토너먼트
페예노르트
프로게이머
현대오일뱅크
프리메이라리가
아르타크세르크세스
부쿠레슈티
1인
14년
1라운드
2번
2위로
3루
3일에
300만
3개월
5선
5번째
500여
6시
63
600
6일에
7년
72
74
83
92
Air
A씨가
A매치
Bo
Du
DB금융
Ex
Fo
For
Ge
GC
IP
Mo
NL
Pr
PS
Sw
SC
TS
TH
WW
YTN
△김
가시
가세
가득
각성
각지의
간섭
갈수록
갔다
강간
강병
강하게
강사로
개성
거행
거제
거치며
것이며
겐지
격상
겸임
경진
경신
경선을
계통
고다
고성
고가
고은
고명
고곤
공민
공고
공화
공학
공수
공중
공예
공양왕
과목
광동
교학
교보
교환
구사
구민
구로
구하기
국순
국군의
귀성
균형
그로
그랑
그쳤
그렇게
기도
기보
기요
긴메이
긴밀한
김장
김모
김포
김산
김양
김옥
김남
김혁
김창수
김철우
꿈꾸
날개
남해
남동
낭만
내에
내고
냈다
너는
네티
노부
놀라
누가
누적
뉴저
다소
단행
단절
단순
단장은
담고
당헌
대성
대로
대기업
도박
도요
도카이
돕는
되지
되던
되면
되도록
뒤에서
듀공
드래곤
득점을
들여
디트로
딸인
뜨거운
라마
라파
라그
라우
라온
러셀
레인
레바
레버
로코
로즈
로만
루시
마포
마신
마쳤다
막을
만일
만슈타
말해
매진
맥도
머리
머신
먹는
메뉴
면담
명품
명나라
모은
모으
모후
모집
몰아
못해
무선
무등
무슬
무라트
문자
물려
물어
미스
민방
밀양
밀레
바스크
박지
박기
박선
박삼
박수현
발레
발달
방위
백승
벌금
벌이고
법학
법인
벤피
변수
변신
별도
보아
보기
보병
보육
보험
본인의
부하
부다
부합
부각
부속
부친
북방
분당
분할
불거
붙여
비시
비고
비스트
비서관
빅히트
빛가
사다
사우
사돈
사우스
삼고
삼척
상자
상위
상표
상권
상담
생일
서거
서지
서병
서경
선의
선서
선관
선덕여왕
성을
성황
성종
성직
성추
성장을
세부
셰이크
소닉
소셜
소장은
소송을
손녀
송도
송진
송갑
송귀
쇠퇴
수가
수완
수구
수혜
수산물
숨겨
쉽게
스퍼
스케이
승인을
시조
시군
시점
시책
시네마
신자
신민
신형
신중
신앙
심지어
씨에
씨를
씨에게
아세
아기
아바
아델
아웃
아티스트
안상
안나
안심
안마의
알프
야노
양주
양승
어른
어떠
언니
얻고
없고
없었던
없었고
에렌
에르도
여사
여단
여당이
여왕이
역량
연애
연말
연관
연휴
열심
열렸던
영주
영유
오다
오열
오라클
왓슨
왕이다
왕세자
우체국
울런
워크
원수
웨스트
웨슬리
웹툰
유의
유정
유한
유교
유입
윤희
음성
읍면
의식
의회의
의사회
이효
이모
이한
이진
이두
이든
이밖
이들이
이들을
이글스
익산시
인용
인력
인연을
일은
일단
일궈
일이다
임기
임상
임무
임기를
임기가
입은
입찰
입헌
입장에서
자라
자극
자율
자민당
작센
잡은
장군의
재가
재미
재창
잭슨의
저지
저희
저항
저술
저비용
전용
전부터
전분기
절차를
점이
점프
점점
정민
정미
정재
정남
정하고
제자
제고
제후
조언
조인
조진
조성을
존경
존속
종결
종종
주의
주세
주역
주석
주신
줄어들
중재
중반
중견
중학교
중의원
증명
지니
지식
지중
직책에
진정한
짐바
집회
창기
천문학
철거
철학을
청자
청문
청주시
체제로
초콜
초빙
총무
총장은
총장을
총력을
총사령관
최광
최태원
최경환
최하위
추측
추경
추혜선
충족
취항
측에
치세
카산
카디
카드를
캐벌
캠프
콜센터
쿠폰
크롬
크리에
클로
클랜
키우
타슈
태조
터뜨
터미널
퇴사
퇴진
트윗
트레이드
파르
파커
판정을
팔로
패하고
페데
평안
평론
포에
포고
포인트
폭발
표시
표명
표준
표기
피의
피겨
하사
하시
하비
하버
하늘
한니
한병
한층
합당을
해명
해석
해밀
해피
행동을
허락
허가를
헤어
헤센
현금
협동조합
호수
호그와
홈쇼핑
화가
화려
화제가
황금
회고
후인
후속
훌린
휴대전
힐베르트
##하우스
##ik
##og
##립중앙
##성장
##사다
##사실
##사람
##이상
##이즈
##이닝
##이었으며
##이었으나
##자스
##자고
##자들
##천군
##당했고
##당하자
##당위원장
##위해
##호에
##호로
##치지
##치쿠
##에셋
##서의
##서양
##서에서
##스팅
##스컵
##스와의
##가이자
##민이
##민은
##안타
##임대
##모에
##모와
##간을
##간호
##파는
##아키
##아동
##아와
##루에
##도와
##해진
##해설
##건이
##건축
##건으로
##프가
##화는
##화부
##토록
##정지
##부원군
##학이
##명사
##박한
##동시
##동민
##유치
##유화학
##과에
##과제를
##현의
##크는
##크리
##13
##0억원
##업을
##업무
##연이
##애국당
##지마
##지사를
##기사
##기자
##기적
##네이
##네트워크
##소생
##그리
##홍석
##보며
##보육
##보증
##히로
##6억원
##대부
##대리
##대왕
##대응
##대변인
##미의
##미아
##포드
##조부
##조지
##조판
##상선
##상생
##군에서
##한을
##국토
##수리
##노인
##팀은
##팀에서
##cy
##ag
##어는
##어야
##비행
##비오
##인들은
##교가
##터는
##터넷
##테스
##평론
##ly
##즈네
##즈를
##감한
##감염
##작전
##근무
##우가
##우고
##우먼
##나게
##제작
##무사령부
##진상규명
##랑주
##권과
##권에서
##창희
##영화
##레는
##레톤
##리칸
##등한
##등록
##바시
##바야
##바오
##바라
##오케스트라
##헬기
##헬스케어
##면이
##카쿠
##40
##분간
##형제
##있던
##있게
##SE
##식에서는
##강의
##심과
##광양
##종과
##관리에
##석의
##법의
##IP
##IL
##신세계
##청과
##청으로
##켈레톤
##디네
##설을
##설이
##캠프
##구급
##라면
##라비아
##ys
##sw
##급을
##38
##9회
##출된
##십을
##찬을
##계가
##계열
##계좌
##MC
##MBC
##vin
##ple
##훈처
##질의
##브스
##겸의
##규제
##규직
##메리카
##품질
##품안전처
##센트
##따라
##푸르트
##DA
##때까지
##페이스
##달라고
##GA
##금지
##퍼레이션
##총회
##총괄
##았으나
##패로
##플레이
##함이
##졌던
##판이
##판에
##판매
##봉길
##삼다
##촌공사
##친화
##OW
##WC
##암동
##ff
##벤져
##렬한
##싸고
##듯이
##맞이
##맞춤형
20일까지
10여
108
103
##하였을
한국중
한국프로
156
15개
대한민국을
대표하여
##까지도
광주신세계
대통령으로
대통령비서실
1999
이후의
이후에도
지역인재
일본은
일본에서
함께한
함께하는
미국은
미국프로
18일에
##되었다는
정부서울
국민이
국민에게
국민들이
프로리그
경기에
경기에서도
사회학
서울시장
선수들
##였다고
제11
제1기
제12
##교육에
13세
139
이어갔다
FC가
FC와
FC에서
FC와의
지원한
지원했다
지원사업
연구에
축구팀
활동에
활동하면서
중국인
회장으로
##센터는
##센터장
##센터에서
시작하여
위원으로
중앙선
중앙위원회
중앙기상
참여하고
3월에
7월부터
세계의
세계에
세계적으로
9월에
선거는
5월에
##사업회
##사업단
아이를
운영을
운영한다
1965년
1960년대
30여
진행해
진행된다
영국군
영국에서
정치의
정치에
정치인이다
국회의원과
천황을
UEFA컵에서
3세에
사이클
사이에는
현대모
##레이만
1947년
그러자
##의회는
육군의
전쟁이
전쟁에서
관련한
사람의
사람들은
시민단체
##ens
27일에
SKC
통합당
통합한
개최한다
유럽의
##inci
대학원
대학에서
김정일의
##are
##arl
사용하고
우리은행
우리금융
장관에
선정되어
##산업진흥원
발표하고
주장한
주장하는
##기업의
설립을
아버지는
만들고
##하자는
##문화를
대회에
들어간
상황이
임명했다
물리학상을
수상한
수상자로
정책위
1927년
1923년
광주시는
경제학
사실은
사건이
4세의
4세가
창당하여
멤버인
출연하는
##기술원
결과에
##정치를
개발을
##ice
##ical
##이었다고
100만
사망했다
이승훈
대한항공은
김영삼의
고려대
제주삼다
대구시
##정부의
LG화학
시리즈에서
##협회가
평가에서
강진군은
인사들이
제공한다
브라우
##고등학교를
5세와
최근에는
선출되었고
제작한
기독당
졸업한
졸업생
공화당의
타이베이
특별한
기대치를
정당으로
대학교에서
과정에
영광군은
영향력
미래에셋
북한에
정권이
6세의
분야의
지휘관
발전시켜
지도자로
KBS2
아르테
출시된
총재가
총재로
판매를
진출한
혁신적인
협력해
기관의
1909년
광주광역시장이
내년부터
선언한
활약하였다
대변인을
준비했다
차지하고
차지하였다
기술을
출전한
기념해
탈당하여
베이비
엔터테인먼트의
검찰에
법무법인
법무부장관
##ett
공연이
##이익은
개혁국민
그녀를
마르틴
승리한
구단이
구축하고
보내는
크리스털
전략적
지금은
유진투자증권
의혹에
이재용
자리에는
존재한다
KTX
담당하는
요시노
##카드의
광산구갑
언급했다
행사에
나이가
발견한
황제인
다이아몬
부문에서
2004년에
합병을
1999년에
본격화
주최하는
드러머
드러났다
SMAP
GS건설
노래를
산하의
상태에서
소통의
확정되었다
##드리게
나가겠다
전해철
박헌영의
농협중앙회
블루윙
추천을
##공업고등학교
2020학년도
김동현
소프트뱅크
아프가니
명칭이
한화건설
제출한
하이젠베르크
귀족들은
##ational
헝가리의
오스트리아의
니콜라
연결하는
제7회
제7사단
지시했다
표현을
콘스탄티노스
거두며
근로자
기본법
부진한
와이즈
##지도자
중화인민공화국의
가경제는
관심과
스티븐
초기에는
자이언츠의
상당한
연주자
창업주
##소방본부
남부대학교
남부발전
내셔널리그
불리한
불리게
수요가
정몽구
국제공항을
대부분의
이로써
Clar
경선에서
이론을
출생으로
페이서스
득점왕
발탁되었다
빅토르
야마토
야마모토
재판에
주재로
##ide
##청년단
##디아라비아
540
스트라이
식품의약
전남대병원
김희선
김희철
나누어
케이블
플라톤
대통합민주신
봉사활동을
송영무
조원진
콘텐츠를
효과가
##udi
NHL
모리뉴
아사미
아메리칸
올스타팀을
이르러
##테크노
##ardo
분위기를
조건으로
Leon
김석기
성폭행
실질적인
있었기
형태로
4대강
격파하고
둘러싸고
마티아스
잘못된
허브로
프랑크푸르트
아우구스투스
오리온자리
박주선
박찬종
유스티누스
유스티니아누스
이화여자대학교
일리노이
지키고
초고왕
커뮤니케이션
##대통령후보
타이거스
CSKA
유대교
유관기관
이경선
국가보훈처
개그우먼
레코드
음주운
이순신
이채익
조계종
최성원
##우주연
##협의체
061
DeNA
마인츠
숭정제
알바니아
체감할
키움증권
##bert
기획재정부
근로인민당
KOF
기장군
기젤라
디즈니
스왈로스
시내버스
올림피아
윤보선
철저한
America
고창군
곽상도
김두봉
나뉘어
바그다드
윤종필
임동혁
##연금공단
한국정보화
중소벤처기업부
친일반민족행위진상규명
경혜공주
권오봉
동북아
박일준
수페르리가
오경수
자민련
자택에서
준회원인
최저임금
프랭클린
##비정규직
스타벅스
드림스타트
과학기술정보통신
김문수
나고야
벨라루스
야놀자
치열한
캄보디아
포지션은
##지니어링
중앙집권
동양척식
아모레퍼시픽
DB금융투자
광동제약
귀성객
네티즌
디트로이트
라파엘
라그랑주
레바논
빛가람
사우디아라비아
송갑석
송귀근
스케이팅
울런공
이밖에도
짐바브웨
창기라이
초콜릿
크리에이
타슈켄
페데리코
포에니
하비에르
해밀턴
정부서울청
식품의약품안전처
1시
1녀
13년
2명
2연
2남
23년
2경기
2개의
2NE
3시
3선
3녀
30년
3번째
3000
4시
4명
4번
4개의
5만
86
800
8세의
9년
9일부터
An
AR
AT
Audi
Bl
BI
BC
BJ
Bri
Bla
CR
CIA
CNN
Da
Dan
Dra
Eur
FS
FNC
Go
High
JTV
J3리그
KA
KIA
LED
Mi
Met
MTV
NET
Pe
Pa
Pl
Pro
Sc
Sp
Sch
SHO
TJ
Tri
Tim
VR
Vol
△문재인
가의
가타
가려
가야
가쿠
간신
간편
갈문
갈릴
갑자
갑질
강사
강호
강제로
강아랑
개명
개칭
개정을
거기
거친
건문
걸고
걸프
걸걸
검은
검정
게다가
격화
격차로
견인
결선
결합
경의
경비
경무
경력
경질
계비
고립
곡을
곳의
곳에
곳으로
공적
공약을
공석이
과장
과반
관리에
광개
교도
교향
교장으로
교직원
구역
국산
국회를
군을
군사를
궁정
권위를
귀속
귀환
그럼
그랜드
그들을
그레이
그쳤다
극장
극복을
근본
급행
기갑
김의
김평
김무
김윤
김택
김봉
김춘
끌고
끝까지
나다
나무
나설
남도
남방
남겨
남쪽
남창희
낮은
내지
내보
너기
넘는
넣었다
네스토
노원
노비
논평
논평을
누이
뉴딜
느다
닐슨
다할
다리
다채
다녀
다룬
다르게
다비트
달려
당해
대정
대행
대변
대담
대항
대국민
대회를
대의원
도심
도청
도민의
독재
돈을
돌려
돌격
돌풍
동의
동작
동행
되었으나
둔화
뒤로
드디어
든든
듣지
들을
들뢰
등판
등에게
디에
디렉션
따서
딸이
때에는
라이트
러시
러요시
레제프
레우키
레슬링
로제
로런스
로드리게
루벤
루가니
리베
리승
리비아
리모델
마시
마티
마코
마돈
마저
마찰
마닐
마라도
막아
막강
만세
만네
만력
만료
말은
말하는
맛있는
맞고
맞춤
맡게
맡았던
매력
매직
맺은
맺으며
머무
머리를
모모
모문
모범
모색
모멘
몸을
못하였고
못했던
무너
무예
문경
문성왕
묻자
미스터
미치는
민의원
밑에서
바가
바리
바디
박마
박문
박두
박경
박석
박윤
박소영
밖으로
받기
발사
발트
방지를
배임
배정
배제
배달
백성
백인
백두
밴드의
버팀
베아
변화를
보인
보궐
보아르
복용
볼을
봉기
부과
부구
부상을
부위원장으로
북대
북베트남
불의
불린
불편
불만을
블로
비행
빈곤
빌바오
사바
사변
사반
사장과
사카이
상실
상주
상당의
상품을
새뮤
생인
생겨
생방송
생제르
서리
서남
서브
서북
서쪽
석권
선화
성화
세미
세포
세금을
세군다
셀레
소니
소용
소경
소홀
속의
솔로
송중
송하진
쇼트
수수
수제
수료
수능
수사를
숙박
순치
순창
숨진
슈에이
스크
스포
스와
스윙
스칼
스밀
스포르
스즈키
스켈레톤
슬기
슬리
승려
승객
시현
시나
시달
신하
신주
신무
신분
신경
신차
신입
신혜
실습
실장이
실력을
실적을
심장
심문
심폐
싸움
쌍둥이
써브
쓰는
아는
아크
아쉬
아카데미
아리스토
악플
안보
안젤
안중
안토니
안재현
안창호
않다
않자
않겠
알사
앙주
앞세
앞둔
앞에서
애국
앨런
야가미
약탈
양세
양자로
양성을
어우
어디
어워드
억제
얻을
얻었다
얼음
없다는
에프
에두
에픽
에피
여주
여당의
여사는
연안
연재
연초
연이어
열정을
였다
영남
예하
예루
예고
예를
오이
오시
오고
오락
오버
오빠
오일러
오마이
오디션
옹정
옹진
와중에
완공
왕립
왕은
외에
용병
우엽
우르
우리가
운전
운명
운용
운전자
울리히
웃음을
원주
원조
원광
원료
위로
유임
유래
유러
육성을
윤성
윤씨
융합
의정
의병
의무
의존
의장은
의장을
의장으로
의석을
이민
이부
이준
이소
이양
이완
이규
이긴
이견
이븐
이치로
이같은
이즈미
이곳에서
인하
인기를
인테리어
일원
일치
일에
일간
일로
일명
일대
일선
일하고
일원이
임씨
임지
임태훈
있었으며
있느냐
자립
자부
자랐
작전을
잔류
잡았다
장마
장비
장영
장식
장윤
장난
장용준
재고
재즈
재계
재편
저격
적합
적었다
전원
전도
전지
전담
전한다
전신인
정빈
정문
정유
정체
정형
정계
정당을
정도의
제니
제네
제갈
제우스
제도를
제목으로
조종
조반
조치를
조메이
조제프
종류
좌우
주시
주필
주연
주가는
주니어
준수
줄기
줄어
중산
중이던
즐거
증손
지고
지연
지불
지질
지닌
지키는
직위
직면
직전에
진학
진평
진심
진패
진덕여왕
질문을
집에서
찍어
차명
착수
참모
참배
참의원
채권
천마
천문
철회
철학과
철학자
초에
총동
총회
총수
총리는
최악
최문
최기
최윤
추미
추락
축산
출동
출입
충격을
충당금
취리히
치유
친한
친수
침략
카츠
카메
카스티
카르타
칸국
캐롤
캐스팅
커버
컬렉션
컴파일
코치
코너
코비
콘셉
콜로
쿠르
크다
크고
클라인
탈환
태국
태광
테니
통보를
투자유
튜더
트루
트랙
트윈
특징
파워
파울
파괴
패키
패럴
팬들이
팬들의
페인
페냐
포트
포로
포럼
포항
포로로
프린
플뤼
피오
필두로
하모
하드
하던
하차
하얀
하랄
하기도
하다가
하더라도
하와이
학위
학원
한수
한겨
한글
한혜진
할리
함대
함소원
합리
합계
항소
해에
해안
해도
해를
해왔다
허목
헌납
헤라클
헬무
현정은
형인
호치
호를
호심
호칭
호평을
홍성
홍남
홍승
홍명희
화제
황족
회동을
후배
후에도
후신인
훌륭
흥미
흥분
##하모
##하길
##ek
##키의
##키아의
##거를
##전성
##전사
##전자가
##의에
##사시
##사례
##이지를
##자리를
##자금을
##니타
##니그
##시절
##시했다
##시스코
##당해
##위성
##원군의
##호의
##호가
##호기
##호영
##마에
##마절도
##허가
##외과
##빈이
##치게
##에스티
##서와
##씨와
##스콘
##트랙
##트레이
##가리
##가에서
##효과
##세종
##실장은
##공공
##공유
##공수
##공개
##공예
##파르
##아우
##아르트
##로니
##로코
##로메
##로스의
##주간
##주권
##주식
##주얼
##주기를
##루는
##도에서
##해방
##해달라
##언론
##고에
##고용
##고와
##고등
##화하는
##토리
##정위원회
##부사
##부발전
##문트
##학의
##학습
##학위를
##학박사
##명왕
##드림
##골프
##타니
##타임
##타비아
##동원
##유역
##유식
##유니버
##현이
##현실
##크와
##크라
##일선
##연히
##연료
##지기
##지회
##지노
##지인
##지영
##지검
##기본
##기반
##네시
##소통
##소송을
##그래
##농민
##보안
##보수
##보면
##회에서는
##히코
##히메
##5000
##대사
##대신
##대항
##미로
##미터
##미츠
##포럼
##조차
##조직
##조참
##조부인
##상욱
##한이
##국에서
##재성
##재원
##재형
##재경
##방을
##방에
##방항공
##살렘
##용역
##축을
##물의
##물로
##물질
##팀장
##cm
##ai
##어의
##비에
##비스의
##르가
##르를
##르베
##르헤
##코치
##인수
##교실
##교로
##터를
##테고
##테나
##양을
##ball
##lin
##21
##2일
##투아
##투표를
##역량
##행사를
##나드
##나미
##제당
##무용
##무열
##진으로
##만공사
##만드로스
##랑이
##태자
##두는
##결과
##결과를
##권도
##권익
##창조
##영이
##영주
##황의
##황후의
##탑을
##받게
##받았으며
##렸지만
##리다
##등을
##오고
##면에서
##각을
##각지
##카의
##카스
##4회
##46
##4억원
##분권
##분쯤
##분기에
##남방항공
##내용
##절한
##경과
##강화
##심이
##데오
##데리크
##차기
##차량
##버린
##관과
##취를
##탁구
##생들을
##I의
##IT
##AN
##신용
##신민당
##청장을
##증진
##설에
##설명
##펠트
##구가
##구라
##매김
##라리
##라데
##라딘
##케어
##7기
##7억원
##80
##ment
##속을
##항만공사
##슬란
##협약
##론의
##덕션
##ver
##BN
##족을
##슨과
##점기
##중이
##운중학교
##복합
##목이
##목원
##메스
##음악
##쓰기
##큐리
##큐슈
##금의
##배를
##채용
##쿠젠
##FTA
##컨덕
##TC
##판은
##층의
##삼공사
##궁주의
##예약
##커뮤니
##올리
##뤼네부르크
##친왕
##져야
##활성화
##OS
##겼던
##맥을
##뮤지
##뮤직
##염을
##폴리
##za
##촉성
##놓고
##셨다
##묘한
10시
105
10대
102
10일까지
##하였기
대한체육회
대한축구협회
대한애국당
한국이
한국농
한국어
한국항공
한국도로
15대
153
대한민국이
대한민국에서
대표발의
광주방송
광주광산
광주여대
##회의에
11세
대통령에게
1993
121
127
지역은
지역특
지역주민
##5년부터
미국으로
171
17개
18일까지
의원총
의원직을
후보였던
##리아노
정부로부터
국민을
국민들에게
더불어민주당은
##시아드
##대학교에서
프로모
프로덕션
경기장
리그가
140
144
사회당은
##스트리
선수들을
민주국민
민주통합당
민주노총
1세에게
1980년대
관계는
관계기관
되었다가
자유한국당의
자유한국당이
##교육의
민주당을
민주당계
이어받은
24일에
활동이
활동과
프랑스는
프랑스에
중국남방항공
회장인
기록했고
##ering
시작해
시작했고
시작했으며
중앙은행
중앙재난
참여할
참여하지
시즌의
시즌에는
교육은
교육청
교육과정
1월에
1월까지
세계대전
##라이브
선거가
선거구
우승한
##사업인
##사업으로
##사업본부
아이템
30일까지
아들이다
진행되는
국회의원으로
국회의원직을
1972년
천황으로
국제교류
3세를
참석하여
사이언스
현대아
문화관광
문화유산
제25
제2공화국
제21대
22개
22일부터
6월부터
육군본부
육군사관학교
소속인
##ank
사람을
사람으로
사람에게
사람들을
##국민회
시민에게
##enn
추진한
통합을
개최되는
교수를
대학의
대학일자리
전국에서
전국동시
하나님
##ary
기업이
기업체
올해는
사용한다
순천교육지원청
##이트는
##이트를
##산업을
##산업의
출신이다
방문한
방문하는
있었다고
MBC경남
설립자
설립되어
시장의
시장에서
주민과
주민들에게
##문화재단
대회는
대회로
문제에
문제점
상황이다
임명되어
임명되었고
루이지
##운동의
##운동연합
물리학상
물리학자이다
행정관
##사회단체
실시한다고
정책과
##발전을
광주시당
자동차이다
아니었다
국민의당을
통일교
##사단은
##관리실
받아야
창당하자
항공기
2012년에
참가해
참가한
출연한다
결과는
##지역에
구성하여
1916년
영화배우
태어났으며
포함되어
##대회에
##ick
##ics
즉위하여
전북지역
김영삼은
고려해
대전방송
대구도시
대구보건
데뷔하였다
데뷔하였고
마이니치
보수당이
보수당은
##시키면서
29일에
330년
LG생활
생각을
생각이
시리즈의
시리즈를
##ate
안전과
안전관리
제공하고
비판을
동아일보
동아에스티
바이든
바이러스
##왕후는
1933년
1930년대
마련하겠다
박정호
발생할
발생했다
요구를
요구한
제작된
제작하고
조성에
결혼을
공화당과
국립과학
국내외
국내로
국내에서
타이이프
특별행정
기대감을
경우가
확대하고
##경기서
대학교를
어머니가
레이블
레이더스
왕조는
왕조가
영향이
설명회를
노동당의
돌아갔다
이끌었다
이끌었던
청와대가
가능하다
분야를
지휘자
직원들이
롯데홈쇼핑
발전과
역사학
전주방송
지지하는
노력해
아르슬란
출시했다
출시한다고
시절의
시절부터
##관광공사
기관으로
유지할
유지하고
1906년
광주광역시의원
과거사
과거에
내년도
메이크
데이브
데이비스
정보통신
준비에
준비하고
차지하는
인정했다
회사에
탈당하였다
경영지원
등장한다
주관으로
##환경청
계열의
해당화
##협의회를
단체인
대선에
예상보다
##스티벌
##str
2005년에
폴란드의
확보에
비례대표로
올라주
기반의
기존점
대응을
보도에
보도가
전략을
##정책을
##진흥공단
2000년에
1997년에
이재준
자리잡
자리매김
존재를
KTB
기타큐슈
이동녕
인물이
활용할
##교통공사
이종욱
김재연
노동계
반영한
반영될
제기한
중요성을
##지방경찰청
##지방선거에서
부문에
전남도청
채널에
국방위원회
2차전
드러냈다
인민군
1887년
발매되었다
슈퍼맨
슈퍼컵
유니콘
유니폼
교통방송
변호사는
연기한
영입하면서
위치에
이듬해인
남편이
언론에
CJ제일
김태호
김태은
내각의
달성했다
보여이
2003년에
포르투갈의
서울특별시교육청
새누리
않았을
의료관리실
규모로
소방안전본부
개인적인
경험이
사퇴하면서
제조업
제조업체
클라크
클라우
클라우드
##독립운동
브리트니
획득하였다
김수민
나라를
아나톨
음반은
한화그룹
홈페이지를
##받았다고
수준을
시설을
제출했다
##ass
##협력특별위원회
뮤지션
아마존
여기에서
이란의
주식회사는
최우선
하인츠
##리어스
네트워크를
세종시
이강인
이강훈
히로히토
1899년
1897년
마음이
마음으로
선보인
유재석
##상공회의소
##국제공항
세력의
인재로
정신적
평양을
반발하여
소개했다
이것을
일어났다
지배를
##혁신도시
상당히
약속을
약속했다
이건영
프레더릭
프레데리크
기능을
남자친구
카페가
##스토어
지역사회보장
여운형이
반응이
신동아
암살되었다
외교관
유벤투
정종원
차례로
부산시당
인디언
해리슨
SNS에
강점기에
김경징
미군정
발탁되어
방영된
사무총장
업체인
가까이
관람객
권한을
대책을
스테아우
한국인터넷
기자회견에서
JTWC
그래도
김용환
정의개발
베네딕트
교류를
밝히며
베르너
응급의료
장악한
제도혁명
카카오톡
840년
Joy
김승수
높아지고
마산상업고등학교
문효세자의
아라곤
엑스원
여론조사
영산대학교
이르렀다
건축가
고종후
그것을
긍정적인
분위기
비교적
장학금
장학금을
죽음에
진급하였고
##apa
1593년
여러분의
간담회를
김석준
무사시
이스마일
플로리다
준우승에
자원봉사자
김한길
동원해
무료로
사임하였다
이익을
폭로했다
하회할
하회했다
##평화협력특별위원회
사회복지시설
무한도
민선7기
박주현
휘그당
해양수산부
권유로
기소된
산림조합
십자군
안티고
안티오
연남건
우상호
정태옥
##기록을
1481년
브리핑에서
개그맨
관악구
구수왕
구수왕의
대안신당
동일한
소녀시대
자한기
정재학의
할아버지인
허위사실
허가이
효율적인
##로브스키
##port
명예회장을
조선의용군
Science
Sciences
가와치
고등학생
광역권
문의하면
베를린
베이스볼
오프라인
클레그
히어로즈
플레이오프에
AK플라
Corpor
마르크스
서포터
압도적인
연극배우
이틀간
정일형
종로학원
추억을
한국시리즈
아르헨티나
영산강유역
DGB금융
Eng
거리두
구본무
권영진
그라나다
기아자동차
김주열
다짐했다
대대적인
비토리오
삼양식품
쌍용건설
제목의
폭스바겐
허남식
홍무제
##해왔으며
##수칙을
브라운슈바이크뤼네부르크
농림축산식품부
아랍에미리트
Soci
가리키는
데모크리
레나토
르네상스
마우리치오
문선명
박완주
부른다
이노우에
줄리언
칭기즈
프랜시스
허영인
호응을
##플렉스
LG유플러스
USANA
니에토
동상이몽
레온하르트
무가베
불어넣
사보이아
시드니
엄청난
을지로위원회
조병옥
지주회사
태종무열
펄어비스
##리테일
조선총독부
사회민주노동당
집행유예
대리점주
ST마이크로일렉트로닉스
아낙시만드로스
WWE
경진대회
고다이고
국군의무사령부
김옥균
김혁종
뉴저지
레버쿠젠
무슬림
부다페스트
열심히
지중해
최광호
하버드
한니발
화려한
##립중앙도서관
##조판서
##벤져스
한국프로축구연맹
중앙기상대
개혁국민정당
스트라이커
Leonardo
한국정보화진흥원
동북아평화협력특별위원회
##비정규직센터
동양척식주식회사
타슈켄트
2NE1
TJB
갑자기
걸걸중
검정고시
광개토
김평모
너기츠
닐슨코리아
다채로운
디에고
리승엽
리모델링
막강한
만네르헤
모문룡
모멘텀
박두식
백두산
보아르네
부구욱
북대서양
새뮤얼
세미컨덕
셀레우
슈에이샤
스와로브스키
스밀레츠
심폐소생
써브웨이
안젤리나
안중근
예루살렘
우르비노
유러피언
적합한
조반니
조제프루이
총동창
추미애
플뤼겔
하랄드
한겨레
헬무트
홍승활
##하모닉
##커뮤니케이션
한국도로공사
중앙재난안전대책본부
대구도시철도공사
대구보건대학교
LG생활건강
특별행정구
지역사회보장협의체
스테아우아
AK플라자
영산강유역환경청
01
07
1사
1박
1면
1심에서
2승
2배
2층
2일에
2라운드
3남
3점
4일에
4번째
5일에
500만원
69
6일까지
6번째
6라운드
7시
78
8시
81
8대
8강
8명이
Am
AB
AG
BA
CA
CC
CK
DOC
Dev
DVB
Ed
El
Fou
HA
KG
KNN
Lud
Lov
Man
OB
OD
OST
Ph
Per
Par
PFC
Pea
PGA
Papa
Qu
Sy
TNC
Ul
Vinci
WTO
del
kbc
▲김
▲광주
△6
△광주시
가평
가질
가하고
가평군
각자
각기
간접
감동을
갑작
갔고
강타
강소
강령
강영
강령을
강하늘
갖는
같아
개원
개척
개선을
거점
거라고
거리가
거슬러
거점으로
건문제
걸린
걸그룹
게리
게이트
겪은
견당
결장
결제
경남도
경북도
경로당
계명
계몽
계양구
고전
고마
고스
고병
고수
고리
고쳤
고혜진
곡은
골로
곳에서
곳곳에
공국
공손
공채
공의회
공정한
공로로
공혜왕후
과연
과제
관장
관철
광한
교과
교양
교구
구원
구국
구별
국고
국경
국왕이
군이
군산
군대의
군인으로
군민의
권정
권희
권익
권리를
권리당
귀여
규탄
그루
그램
그들이
극우
근황
근친
금정
금강
금액
급락
기리
기각
기침
기저
기후
기하학
긴장
김충
김범
김철
김복
김민주
깊이
끝나고
나비
나날
나왔
나눌
나바로
난을
날렸다
남기
남궁
남베트남
남인천
납치
낳은
낳아
내일
내기
내어
내달
내야수
넘게
넣고
넷플
노현
노보
농가를
농민의
농수산
높다
높였다
뇌물
다름
다쓰
다큐
다윗
단연
달아
달빛
달콤
달하는
담아
담겨
답했다
당에
당에서
대니
대마
대에
대만
대왕
대관
대법
대패
대륙
대화를
대승을
대회의실에서
더비
데카
도사
도덕
도약
도트리
독거
돌고
돌핀
돕기
동거
동장
동화
동명
동네
동방
동영
동경
동백
동반
동로마
돼지
돼지고
되풀
되기를
두었다
뒤이어
드루
드린다
디스
디아
디나
따로
때인
떠오
뛰는
뛰고
뛰어들
뜻깊
라오
라카
라울
라쿠
라스티
라운드
람사
랭킹
레흐
로맨
루프트
루도비
류한
르브
리틀
리투아
마마
마법
마녀
마스터
막부를
막부는
많아
말에
말갈
말하고
말에는
말하기도
맞다
맞대
맡는다
매장에서
맥주
맺어
머스크
머큐리
먹거리
멀어
멋진
메드
메디
메브
메츠
면허
면접
면에서
명실
명인
명으로
명성을
명맥을
모임
모터
모양
모뉴
모닝
모욕
모회사
모기업
모르는
모로코
목격
몰래
몸담
못난이
묘소
무학
무력
무신
무패
무함
무찌
무거운
무죄를
문주
문인
문덕
물을
물적
물량
물의를
뭉크
민자
밀리
바치
바실
바샤
바레인
박은
박해
박람
박차
박순
박승
받는다
받들어
발효
발동
발저
발움
밤에는
방시
방식
방글
방식을
배상
배려
배틀
배울
배재학
백기
백제
뱅크
버리고
번도
번이나
법제
베른
벤츠
벨기에
벼슬
변재
변창
별도로
별도의
병무
병원으로
병원에
보임
보상
보비
보게
보류
보태
보완
보낼
복구
복음
복잡
본사
본인이
본회의를
본관은
봤다
부당
부지
부제
부적
부녀
부대의
부진을
부부는
부담을
북동
북상
분명
분량
분들이
브랜
브리지
브래드
비한
비춰
비리로
빅데이
빈치
뿌요
뿌리
사모
사장을
사전에
사절을
살고
살기
삶과
상공
상기
상상
상록
상인
상관
상급
상륙
생일을
서일본
석패
선두
선량
선착
선덕왕
설경
성명
성동
성격
성종의
성관계를
세비
세례를
센타우
소양
소생
소집
소득
소울
소추
소장이
소감을
소회의실에서
속한
속한다
속에서도
손실
손실을
송민
송에어
쇼이
쇼치쿠
수의
수니
수강
수백
수십
수습
수도로
숙청
순비
순교한
스폰
승강
승리에
승부를
시크
시합
시우
시집
시장을
시장이
시의회
시교육청
시니어
신장
신당
신안
신지
신보
신조
신시아
신방과
실용
실어
실내
실력
실버
심의
심화
싸이
쌓아
썼다
쏘아
쓰고
아타
아소
아와
아워
아편
아돌프
아제르
아레나
안시
안트
안동
안착
알지
압둘
앞바다
애틀
액션
앨리스
야간
야매
양도
양육
양력
양궁
어드
어울
어벤져스
얻는
엄항
업적을
없애
없었
없음을
엇갈
에비
에디
여사가
여우주연
역이다
역사를
연장
연임
연령
연료
연금
연산군
열사
열릴
염원
영의
영천
영위
영랑
영구
영예를
예보
오직
오송
오쿠
오랫
온갖
올가
올드
옮기
옮겼다
와카
와중
완전한
왕가가
외형
요동
요르
용의
용담
우주
우범
우라와
우디네
울프
워즈
워터스
원전
원가
원더
원장은
월북
위에
위트
위생
위헌
위치를
위대한
윈도우
윌슨
유다
유스
유효
유공
유도
유동
유연
유년
유행
유희
유형
유광
유배
유닛
유잉
육사
육아
윤세
윤일
윤상
윤석
율리아
은하
은거
음모
응용
응우
의석
의열
의아들
의친왕
이장
이의
이니
이공
이코
이쾌
이스타
이처럼
이르고
이철우
인노
인촌
인간의
일는
일주
일손
일했다
일하는
일원으로
입을
입에
입주
입상
입국
입양
입증
입었다
잇따라
있음을
자비
자우
자카
자문을
자영업
작사가
잠정
장도
장동
장흥
장신
장군은
장면을
재벌
저택
적자
적대
적발
전의
전5
전수
전교
전우
전제
전권
전락
전설
전격
전적으로
전세계
절도
절감
점도
정원
정주
정준
정홍
정근
정갑
정차
정승
정변
정당의
제가
제너
제어
제패
제압
제의를
제다이
조서
조광
조훈
조약을
조정에
졸리
종영
좋지
죄목으로
주사
주당
주류
주진
주창
주식을
죽을
줄리아
중기
중점
줬다
즐기
즐기는
즐거운
증언
지사
지점
지혜
지부장
지명한
직장
질문
집과
집회를
징계
차를
차단을
찬탈
참고
참패
창작
채드
채플
책은
책으로
처칠
처분을
천막
천호
천연
천재
철강
청정
청춘
체사
체렌코프
초등학교
총사령
최장
최선
최교
최경
최순
최승
최대한
최상의
추존
축소
축출
춘추
출정
충남도
취급
취지의
치킨
치렀
카노
카리
칸의
칼로
칼라
캐서
캐리
캔자스
캠퍼스
커피
컴캐
케빈
케리
코언
코를
코레
코난
코레일
코모로
콜리지
쿠투
클루
클레이
키워
키릴
키보드
타니타
탁월
탈레스
태양
태권도
테리
테러
토우
토리
토후
토목
톰슨
통보
퇴직
투기를
특보
티저
티셔
팀으로
파파
파주
파생
파급
파운드
파리로
판관
패해
패트릭
팬텀
팬들은
팬들에게
퍼스트
퍼펙트
페어
펜타
편중
편의를
평일
폐기
폭파
표면
플러
플랜
플라이
피에
피트
피고
하토
하디
하향
학장
학살
학무
학자들은
한민
한해
한샘
한동안
합법
항쟁
해준
해설
해군은
해소를
행태
행안부
향상을
허니버
헌액
헤비
헤딩
헬레
혁명을
현상
혐오
협박
협상이
형식으로
호주
혼다
홍치
화신을
황해
회담
회사를
횡령
횡성군
후마
후미
후진
후원을
흐름
흑산
흑체
흡연
히데타
##하성
##하니
##하가
##하되
##였을
##다시
##iS
##ies
##gt
##키르
##키슈
##장히
##장이다
##성적
##전서
##전용
##전투
##의장
##사스
##이면서
##이었는데
##이므로
##자카
##자격
##자료를
##니의
##니시
##니티
##니즘
##시지
##시게
##시각
##시에서
##시장은
##원조
##호인
##외교
##치히
##치료
##서운
##서부터
##서스를
##스프
##스에게
##스포르
##트맨
##가스
##세폴리스
##민을
##실의
##실은
##실점
##임자
##모금
##모터스
##공감
##파티아
##로드
##로상을
##주자
##주기
##주교육청
##주민의
##루션
##션을
##도너
##도라
##해가
##프와
##프리카
##들이다
##들레이드
##화한
##화력
##화하기
##토론
##토슬라
##정역
##정관
##정신
##정당이
##부에서
##EZ
##학기
##학전문학교
##명이다
##필하모닉
##드르
##드릭
##타의
##유가
##유저
##과이의
##현주
##준을
##준영
##1회
##14
##18
##업이
##업소
##업계
##연대는
##연대가
##지길
##지청
##지휘
##지주의
##지였던
##기압
##독일
##병과
##병제
##소한
##소재
##소인
##소울
##농산물
##홍철
##보전
##보좌
##회장을
##66
##65
##50
##대와
##미트리
##포가
##포조선
##조사가
##선사
##선진
##선급
##상사
##상자
##상품
##말로
##말리아
##군으로
##한테
##재기
##수막
##수인
##수목원
##티시
##티나이
##방지
##방법
##방향
##산에
##살을
##살이
##되다가
##요금
##단이다
##체와
##으려고
##물이
##물에
##물은
##물인
##팀과
##ct
##ak
##ax
##rou
##어와
##어촌공사
##비서
##비한
##비티
##비서관
##야가
##야만
##야전군
##르템
##코비치
##인들
##인협회
##게더
##터칩
##테를
##양전
##be
##land
##2천
##2억원
##즈노
##투룰
##ke
##ky
##작에
##우를
##표준
##행은
##류에
##나며
##나카
##제이
##무한
##만큼
##만원을
##태프
##날레
##두었다
##창의
##창동
##영향
##젤로스
##레코
##레앙
##리프
##리샤
##등에
##베이스
##44
##45년
##분과
##발언을
##희망
##길이
##경기를
##란타
##란히
##SH
##닉스는
##여서
##블리
##심사
##률이
##차트
##차크
##직속
##접촉
##석유화학
##생태
##범으로
##AA
##텔라
##저스
##저우
##통이
##신은
##신학
##신청
##찰사
##청장은
##순이
##디언
##럼비아
##구단
##라드
##라며
##라카와
##입한
##케의
##철학
##철학을
##든지
##her
##급의
##32년
##변화
##출한
##출신
##CI
##CG
##계대
##항의
##엔케어
##up
##uen
##uri
##누스의
##누스가
##머리를
##질을
##질환
##손의
##척의
##운수
##처장
##처스
##목적
##LA
##LO
##러스터
##푸드
##난다
##익은
##익찬
##음에
##논문
##열병
##달라는
##개정
##개를
##착형
##금액
##더니
##더라
##쿠폰
##빌로
##총장
##았는데
##클레
##플리프
##탄이
##FB
##컨벤션
##밀착형
##혜숙
##별로
##글을
##삼진
##삼촌
##끼리
##피스
##새마을
##커버
##커피
##초가
##초프
##룡이
##올라
##약성
##얀은
##OP
##링거
##멤버
##UM
##님께
##님으로
##톨로메
##김치
##렌즈
##렌드라
##킴이
##좌파
##zio
##핑크
##벌레
##옌반
##que
##첸시오
##뿌요
##숨을
20여
20일에
19개
19세기
10명
107
10억
10일부터
10년간
##하였으므로
대한제국의
있다가
##하였다는
##하였다고
##학교에서
2001
200만원
200여명이
한국에
한국은
한국군
한국에서
한국교육
한국국민
한국생활
한국국민당
한국시간
한국선급
155
152
대한민국으로
##위원장과
대표인
대표에게
광주송
광주에서
광주지역
11년
116
117
1996
있는지
지역과
자유를
자유민주
##6년부터
의원들이
후보자를
후보자의
##되었다고
##4년에
국민은행
국민건강
국민주권
##대학교와
프로농구
리그를
146
사회에
사회단체
2세로
##스트로
##주의의
선수에게
선수들은
##랜드는
되었다는
되었다고
민주당이
민주당은
##방송통신
165
163
169
이어져
이어졌다
이어지고
24일까지
자신감을
지원이
지원한다고
국가와
국가정보
활동으로
활동하는
활동하였다
활동하였고
중국에
사업비
10월부터
회장이다
기록하는
기록되어
기록하면서
시작하였고
시작되는
21일에
21일까지
중앙연구소
중앙부처
중앙응급의료
감독과
감독이었던
25일부터
시즌이
시즌부터
시즌이자
3월부터
교육과학기술
세계적
독일은
##라이트
선거에서는
우승팀
##사업이
아이들이
운영에
운영될
운영하게
운영한다고
관계자가
##장이었던
진행했고
진행되고
영국과
정치를
국회의원선거
1970년대
같은해
UEFA컵
전남의
전남농협
방송을
참석할
부산에
부산지역
부산시장
삼성전기
사이트
사이메이
##레이스
문화가
러시아군
제2군단
1941년
그러면서
6월까지
육군은
소속되어
##졌다고
##ang
공동연구
정의당이
정의당은
##나라를
사람들의
시민학교
시민들이
시민들에게
시민축구
##된다면
이용자
이용할
##지원을
통합으로
개최하여
개최한다고
교수로
전국구
하나는
전라남도가
전라남도와
##arri
##연합이
기업을
올해부터
사용자
사용한
사용할
사용된
사용하였다
우리는
우리의
국회가
경찰청
학생들의
##ory
발표하면서
주장하며
방문객
##로스가
코로나19가
설립에
설립하고
아버지의
이상훈
28일까지
최고장인
문제와
상황은
임명한
에드윈
수상이
수상했다고
총선에
노무현의
실시하여
실시한다
중심도시
##alth
2017년부터
1924년
광주시의회
경제성
경제부총
자동차를
아니고
아니냐
##경제자유
인천공항
사건의
##스터디
##기관의
##후보로
전문의
창당에
창당했다
창당준비
2012년까지
그룹을
성공했다
성공적으로
참가하게
이탈리아를
구성하는
역임했으며
스타일
영화를
예정인
즉위하면서
즉위하자
사망할
생활밀착형
야구해설
대한항공의
대한항공이
고려개발
프로그램은
프로그램인
결정하고
대구경
대구광역시
고객의
고객이
로마의
2009년까지
마이크
2015년에는
보수주의
연맹이
필요가
##스와프
원내대표의
원내대표와
김종민
김종훈
라이언
생각해
생각하고
##협회는
안전성
안전에
강진군이
인사들은
인사들과
제공하기
바이어
바이오
바이브
어려울
일부는
일부개정
##체육관
1930년
1937년
1931년
챔피언스리그에서
선출했다
선출하였다
선출되어
요구해
출마하게
소비자들의
조성하여
결혼한
결혼하였다
기독사랑
보고서
이적을
직접적인
특별법
기대와
지방의원
경우에는
##경기연맹
계속된
어머니의
어머니인
레이저
레이튼
레이커스
베트남의
영광군의
학교에
2013년까지
미래창조
북한이
북한은
전투는
전투에
지속가능
2008년부터
동생이
동생이자
생산한
소련은
소련과
소련군
경기도교육청
경기도지사
1년만에
다음해
다음과
바르톨로메
이끌며
정권교
##rist
청와대에서
6세기
가능할
가능성에
직원과
직원들과
건강보험
전주병
전주교육
지지율이
회원으로
기간을
출시했다고
시절에
총재는
총재의
총재에
총재와
판매가
판매하는
##선거를
기독교의
광산갑
진출을
진출하는
혁신추진
협력사
기관이
기관사회단체
유지했다
조직위원장
1900년
1903년
마을기업
메이플리프
선언하고
##ions
##이라며
대변인인
차지한
공화국이
이해하고
인정받
출전해
출전하여
##olog
잉글랜드와
##단체협의회
베이스타
주관한
주관하고
##환경을
1990년대
검찰의
검찰은
반대하고
해당하는
##ams
##amp
##협의회장
울산방송
울산시당
이전에
페르세폴리스
2001년에
국가대표팀의
국가대표팀에서
개선이
단체가
보건당
##ital
##stem
2002년에
개혁당
마르셀
승리로
승리하여
요청을
요청에
요청으로
폴란드인
2006년부터
40여
강화군
강화할
계승을
계승했다
구단의
구단은
구축해
구축할
에어로스
올라프
임시회
크리스토
크리스마스
기존에
대응에
대응해
보도한
예산이
출범하였다
##루스자리
##생활을
새정치국민회의에
건설교통
담당자
시행하고
요시오
의견이
이동진
##대책위원회
기원후
아내의
아내와
아내인
이종명
제3의
제3차
확산을
##바이잔
이승만의
김재원
명예를
발견된
제기했다
제기하였다
전남도의회
##베르펜
경희학원
전망된다
캐나다의
합병하여
불교가
이야기가
##경찰서는
경상도
회의에
회의실에서
1881년
발매된
설치해
##대한통운
투표에서
해남군은
##urg
KB증권
고양이
소통과
소통하는
위치해
이인제
확정지
확정했다
희망의
##ish
##부대신
남편인
아일랜드의
주도하는
책임질
CJ대한통운
김현미
김태희
일제강
지정한
1차전
근무하였다
정상에
정상화
정상회담
직후인
합류하였다
합류한다
금융감독
발언이
영상으로
충청도
파이레츠
확인됐다
##eder
자유민주연합은
프로젝트를
아시아나항공의
농협전남
블루팡
사퇴하였다
예방을
예방에
오스카
김동찬
김동혁
브리타
제4차
플레이어
획득하여
##기념사업회
##활동에
김일성의
Station
건륭제가
공유하고
공유하는
국왕으로
기초생활
김해준
김해영
나라의
나라가
연세대
예선에서
조약으로
365
Chil
Christ
남북협
수준의
수준으로
아직도
전통시장
치매안심센터
합당에
##시즌에
복귀한
복귀하였다
장성군은
계약에
여운홍
장남으로
황후의
황후가
##ement
##ose
##oss
##전문가
##0여명이
1896년
인터뷰를
람보르기니가
4차산업
마사요시
마음에
실패했다
오른손
오른쪽
유재흥
유재수
유재중
조승우의
지시하였다
어린이집
콘스탄티누스
나오코
정신궁
해결하기
민주자유당이
질병관리본부에서
구매할
달러의
방법으로
선생은
이것은
##ndation
필요하다고
기상청은
4년간
7세는
국무총리를
귀국한
귀국했다
맞이했다
미나즈
반면에
사고로
유신당의
진주성
창설된
판단된다
##otball
##공동모금
교육감은
브라질은
싱가포르의
법률을
베네치아
강력하게
대부분이
사태에
사태가
사후에
상징하는
신속하게
아시리아
외교부
육성하고
이바라
입단하여
점검했다
1875년
중앙정보부장
1967년에
소비자들에게
크로아티아의
지자체가
유로파리그로
개정안
군주가
도움으로
사례는
상승세를
아무도
이론물리학
공동대표로
열린우리당의
SK텔레콤은
강점기의
김홍일
너무나
바람이
방영되었다
이기붕
지내고
출발해
출발하여
취업에
탄생한
파견하여
포기한
##보건기구
1864년
Unit
내세워
노선에서
물러났다
박상준
박상철
선택했다
이원재
창원시
체포된
파라다이스
##광주선대위
1839년
캐릭터로
아나운서가
가격은
가격으로
그래서
그래픽
기부금
나누는
득표율
밴드이다
부탁드린다
서명했다
신성의
이외의
정기적으로
취득할
##트가르트
##게임즈
##lie
MC몽
비밀리에
상하이에서
소설가
수익성
유사나
자격으로
주변에
캠페인을
##빌리티
타이틀곡
게이오
게이밍
동신고
머물렀
안양과의
처형하였다
지역민방
1958년에
받아들였다
겨울철
계급은
고향인
상반기까지
시상식에서
연수구
이석형
죽음으로
함평군수
헤르메스
##여객터미널
1592년
여러분께
2번째로
Leo
STX
강등되었다
그리너스
다케오
도미니
도미노피
루카스
어렵다
어렵게
초청해
카롤링거
합동으로
형태의
활발히
##ower
##allica
마르세유는
근거로
금메달을
김명연
노인일자리
드래프트에서
마티아스는
에르투룰
장수왕
전반적으로
정무특보
지상욱
훈련을
##문제연구소
주민자치회
##프로그램을
Real
기울여
당수인
마리오와
바꾸고
사전예약
오를레앙
종사자
차르국
초고왕의
프라다
프라임
헤이안
황태자
##대통령직속
119구급
아이파크와의
상임고문
아틀레틱
6개월간
격려했다
로빈슨
메시지를
박유환
발렌스
발렌티
스페셜
얼굴을
연남건은
영암군
진나라를
체코슬로
호소하는
##노조위원장
##pper
국가보안
브리핑을
세븐티식서
인민수호부대와
BNK금융
가슴에
게오르크
게오르기
고시라카와
군단장
미쓰비시
식민지
일조했다
조현아
##만으로도
11번가
와이번스
300억원
LAPS
USL
강희제
댓글을
동성애
동성왕의
리오넬
배포판
부군수
에버랜드
영락제
임관한
절대적으로
정진운
조합원
카르파티아
쿠데타를
테마로
파나티나이
1728년
아이디어를
기획재정위원회
5000만
LIG
경향이
경향신문
교섭단체
김원봉
생존자
서장훈
시흥시
안드레스
애로사항
원로원
자발적으로
전성기를
칼리파
트랜의
히트곡
##협상대상
대통령직속
1377년
이에야스
국정감사에서
파이터즈
IFEZ
동메달을
무시하고
부장판사
성향의
스베토슬라
오세근
온타리오주
이춘희
정희왕후
조례안
태창제
##opa
##자산운용
##스톤의
##박람회
##디스플레이
제14대
베텔게우스
BBQ
EUI
FK리그
가스공사
구스타브
김삼호
발기인
신흥우
야드비
오거돈
오래된
재조명
점유율
훌라구
##장로회
##실천당
제17대
여성가족부
불가능한
삼국유사
카자흐스탄
AOA
DMZ
Korea
각별히
강태환
고연무
나중에는
능주면
닌텐도
두려워
드라이버
디펜드라
리스본
면세점
베니젤로스
서인영
성균관
세월호
쉐보레
얼라이언스
원자력안전
유격수
이마가와
이뤘다
중추원
최형식
충분히
카트린
토요타
후지와라
흥선대원군
##acris
##검찰청
한국독립당
국민참여당
페르난도
다카우지
안타까운
유길준은
Football
Georg
고명환
공수처
국순당
로코모
만슈타인은
박삼구
백승주
서병수
송진우
아세안
안마의자
어떠한
에르도안
유정회
이두희
일궈낸
정남준
조진웅
카산드로스
캐벌리어스
평안남도
평론가
포고렐
한병도
호그와트
휴대전화
##유치원
##대변인은
103위
현대모비스
아프가니스탄
ClariS
대통합민주신당이
##테크노파크
Black
Daniel
Europa
Metallica
간신히
교향곡
그럼에도
네스토리우스
논평에서
다룬다
마닐라
박윤국
송중기
아크룩
않겠느냐
알사드
양세형
어우러
에두아르트
에피소
윤성빈
제네바
중산층
진심으로
최악의
콜로라도
하얀색
호치민
홍남기
##뮤지컬
##촉성국민회
한국농어촌공사
전국동시지방선거에서
전북지역위원회의
국립과학수사
KTB투자증권
CJ제일제당
클라우디
무한도전
안티고노스
Corporation
DGB금융그룹
데모크리토스
걸걸중상
셀레우코스
CCTV
Foundation
Ludacris
Peace
△광주시의회
다쓰노
다큐멘
도트리슈
되풀이
라쿠텐
람사르
루프트한
리투아니아
메드베데
모뉴엘
무함마
바샤르
방시혁
방글라데
변재일
뿌요뿌요
센타우루스자리
수니파
아제르바이잔
안트베르펜
엄항섭
오랫동안
용담공
위트레
유희열
윤상직
응우옌반
이공계
인노첸시오
자우자
자카르타
전의총
제너럴
주진모
천호엔케어
체사레
최교일
컴캐스트
탁월한
하토야마
합법적인
허니버터칩
##르템베르크
한국생활개선
국민주권광주선대위
기독사랑실천당
농협전남지역본부
Christian
체코슬로바
0시
04
000만
000만원
1의
1호
1골
1남
1석
1운동
1경기
2인
2백
2억
2집
21년
2명을
2위에
2골을
2종을
3사
3천
3억
3명이
3일까지
3대에
3위에
3위로
4만
4남
4급
4층
40년
4위를
4일부터
400만
5회
5분
5억
5명이
5개의
6천
6명
6대
6선
7명
7일에
7세가
70여
8년
8회
8주년
8강에
9일까지
9세의
90년대
Ag
At
Ap
AD
ABC
Bon
Bil
BMW
CN
Cat
CIS
Di
DA
DB
Don
Dis
Dem
DFB
EP
EC
EN
Eug
FBC
FTA
GAR
IA
ID
IEE
Jam
JB금융
Ke
Kh
KR
Lars
MS
MY
Mon
Mid
Meg
MBN
NDR
NFL
NGO
National
PP
PI
PR
Part
Pont
Red
Rug
Rich
Right
SA
SO
San
STV
Sport
Sgt
Sarri
Sams
Ter
Tra
TOP
Vo
Vf
Van
Val
VIP
We
Wh
Win
Wol
Wars
agon
km
n번
vs
▲더불어민주당
△이
㈜광주
가자
가드
가네
가재
가용
가락
가구
가든
가중
가환
가칭
가좌
가우스
가졌으며
가디언
간에
간행
간첩
간사이
갈비
감동
감축
감사를
강수
강좌
강의를
강연을
강서구
갖는다
갖추고
개루
개화
개회
개종
개량
개별
객관
갤러
거버
거느
거기에
거부했다
거두고
거치면서
건다
걷다
걷게
걸맞
검증
것인지
격노
격퇴
격돌
견조한
결심
결론
결집
결론을
겸비한
경건
경유
경관
경명왕
계산
계절
계층
계정을
고안
고부
고드
고준
고상
고군
고통
고묘
고혈
고졸
고니시
곡성
곡이
골프
골목
곳인
곳이다
공단
공습
공사를
공군의
공항을
공영방송
관전
관해
관동
관객
광학
광무
광영
광해군
교감
교내
교회의
교장에
교회에서
교체를
교구장
구호
구르
구절
구형
구례
구도가
국영방송
군복
군의회
군산시
굴복
궁전
권위
권력이
귀농
그간
그쳐
그중
그렇
극단
근대
근교
글쓴
글로브
글쓰기
금성
금나라
급속
기호
기든
기계
기습
기자가
기사단
기자를
기사에서
기부했다
기묘한
길이
김시
김아
김회
김조
김인
김근
김나
김강
김숙
김찬
김익
김원이
김씨는
깊게
꺾었다
꿈을
꿈드림
끼치는
나루
나도
나인
나차
나눈
나갔다
낙랑
낙후
날을
날인
남로
남작
남만
남바
남경
남성이
남부대
남강에
납품
낭암
낳고
내전
내비
내린
내걸
넘기는
넘치는
네츠
네팔
노리
노바
노광
노관
노브
노후
노예
논문
논설
논리학
논문을
농가의
농산물
높이
놓은
놓았다
뇌물을
눈이
눈높
뉴트로
능력
니카
니컬
니콘
다우
다르크
다중이
단지
단치히
달이
달라고
담화를
당장
당사
당부
당과
당무
당했다
당선을
당중앙
당원이
당분간
대조
대제
대영
대청
대량
대북
대선을
대사관
더해
더이상
덕양구
던킨
던지고
데어
데포르
데일리
덴지
델루
도는
도스
도발
도저
도료
도핑
도의원
도중에
독려
독살
독단
돌리
돌렸다
돔날
돕고
동학
동군
동국
동산
동두
동점
동서울대학교
됐을
되새
됨에
두레
두카
두번
두구
뒤늦
뒤에도
드와
드미트리
든다
듣는
들이
등용
등번
디오니
딸이었다
땅볼
때에도
또다시
라트
라면
라힘
람캄
래리
랭커
러일
러닝
럭키
럭비
레자
레지
레저
레스터
레이나
로키
로랑
로이스
로타르
로이드
루다
루머
루핀
룩부르크
류성
류환
르페
리키
리카
리저
리엄
리스트
리무스
링링
마에
마루
마재
마블
마힌
마땅
마다가
마스코
마나마
막바
막판
만하
만한
만날
만두
만전을
말고
말기
말미
말할
말리
말이다
말까지
말하기
말레이
말기의
맛을
망운중학교
맞춘
맡았고
매거
매니
매주
맥킨
맥밀
맹활
머디
먹거리를
메신
메달
메커
메이트
며느
면역
명성
명빈
명은
명단
명백
모교
모신
모터스
목적을
목숨을
몰라
몰랐
못할
못하게
못했지만
몽케
무상
무어
무굴
무스타
문교
문승
문헌
문종의
물자
물류
미루
미노
미식
미추
미겔
미스트
민정
민병
민병대
믿고
밀접
바일
바소
바나
바흐
바예
바그라
바부르
박막
박서
박용
박물
박나
박창
박남
박범
박사가
박용진
박홍석
반환
반감을
발해
발대
발데
밤에
방치
방정
방향을
배인
배분
배신
배후
백일
백선
백령
백복
밴쿠
밸류에
버전
버마
버킹
버전의
번영
범위
범위를
법을
법에
법정
베토
베조
베레
베리
베아트
변인
별로
별개
별개의
별다른
병역
병행
병영
병력
보천
보스
보물
보나
보름
보강
보직
보겸
보복
보냈
보도를
보일러
보스턴
보이기도
보냈고
복원
복식
본토
본회의
본사를
본사에서
본회의에서
볼프
봉준호
부마
부근
부왕
부착
부룬
부대를
부시장
부부의
부부가
북제
분수
분양
분담
불을
불구
불릴
불린다
불편을
붙어
붙잡
브레이
블레이드
비트
비드
비타
비대
비방
비르
비류
비극
비슈
비올라
비렌드라
빅스
빌리
빙상
빚은
빛나는
뽀뽀
사자
사드
사유
사네
사살
사르
사투
사제
사리
사절
사찰
사득
사쿠
사피
사회의
사장으로
사당을
사재를
사노피
사각지
삭발
산타
산체
산하기
살라딘
삶이
삼민
상서
상트
상세
상고
상용
상영
상담을
새끼
생애
서동
서면
서광
서버
서품
서열
서약
서프라이
선천
선박
선대
선구
선발전
선두로
설문
성시
성주
성조
성경
성윤
성협
성장이
성인이
성향을
성범죄
세트
세아
세웠
세조의
세상에서
셀틱
셀트리
셰프
셰리
소가
소주
소프
소화
소명
소령
소매
소폭
소수의
소성왕
소나무
소대장
소말리아
속으로
손금
손예
손자인
손길이
솔라
솔루션
송병
송상
송금
송재경
수시
수로
수양
수급
수탈
수반
수열
수확
수나라
수장으로
수차례
숙부
숙련
순위
순환
슈투
슈팅
스에
스리
스승
스플
스털
스칸
스베르
스파이
슬하
슬라
슬레이
승계
시성
시위
시모
시로
시노
시급
시중
시몬
시켜
시공사
시기는
시켰다
시치로
시키는
시어머니
식물
식량
신의
신화
신명
신일
신병
신년
신군
신곡
신축
신태
신영
신생
신학교
신덕왕
실권을
심은
심판
심사를
십자가
싱어
싸우는
썬더스
씨름
아성
아서
아카
아빠
아끼
아닐
아폴
아픈
아스타
아비스
아인트
아즈키
안치
안건
안병
안재
안방
안았다
안전을
안산시
안호영
안테나
않으면
알랑
알폰
알핀
압록
앗살
애그
애리조
액티
앨리샤
야전군
약간
양해
양산
양평
양근
양만
양림
양키스
양질의
어깨
언젠
엄대
엄중
업데
업종
없지만
없도록
에미
에든
에페
에니그
엔진
엘라
엘론
엠넷
여건
여부는
여부에
여파로
역사가
역사의
연인
연제
연희
연석
연납
연기를
연정을
연인이
연달아
열악
열광
열기로
영양
영감을
영상이
영조의
영문학
예전
예결
예브
예금
예하의
오키
오너
오리지
오해를
오케스트라
오타와
올리는
옹호
와의
와일
와우
완주군
왕자
왕세
왕들이
왕가와
왕가는
외다
외사
외젠
외척
외에는
외삼촌
요원
요리히
요직을
우장
우호
우파
우여
우마이
우일선
운송
운행을
워너
원이
원에
원고
원소
원산
원리
원숭
원녕
원주민
원혜왕후
월터
웨인
웨스턴
웰스
웹보드
위드
위축
위주로
유가
유인
유감
유저
유라
유틸
유죄
유향
유신당
유닉스
유안타
윤동
윤홍
윤영
윤봉길
율리
율리오
융경제
은언
은비
을사
음식을
응답
의전
의도
의상
의인
의장이
의사가
의회에
의회는
이서
이타
이홍
이보
이대
이국
이나
이태
이발
이형
이갑
이철
이윤
이운
이혜
이봉
이룩
이겼
이상을
이전을
이의를
이겼다
이씨의
이태규
이곳에
이태원
인건
인조
인접
인질
인목
인센
인더
인력을
인가를
일도
일회
일등
일삼
일했으며
일정을
일원에서
임의
임선
임종
임슬
입고
입각
잇는
잇달아
있겠
자로
자책
자리는
자메이
자산을
작용
작가와
잘하는
잘리어
장합
장만
장쩌
재해
재현
재일
재회
재산
재야
재결
재입
재개발
저하
저는
저의
저널
저스트
적고
적법
적혀
적자가
적위대
적어도
적임자
전로
전부
전현
전일
전보
전미
전재
전창
전형
전술
전폭
전하는
전체를
전계대
전혜숙
절반
점성
접전
접견
정사
정호
정가
정창
정훈
정춘
정비를
정교회의
제의
제보
제재
제인
제약
제천시
제고를
조스
조화
조부
조문
조회
조르
조나
조형
조경
조순
조속
조사에서
조창호
존스
종전
종파
종군
종속
좋다
죄송
주자
주가
주임
주차
주된
주먹
주쿄
주었고
주가가
죽기
죽었다
죽었고
죽이고
중립
중고
중일
중독
중대
중령
중순
중개
중에서는
중에서도
중점을
증강
지성
지어
지우
지표
지진
지갑
지구를
직영
직계
직격
직원은
진원
진언
진화
진선
진상
진군
진솔
진료
진영의
진상규
질투
집을
집에
집합
집회에
차장
차트
차민
차관
차석
차녀
차원의
차이가
차이를
차세대
차라리
참전한
창이
창건
찾고
채취
책을
처분
천일
천호선
철새
청장
청렴
체크
체조
체계를
초과
초상
초창
초기의
총을
최영
최강
추종
춘천
출국
충장
치세에
친군
친형
친누
친척
칠리
칭찬
카스
카프
카우
카라
카이사
카테고
칸국의
칼럼
캐주얼
캔버
캠퍼
컨벤션
케플러
코시
코디
코펜
코칭
코스타
코퍼레이션
코나미
콘사
콘월
콜린
콜라
콜롬
쿠페
키스
키가
키몬
키세스
타결
타계
타율
타개
타밀
탈북
태영
택배
테무
테슬라
테스트를
텍사스
텐데
토로
토미
토지를
토리당
통화
통상
통틀
통근
퇴진을
투르
투약
투자가
투르크
튀코
특강
특성을
특성화
특강을
티티
티탄
팀과
팀이다
팀이었던
파는
파스
파크
파월
파키스탄
판로
판정
판문
판재
팔레
팔라
팩트
펀드
페루
페소
페터
페라
페겔
페퍼스
페아노
페론주의
페스티벌
펜탁
편곡
편리
편리한
펼친
펼칠
평민
폐비
포수
포스터
포부를
포스하
폭주
폭염
폰티
폴리
표를
표도르
푸에르
풀려
풀어
풀백
품고
풍암동
프론
프렌즈
플루
플레
플리
플레어
피자
피어
피핀
핀처
하트
하세
하프
하일
하희
하급
하워드
학파
학대
학군
학점
학자들이
한돈
한반
한큐
한명이
한민당
한여름
할프
함으로써
합니다
항거
항복을
해주
해고
해경
해킹
해법을
해병대
해위해
해바라
행주
행진
행운
행위에
허성
허은
허리
허블
헌정
헌종
헤지
헬렌
헬스케어
혁명의
현안
현아
현행
현저
현덕
현수막
혈통을
협상을
협의를
협상에
형을
형식
형이다
형제의
호산
홍동
홍희
홍귀
화정
화제를
확실한
환관
황호
황학
황순
황제를
황유식
회전
회동
회수
회사의
후시
후견
후원으로
후베이
휘신
휘하의
흐루
흥인
히토
히사시
힌두
힘쓰
힘들어
##하겐
##하수도
##였기에
##다지
##ip
##ep
##ex
##ech
##oo
##키우스
##립대학교
##립도서관
##거름
##거점
##장교
##장구
##장시장
##장관을
##성한
##성왕후
##성과를
##성질환
##전인
##전까지
##의원을
##의학과
##의사협회
##사막
##사일
##사여
##사구
##사이트
##이도
##이체
##이야
##이스트
##자연
##자율
##자네이
##천호
##시고
##시인
##시엔
##시큐
##시기를
##시니어
##시히메
##당하여
##위기
##위와
##원에게
##호정
##호크
##호남
##마사
##마자
##마치
##마를
##마사회
##외국
##치매
##에로
##에프
##에이지
##서초등학교
##씨에게
##스기
##스투
##스런
##스님
##트롤
##가들과
##세트
##세요
##세무
##세법
##세대의
##세미나
##짐에
##민원
##민스터
##안정
##안에서
##실록
##실험
##모자
##모임
##모프
##모함
##모비치
##공직
##공주의
##공사를
##공원을
##공항공사
##간이
##간부
##파마
##파이어
##아스
##아파
##아주
##아야
##아일랜드
##아카데미
##로트
##로페
##로타리
##주츠
##주철도
##주니어
##루냐
##루이스
##도레
##해결
##해지는
##건조
##고을
##고지
##프라
##들인
##들간의
##화되어
##화되고
##토의
##토미
##토레
##토리코
##부리
##부지사
##EV
##Pa
##문구
##문제를
##학점
##학술
##학과를
##했었던
##드나
##드리고
##박을
##타카
##먼스
##동은
##동아
##동백
##동으로
##유키
##유럽
##과도
##과제
##과정을
##현장
##현우
##준이
##준열
##크너
##크리스
##0회
##일기
##일람
##일즈
##연장
##연에
##연속
##연예
##연으로
##연쇄살인
##애미
##지다
##지아
##지수
##지기도
##지사는
##지열병
##지킴이
##병의
##병으로
##병마절도
##소스
##소타
##소와
##년의
##년도
##그를
##그란
##그풋
##그랜드
##농촌
##보에
##보도
##보국
##회장은
##히는
##히고
##68
##63
##6억
##5개
##대우
##대상을
##대사로
##대행을
##미한
##미스의
##미포조선
##포는
##포인트
##조명
##조치를
##조직을
##조사에서
##선에
##선도
##상구
##상에는
##군수
##한기
##국과
##국장과
##재료
##수학
##수한
##수수
##수행
##수관
##수급
##수익
##수습
##티는
##티노
##방안을
##곡이
##산동
##산단
##산도서관
##살의
##살클럽
##용품
##용으로
##령에
##단일
##체의
##체가
##체제를
##축제가
##물류
##노화
##co
##com
##rat
##rich
##어비
##어져
##합당을
##비인
##야와
##와르
##코가
##코와
##코르
##코올
##코치가
##인물
##인증
##인들을
##인들에게
##교사
##교섭
##교향
##육상
##측의
##측은
##터널
##테마
##평의회는
##양은
##ti
##ts
##ton
##bar
##ble
##burg
##ls
##lor
##29
##감에
##감과
##감리교
##ne
##ner
##ksw
##작을
##작가
##작으로
##근로
##근경
##역의
##역으로
##행동당
##행위를
##행정을
##나디
##나라는
##나가는
##나치오
##제한
##제품을
##무약
##진에
##진과
##진료
##진하는
##만2천
##태에
##태후의
##결산
##권한
##창한
##창출
##영국
##영종
##앤드
##앤에프
##레기
##레알
##레스를
##레치아
##리야
##리흐
##바니
##바람
##오염
##오면서
##헬스
##면허
##각이
##각서
##카를
##카에게
##베크
##베그
##베리아
##베스트
##4000
##4부대
##분께
##발한
##발레
##내셔널
##본사
##본이
##왕으로
##형은
##형으로
##력의
##력에
##있었다
##틱펀
##경대
##경완
##란트
##란은
##SS
##홀구
##여건
##여정
##여수
##여행
##여진
##갑산
##강장
##강원
##강연
##불을
##적한
##적이었던
##적이라고
##적십자
##블루
##블레이
##심장
##심한
##데스크
##데자네이
##광장에서
##싱어
##종이
##종금
##차의
##차이
##차에
##차와
##차게
##차별
##차적으로
##버러
##버리고
##석에서
##생의
##생가
##생충
##범과
##침볼
##침략
##신탁
##청사
##청원
##청정
##디는
##디의
##디와
##증서
##설립
##설비
##승의
##헌이
##퇴르
##펠트로
##구도
##구동
##매출
##매그풋
##라흐트
##백을
##케르
##숙한
##왔지만
##온헬스케어
##8회
##89년
##8억원으로
##hy
##yn
##yal
##ws
##son
##급으로
##돼지열병
##3개
##90
##9억원
##변경
##출하기
##속에
##송과
##계와
##항쟁
##윤을
##윤혁
##뉴얼
##엔지니어링
##M은
##MF
##pan
##래를
##누스는
##질은
##극복
##족과
##됐는데
##펜싱
##점에
##점식
##량은
##브루
##중소
##중으로
##중에서
##운항을
##녹색
##복음
##목에
##흐바야
##츠에서
##츠종금
##슈테
##메니
##메트
##LP
##LF
##러가
##집은
##집행
##난으로
##NET
##환자가
##환자와
##익을
##북한
##북면
##놀이
##반대
##반디
##련의
##쓰네
##페테르
##즐리
##달러
##개가
##개소
##GS
##울의
##울고등학교
##금고
##배로
##더스의
##채널
##VE
##HF
##쿠르
##빌딩
##편이
##총리
##총동원
##패에
##잔치
##탄을
##탄에
##함의
##함이다
##함태호
##책이
##책임
##밀히
##TF
##TAM
##욱을
##욱은
##졌을
##봉사를
##폐합
##돌상
##랜타
##텐베르크
##삼성
##끼리의
##피트
##피를
##새로
##예정
##커를
##커리
##짜리
##약과
##런트
##례의
##링턴
##겼고
##겼으며
##멤버스
##UN
##략을
##잡기
##갔다가
##섰다
##맥주
##셔서
##셔스
##벨트
##델라
##혔고
##ze
##퀴즈
##옹주의
##쉽게
##콘텐츠
##멀리
##앨범
##캡스
##넥스
##으로만
##에서부터
20명
19년
104
10분
109
10번째
1000여
##하고도
대한유
대한통운
대한무역
대한의사협회
있다면
##하였다가
한국에서는
한국당을
한국원자력
한국문화관광
한국마사회
1500
15일부터
##위원이
대표에
대표도
광주를
광주과학기술
광주테크노파크
##회의는
11개
12세
12년
122
124
##7년까지
지역산업
지역으로는
지역구에
자유형
자유선진
일본국
일본으로
일본사회당
일본서기
17팀
173
18개
18일부터
18민주화운동
의원에게
후보였다
후보자가
##리그인
정부에서는
정부세종
국민은
국민당을
##하기까지
조선과
조선대
조선군
조선민족
조선기독교
조선공산
조선신민당
조선무약
##00원
##하게도
프로게임
프로구단
경기가
경기로
경기동부
리그는
리그와
리그이다
사회인
사회당을
사회당의
사회노동당
사회맞춤형
2세에
서울로
서울행정
##3년에
당시에는
##주의와
선수를
선수로서
문재인을
문재인정부
문재인대통령후보
민주인권
민주66
##위원회에
##위원회에서
1988
1989
관계로
자유한국당은
자유한국당으로
##교육은
했다는
13회
13대
13일에
13일부터
##방송의
##방송국
166
16대
16강
167
16개
16일에
16강에
1637년
이어갈
이어질
24개
24명이
자신은
자신도
지원할
국가의
국가를
연구개발
활동가
활동하게
활동하다가
##하면서도
프랑스군
프랑스에서
중국은
중국과
중국에서
##되었을
사업장
사업과
사업추진
회장에게
기록하지
##센터에
##센터를
시작되었다
위원회에서
위원회가
21세기
중앙대학교
중앙아시아
참여하여
참여하며
참여하였고
참여하였으며
시즌에서는
현재에
3월에는
교육이
교육과
7월에
7월까지
세계야구
세계보건기구
독일을
독일군은
##라이스
9월과
9월까지
선거에는
이번에는
우승하는
##사업과
아이가
아이온
아이콘
운영자
운영위원회
관계자와
##장이자
##onom
30개
30일부터
30분에
12월부터
아들과
아들로서
영국에
영국군은
정치적인
정치인들이
국회의원이었다
천황와
##항공대대
국제적
국제사법
23일에
23일부터
전남권
전남문화관광
전남신용
##됐다는
방송에서는
부산항
삼성증권
삼성자산운용
사이드
사이코
현대캐피탈
현대상선
현대미포조선
문화도시
러시아는
러시아어
제2보병사단
제2여객터미널
1943년
4월에는
22일에
그러한
김대엽
##하지는
소속이다
##ani
전라도
관련이
한다면
사람인
사람이다
##국민신탁
시민과
시민들과
2021
이용호
이용객
김대중과
##지원팀
열린다
제국을
제국에
제국과
추진했다
추진하였다
추진위원회
김영일
개최를
개최한
개최하는
때문이었다
##inc
따르는
것이라
교수이다
전국의
전국위원회
전국은행
하나가
하나님의
전라남도의회
전라남도순천
교황은
김정우
김정남
된다는
된다고
##하다는
##arz
기업에
기업과
기업이다
기업들이
기업인이다
이에모
계획하고
장관으로
국회와
##회사로
경찰과
경찰관
선정하고
선정되는
선정됐다고
순천대
학생들은
##ore
##ord
##orn
##orth
##산업진흥
발표를
발표할
발표하여
발표되었다
이사회를
##연구원과
주장하고
방문을
방문했다
방문했던
##기업과
##기업은행
대상에서
MBC의
아버지이자
주민의
주민센터
주민등록
이름에
이상이
이상으로
대회가
대회이다
대회에서는
28일부터
들어와
들어온
노무라
문제는
상황이었다
상황실에서
여성들의
임명장을
조지아의
수상은
실시간
실시해
실시하였다
중심에
중심지로
##ali
1928년
1925년
경제의
경제개혁
알렉세이
아니라고
##경제부
국민의당에
국민의당은
사실로
통일국민당
2014년에
독립운동
독립국가
##스터스
##기관을
전문기업
전문가를
창당하면서
항공이
항공모함
그룹인
성공하였다
성공하며
참가를
참가한다
참가했으며
멤버들과
멤버였던
출연하여
출연하며
출연하였고
##정치협상
##지역을
개발해
공식적인
구성원이
역임하면서
역임하였으며
스타스
영화는
공개됐다
샤를로트
예정되어
태어났
##교육청의
##교육청과
##ican
##이나마
##로부터의
##복지관
100m
100여명이
김성근
김성찬
김성수의
김성수는
사망자
사망하면서
생활체육
생활개선
이승우
이승철
전북은행
대전광역시
제주항공
프로그램이다
결정이
결정은
결정적인
결정했다고
대구은행
데뷔한
고객과
##도시우스
##대학과
2009년에
마이노스
마이애미
2010년부터
2015년부터
11일을
연맹에
##시키려
25일에는
원내대표를
김종회
라이프
라이엘
생각은
시리즈는
시리즈에
안전하게
안전사고
평가가
5일간
받았다는
인사말을
있어도
제공해
공격에
공격해
공격으로
공격했다
공격하였다
공격적인
광양동백
브라헤
비판하고
비판적인
동아리
동아ST
동아여자고등학교
필리베르토
##체육시설
챔피언스리그의
챔피언스리그로
챔피언스리그와
마련을
마련된
발생하는
선출한
제작사
출마해
2019년에
2011년에
3일간
소비자가
조성수
조성된
조성하고
결혼했다
결혼하여
보고서에
이적하며
이적하였고
이적했으며
졸업했다
졸업하였다
국립환경
국립해양
특별전
도시로
도시를
지방을
지방의
##시장진흥공단
##리오카
2018년까지
2020년에는
경우는
확대에
##경기장에서
대학교에
대학교와
사랑에
사랑과
##과학과
레이커
베트남항공
왕조를
증가했다
증가하고
증가하면서
증가세를
최종현
최종적으로
##라인은
2019학년도
위원장에
위원장인
전투를
생산을
소련의
소련이
1년을
다음으로
돌아왔다
돌아다니
바르바로
이끌었으며
정권에
정권은
##rid
6세와
직원이
직원들은
건강하고
건강하게
롯데마트
롯데백화점
롯데멤버스
역사문화
이미지
전주MBC
전주매그풋
지도자로서
지지하며
지지자를
회원들은
회원들과
##스코프
노력에
노력할
노력하고
아르카
아르침볼
대비한
수도권의
판매할
기독교민주당
가족을
가족이
가족과
진출할
협력하여
내용으로
번째로
유지했지만
조직으로
1905년
과거에는
내년에는
브랜드를
선언했다
성장한
성장률은
어린시절
오전에
활약했던
활약하다가
##시설인
대변인이
정보화
차지했고
총리의
박정희의
관리하고
기술이
기술자
기술력을
이해인
이해식
인정하지
인정받았다
청소년의
청소년들이
한나라당이
한나라당은
##트로프
기념으로
기념하여
역할은
추가적으로
경기에서의
등장해
베이직
베이시스트
엔터테인먼트는
##oun
##환경공단
1990년대에
23일을
검찰이
결성해
계열사로
계열사인
반대했다
반대하며
음악가
TV조선
공연에
부인인
부인했다
울산광역시
2001년까지
개선은
단체에서
대선에서
예상치
클럽인
##무총장
##ster
2005년부터
2005년에는
##연구소는
모스크바를
그녀가
승리하며
제품의
제품군
제품이다
확보를
확보한
407
강화에
계승권을
구단에
구단주
기여했으며
등으로부터
보내며
부르는
서구청
에어서울
올라왔다
##하려던
##하려면
김일성이
변경에
예산정책
예산결산
지금도
청년몰
청년농업
해군기지
##정책에
##진흥공사
2000년대
공공도서관
올림픽을
올림픽에
우수성을
우수사례
유시민은
이재명
자리로
존재가
존재하지
취임했다
취임하면서
새정치국민회의의
건설을
건설에
기타시히메
담당한
담당하게
시행했다
완도수목원
요시다
인물을
장제스의
찾아가는
평화의
활용하여
##스로의
광산구는
광산구청
드라마에
드라마를
도쿄도
아내는
아내를
언급하고
제3대
확산되고
강조하며
김재훈
김재규
김재규가
노동조합
제외하면
제기되었다
제기됐다
토론회
토론회에서
황제이다
##지방검찰청
부문은
신문왕이
일으켰
2004년에는
나타나고
전망한다
지명했다
지명되어
진도개
합병하고
크로노
홍보에
홍보를
조선로동당과
광양시어린이
공모에
드러나
인민행동당
1889년
1885년
1884년
월드컵에
발매하였다
부회장과
설치된
슈퍼주니어
투자자
교통카드
군사평의회는
로스쿨
변호사를
변호사가
##lex
##lege
네덜란드의
금호고속
상태를
선교부의
소통을
연기했다
희망나눔
##iss
국정원
애니박스
언론은
일반적으로
전해져
전해진다
주도적인
친구가
해양관광
##일보는
##예술단
1998년에는
CJB
CJ그룹
CJ올리
김현우
김태우
내각제
내각총리
보여준
아들이며
일제히
지정되었다
전문가로
박헌영은
신청을
신청서를
않았으며
않았지만
오브라도
이와는
합의에
합의했다
합류했다
##00여명이
한국전력기술
고민을
논의하는
소방청
요한슨
요한네스
##사이드
##사이더
이슬람교
이슬람주의
경험과
복지시설
사퇴를
사퇴할
수석대변인은
신천군
안정적으로
에도르
오스본
오스틴
작품인
작품에서
추천으로
추천하는
추천하였다
한진중공업
##개혁을
라이온즈
김동만
동구청장
아닌가
제4대
제49회
획득하는
##자원봉사
##기념관에서
##노스와의
Star
가졌다고
기초위원회
김수현
김수용
김수근
나라에서
명칭은
명칭으로
목표를
블랙핑크
##드라마
Champ
남양주시
넘어갔다
왕위계승
재정지원
가입한
공급을
귀족으로
마리아의
복귀했다
소유의
장성규
통합진보당을
프리드리히는
가톨릭교회의
000명
000명의
강원국
계약이
박사모
선임행정
세종특별자치
오뚜기함태호
작곡한
장남이
주인공이
황후로
황후이자
##슈타트
1895년
1989년에는
제19기
매출액이
4차례
NASH
개편되었다
따뜻하고
마사히로
물론이고
사과와
사과했다
선보였다
선보이며
선보인다
실패하고
연결기준
오른다
이웃과
지시를
지시한
축하하는
출판사
후원하고
후원금을
##농업협동조합
##erson
만들어졌다
김종필의
진보신당과
어린이들의
나오는
이시이
창립한
패배했다
프란츠
해결해
해적당은
##업체인
민주자유당의
하나금융지주
중화인민공화국과
완도군수는
프로젝트가
감사하다
감소한
감소했다
나서자
스티비
아키노
일어났
작업한
촉구하는
촉구하였다
##ire
##화가로
##혁신포럼
민주정의당의
세르비아계
거부한
김기식의
내려진
발굴하고
아래와
아래에서
연주하는
진주만
창설되었다
##부문장
##슬라브
##unt
브라질의
이루어져
건의했다
기능은
김진태
꾸준한
레드벨
방침에
부정선거
수요에
스토아
스토어
스토리
왕국을
왕국이
유치원
정동인
하겠다고
##트니크
아스널은
34만2천
J리그로
강력히
공산당을
만주국
상무2동
상징인
상징으로
신동빈
신동엽
신속히
싱글차트
아시카가
앞장서는
외교적
우려를
우려와
원래는
원래의
유통사
이자겸의
이로이
이바일로
이혼을
입학하여
정종여
존슨의
차례에
##ody
##수영대회
##베이거
1840년
민주평통
들어가게
관광객들이
지자체장
유로파리그의
가정제
군주이다
바뀌고
부의장을
부족에
시스템을
청주방송
헌법에
헌법재판
공동대표가
공동대표를
열린우리당을
아프리카돼지열병
3개를
PD는
김경수
김경구
동문이
비난을
비난했다
선포했다
완료할
완료했다
정우성
지내던
촬영을
출발하였다
펼쳐지는
포기하고
##보건소
##청년회
1860
1869년
지도자들은
Inc
Uni
Union
덴마크의
보호할
상대적으로
서부전선
스트라스
이원희
자녀를
장기려
전사하였다
젊은이
체포되어
초반부터
현지시각
##2020
##즈베리의
한국인삼공사
1855년
1854년
크리스티나
자문위원으로
간호학과
나눔을
더블유
리더십을
밴드인
부사장으로
선제골을
스스로를
시청률
신성로마
요크의
인간적인
전당대회에서
전기차
정의용
플라워
##스럽다
1478년
1474년
최우수상을
소상공인시장진흥공단
684부대
권력의
도착했다
런던탑
박병석
박병룡
발루아의
밝히는
베르나
신한카드
심각하게
유사한
이뤄진
인근에
작성한
정인숙
천주교의
협조를
협조와
##ada
챔피언십을
카를로마
그레고리
오스트레일리아의
NH투자증권
NH농협
뉴스데스크
머물고
머물렀다
메리츠종금
센터장
아라키
엑스엘
올스타전
이주영
자연스럽게
좌파당
취소하고
협업을
##기준으로
##운영에
지역구인
아이돌학교
불가리아인과
2천만
400m
고속버스
고향에
공항으로
구속영
그것이
긍정적으로
남성희
대장군
떨어지는
목소리가
박성민
밝힌다
부임한
시상식
신설을
완성차
외국인노동
이병창
이석기
인증을
전날인
전주시의
카타르와의
푸틴은
한정판
할인쿠폰
항의하는
##들어가
##기독학교
2016시즌
앞장서겠다
어르신들이
어르신들의
ISIL
간담회
공천으로
누르며
무소속으로
배출하였다
부상으로
신정훈
실질적
실질적으로
앵커가
예술가
외무성
외무장관
응원했다
응원하는
이은권
이영주
이중구
중장기
추모하기
포천시립중앙도서관
플로렌스
한성부
한성숙
##IST
1456년
##주의자들을
아이유브
1974년에는
##예수교장로회
신민주공화당이
576
국군간호
누나인
단일화에
대체로
두산그룹
보성전문학교
사촌동생
선진통일
세우고
시게오
우선협상대상
제이슨
중부지방
지상군
채택한
##해양수산
##보호법
##순천지사
1964년에
##antum
의해서였다
##arts
##ession
바이에른의
에어부산은
987년
감안해
강남구
마쓰모토
매체는
물리쳤다
바꾸었다
병원장
분리된
성립되었다
신상묵
연루되어
오르자
자바키슈
조카인
종사자들의
폭행한
표창을
헤이케
황태후
##브리핑
문화재청장
국립중앙의료원
상임고문을
하노버의
미드필더로
분데스리가의
1천만
44번째
All
NCAA
가동률
강동원
강동구
경고했다
고흥시니어
김형직
대동병원
대령이
동남아
뛰어넘
무엇이
분쟁이
쇼핑몰
스페치아
스피로
얼마나
연설을
위키트리
이슈가
정태춘
천계제가
철수하였다
체제에서
##공간이
##어린이집
1799년
1983년에
1629년
그리스도교
BNK캐피탈
Robert
Soul
Word
개념을
건너가
구입할
근처에
김소이
김소혜
김규식
김규항
돌파했다고
북아메리카
브로더릭
세인트루이스
스탠퍼드
신용카드
이현주
이내에
이채원
일시적으로
일조했고
입문해
정례회
직무대행
출장하였다
화성연쇄살인
희생된
한국민주당의
1776년
부산광역시교육청
조선의용대
트위터에
나폴레옹의
LATAM
가와사키
건물로
낙선하였다
늘어나고
미사일을
미야자
바꾼다
사법연수
사라진
생태계
서대문구
숭정제가
신뢰를
유력한
이행하지
이오리
일정으로
철학은
카드사
크라운
하야시
한양대
##하시고
##izz
##ield
##거래소
##abil
##경비대
##융합교육
1787년
금호산업의
한진칼에
한진칼은
근로인민당을
취약계층을
최소화하기
Conc
Mauri
RCA
UBS는
개방형
내놓은
니키타
답변했다
디즈레일
무라야마
서포터스
압박을
애로사항을
의뢰했다
인프라
인프라를
일찍이
재능을
주한미
철저히
충격적인
탄압을
태극기
판결을
##클리드
##플러스는
대한독립군
대한독립촉성국민회
한국시각
불가피한
내세우며
캘리포니아주
College
DGB
IMO
Minos
공차코리아
기억이
김호규
김은성
김만형
대단한
몬테펠트로
미네소타
박준규
박종훈
밝혔고
밝혔으며
배경은
배경으로
야스오
야스쿠니
에스파냐
연쇄살인범
오카모토
우에스기
장경왕후
조금이나마
지소태후의
친정팀인
컨설팅을
특채로써
플래시
플래그
하느님
하느님의
한경미
한경직
허남옥
화이트캡스
##시켰고
##해져서
##변호사
##글로벌모터스
대표적이다
광주형일자리
1422년
1435년
##사회복지공동모금
지방자치단체
선제후령의
아랍에미리
3연패를
Freder
갈라져
강기갑
거룩한
고유의
구스타프
김도균
끌어들여
노사민
노엘은
당진화력
등급으로
라스베이거
루크레치아
보조금
산학협력
스트리트
스트리밍
여부도
여객철도
오거스터스
완벽한
인테르나치오
잠재적
제주시와
제주시교육청
증진에
최정욱
컨센서스
컨센서스를
털어다
트렌드를
패러다
홍문종
##공학부
##레오네
##리조트
##HC000
1589년
서울중앙방송
서울중앙지검
광주시가정의학과
어려움이
출판기념회에
삼국유사의
이기택이
대원방송㈜
해운대구
거머쥐어
중앙방역대책본부장은
1순위
Center
가이아와
간주되었다
공신옹주
급격히
나이지리아
나이지리아의
내무부
네이션스
농심그룹
놓여있던
대권후보
라틴어
리우데자네이
박대출
불참한
비유클리드
비준에
선덕왕의
승부조
승부차기
신춘수
아브라함
아브라모비치
야권연대가
오페라
원외자유
월광학원
월광기독학교
이베리아
이범석
전동평
접어들어
지리산
최민환
크누드
테오도시우스
휴스턴의
##소나이트
##상담복지센터
제101
제18대
아이오와
아이오아이
공동선대위원장을
##사회적경제
다음날인
돌아오게
산업통상자원부장관
한전공대
IBK투자증권
IBK기업은행
스프링필드
소외계층을
마흐무드
마흐무드의
드래건스
뉴질랜드의
새만금개발
Boys
가세연
고성현
고은별
공민지
교학부총
그쳤고
남해안
라우키는
무등산
변수남
사다하루
상표권
성황을
스퍼스를
아웃사이더
양승조
영유아
웨스트민스터
작센의
정민곤
크롬웰
키우기
폭발적인
피의자
##보증재단
##agen
##금지법에
미국프로농구
제주삼다수를
와이즈유
음주운전
친일반민족행위진상규명위원회가
라파엘로
빛가람동
크리에이터
정부서울청사에서
3번째로
ATM
BIGO
CROW
Dragon
FSV
KAIST
Paul
School
SHOP
Triple
Volksw
가타오카
간편하게
건문제의
국산화
궁정화가로
김의겸
다녀온
대정익찬
들뢰즈
로드리게스
루벤스
마돈나
모색하고
바가반디
바리톤
박마리아
박석규
버팀목
베아트리
쇼트트랙
스포팅
스칼렛
슬기로운
슬리피
신혜경
얼음과
에프앤에프
에픽테
이준용
이견이
임지은
자랐으며
장윤성
종류의
주필산
즐거움을
카츠유키
콘셉트로
투자유치
트루먼
패럴림픽
포항제철
하모니카
할리우드
호심학원
##고용노동
##고등법원
##기본소득
##조참판
한국항공대학교
의원총회를
현대아산
문화유산국민신탁
경영지원실장
아나톨리
아마존닷컴
한국인터넷진흥원
거리두기
태종무열왕
스트라이커로
만네르헤임
세미컨덕터
심폐소생술
한겨레신문
OD뮤지컬
Quantum
System
고스란히
공손찬
금정구
넷플릭스
노현정
노보텔
달콤커피
대법관
돌고래
뜻깊은
라스티리가
로맨틱펀
르브론
맞대결
민자당
박은옥
발동한
배재학당
벼슬을
빅데이터
선량공
선착순
설경구
송민종
아와미
아워홈
압둘라
애틀랜타
야매요리
에비슨
영랑생가
우디네세
유광섭
윤일균
이코노미
이스타항공
일주일
자비르
장신영
정준일
정홍원
정승환
조훈현
지혜를
최순실
춘추관
캔자스시티
코를레오네
쿠투조
티셔츠
판관비
펜타시큐
피에트로
후마윤
후미마
##필하모닉오케스트라
##roup
한국교육방송공사
한국국민당을
광주송정역
자유민주국민당
##방송통신위원회
##경제자유구역
대구경북
미래창조과학
지속가능한
전주교육대학교
혁신추진위
일제강점기
4차산업혁명
STX그룹
도미노피자
프라임필하모닉오케스트라
발렌티니아누스
파나티나이코스
LIG넥스
원자력안전위원회
로코모티
포고렐리치
Daniele
아크룩스가
다큐멘터리
무함마드
체코슬로바키아
Eugen
GARNET
IEEE
Rugani
Samsung
Voice
agonist
n번방
가재울고등학교
가락고등학교
가좌도서관
거버넌
경건왕
고군분투
고혈압
글쓴이는
김아기
김근태
김나희
나차긴
남만주철도
남바린
노관규
니컬라
던킨도너
도저히
동학농민
두카티
두구얼
뒤늦게
드와이트
라트비아
람캄행
랭커스터
러닝메이트
루다크리스
류환형
르페브르
리저브
마재윤
마힌드라
마다가스카
만하임
말레이시아
매니저
맥킨지
맥밀런
메신저
메커니즘
무스타파
미추홀구
미스트롯
바그라티
박막례
박서준
박나래
발데마르
배인혁
백선엽
백복인
밴쿠버
밸류에이션
버킹엄
베토벤
베레주츠
보스니아
부룬디
비타민
뽀뽀뽀
상트페테르
서광범
성시경
셀트리온헬스케어
소프라노
손금주
슈투트가르트
스에쓰
스털링
아끼지
아인트라흐트
알폰소
앗살리흐
애그뉴
애리조나
양근석
양만춘
언젠가
엄대식
에든버러
엘라다
오리지널
우장춘
우여곡
우마이야
유틸리티
유향열
의인왕후
인센티브
임슬옹
자메이카
장쩌민
정가은
차민식
초창기
친군영
코펜하겐
콘사도레
콜롬비아
타밀일람
통틀어
티티마
파스퇴르
판문점
팔레스타
페겔라인
펜탁스
포스하임
푸에르토리코
하희라
해바라기
허성곤
허은철
홍귀선
화정3
황학관에서
후시미
흐루쇼
##echn
##외국어
##치매안심센터
##로타리클럽
##그랜드호텔
##교향악
##pany
##흐바야르
한국원자력안전
조선민족청년단
프로게임단
전남신용보증재단
독립국가연합
##정치협상회의
광양동백로타리클럽
국립해양문화재
전주매그풋살클럽
광양시어린이보육
Champions
34만2천개
스트라스부르
국군간호사관학교
고흥시니어클럽
화성연쇄살인사건
Maurizio
인테르나치오날레
리우데자네이루
Volkswagen
대정익찬회
OD뮤지컬컴퍼니
펜타시큐리티
남만주철도주식회사
베레주츠키
상트페테르부르크
1대
1분
1승
1백
1급
17년
18년
1명이
1TV
1위로
1단계
2의
2사
2동
25년
2명의
2일까지
2일부터
2TV
2가지
2단계
2분기에
3회
3인
3분
3번
3종
3으로
35년
3장을
3일부터
3경기
3골을
4부
4골
4동
4승
4곳
4녀
4명을
4위에
4라운드
4명은
5위
5로
5도
50년
56년
5명의
5일부터
5경기
5명과
6기
6개의
610
6인조
7회
7번
7승
700
7명이
7000
7골을
700여
780년
7차례
7교수
8천
8명
89년
82년
8000
8세가
9단
9번
911
9팀으로
A로
AE
Ad
A에서
And
ANU
ATS
Alex
B의
B로
B에서
Ber
Bent
Bur
Bea
Bas
Bro
Bud
Band
Bug
BPA
BID
Cy
CM
CB
CD
CG
CO
CU
Cal
Che
Cod
Cap
Cav
Coun
DR
Dom
Dre
Dav
EE
Es
EG
ESS
FT
Fest
Fai
GK
Gen
Gal
Gre
Gend
GLA
HN
HD
Her
Hon
Hum
HOU
Is
IN
Ind
IPS
Je
KE
Ky
KL
Ker
KBC
Kur
King
Key
LP
LS
Ly
LO
LX
Lon
Liv
Live
LOT
Me
Mc
Mr
MA
MG
MX
Mal
Mic
Mat
Mus
Mad
Mont
NI
Ot
Ob
Oh
OL
OK
OF
OZ
PM
PK
Por
Pri
Pol
Que
RO
Ren
Rou
Rom
SI
SL
SD
Sur
SOC
Sim
Sky
Tw
TK
Tea
Tig
Tem
Tay
TTA
Tour
Us
U리그
VM
VO
Vas
WI
WBC
Wit
WHO
XI
X파일
e스포츠
hPa
la
pour
sp
sch
sub
ubc
▲주민
▲광주시
▲바이오
▲서울대학교
△박
△건강
가에
가공
가해
가토
가곡
가즈
가결
가계
가면서
가는데
가사를
가지는
가계를
가문을
가리지
가치가
가상의
가공의
각인
각계
각지에서
각오를
간도
간단
간직
갈리아
감시
감정
감옥
감바
감각
감찰
감량
감탄
갑에
갑종
강세
강민
강도
강건
강박
강행
강승
강북
강당에서
강마에
갖춰
갖추
같았다
같았던
개장
개표
개청
객원
갤리
거대
거처
거리를
거쳤다
건네
건물을
걸려
걸어
걸었다
검사에서
것의
것인
겐첸
겐나디
겔더
격렬한
견학
결탁
결별
결의를
결단을
결실을
경장
경연
경합
경인
경교
경덕
경복
경륜
경위는
계류
계룡
계좌
계략을
고장
고사
고치
고도
고조
고산
고단
고야
고우
고름
고후
고사카
고르바
고통을
고바야
고트로프
곤도
곳을
공이
공기
공방
공표
공극
공녀
공사가
공주시
공세를
공로를
과천
과부
과일
과장이
과제로
과감한
과시했다
곽노
곽지영
관할
관구
관중
관청문
광장에서
광복을
괴벨
교하
교외
교장은
교회를
교사의
구주
구루
구정
구보
구한
구제
구태
구두
구황
구도를
구카이
구조의
구하라
구실로
구출된
구약성
구이도
국빈
국간
국한
국영
국번
국기를
국력을
국정을
국경을
군마
군부
군소
군대가
군단이
굳힌
굴비
궁전에서
권성
권씨
권은
권상
권세를
규칙
규정에
그날
그때
그친
그곳에서
그때까지
극락
극찬
극작가
근린
근접
근현대
글과
글로스
금속
금원군
급제
기을
기로
기해
기지
기재
기내
기하고
기량을
기보는
기재해
기적의
기동민
기염을
기생충
김서
김안
김학
김체
김창
김관
김득
김혜
김응
김낙
김시민
김아랑
깨고
깨달
꿈의
끌려
끝나
끝나는
끼리
나하
나의
나세
나간
나그
나대
나나
나리
나탈
나올
나흘
나리치
나르베
나델라
낙마
날이
날치
날에
남하
남게
남진
남침
남매
남월
남원으로
남자와
남구에
남기고
남십자
낮아
낮과
낮에는
내의
내실
내선
내밀
내륙
내리는
내전에서
내주는
내부대신
넓혀
넘도록
넣은
넣어
네가
네아
네네
네오
네버
네피
넥슨
넥센
넷스케
노씨
노연
노진
노란
노씨는
노이어
노소영
노이즈
녹동
녹취
논산
논리를
놀이
농장
농수
농식품
높일
높여
높다고
높았던
누보
누리고
눈앞
눌바
느을
느린
늘고
능력이
니이
니가
니나
니혼
다빈
다로
다국
다산
다르
다각
다승
다닐
다이스
다지는
다수를
다수가
다로의
다목적
단위
단원
단기
단단
단장으로
단지를
단위로
단계에
단어를
단속을
담배
담겼다
당을
당은
당권
당숙
당규
당하여
당에도
당국의
당대회에서
당당한
당국은
당신이
대가
대지
대방
대덕
대금
대략
대회의
대장은
대장을
대대로
대일본
대주주
대교구
대검찰
더했다
덕인
덕양
데다
데스
데프
데블
데탕
델라
도루
도정
도농
도감
도우
도제
도울
도의회
도정을
도전을
도왔다
도서를
도리어
도라에
독서
독보
독수리
동정
동대
동조
동인
동탁
동래
동굴
동명의
동서발전
동초등학교
됐으며
되기
되며
되나
되찾
되었던
되었지만
두지
두었으며
듀오
드웨
드골
드리
듣게
들었는데
등교
등등
등이다
등에서는
등지에서
디오
디렉
디스케
디미에
딕슨과
딘딘
딜카
따온
따돌
딸은
딸이자
때도
때와
때만
때엔
때보다
때마다
떠날
떠나는
또다른
뛰었으며
뜨거
뜻이
뜻에
뜻하는
라미
라본
라싱
라덴
라이스
라인의
라마다
라오스
람베르토
램지
럭셔
런칭
레겐
레콩
레이스
레가는
레베데
렛츠
로치
로고
로열
로켓
로큰
로디오
로널드
로키스
로렌스
로비에
록사
루한
루비
루피
루스의
룬트
류승
류재현
류조지
르노
르앙
르메르
리사
리치
리에
리정
리만
리리
리데
리베르
리메이
리유저
린든
마자
마가
마주
마도
마그
마레
마린
마틸
마초
마약
마셜
마운드
마스트리
막고
막대한
만장
만지
만수
만찬
만이다
말의
말도
말년
말람
말기에
말고도
말렌코프
맛과
맛집
망원
망누스
맞물
맞바
맞붙
맞았다
맡기로
매사
매버
매디
매콜
매킨
매월
매달
매튜
매크로
맥아
맥북
맺게
맺었다고
먹을
멀티
멋쟁
메종
메흐
메클
메릴
메모리
멜론
면회
명시
명에
명명
명동
명승
명확
명이었다
명단을
모의
모니
모가
모를
모티
모인
모른
모리스
모처럼
모르고
모빌리티
목에
목도
몬트리
몰고
몸에
못지
못하였다
못하여
못한다
못하면서
몽고
몽타
묘비
묘역
무을
무마
무고
무지
무단
무르
무리
무승
무척
무쓰
무기를
무대로
무너지
무서운
무제한
무책임
묵묵
문을
문수
문익
물품
물었다
미다
미성
미시
미소
미르
미켈
미망
미운
미샤
미흡
미첼
미쳤
미군이
미쳤다
민씨
민형
민관
민국당
민감한
믿어
밀고
밀수
밀워
밑거름
바사
바고
바테
바레
바덴
바퀴
바닷
바라는
바르트
바루스
바드르
바텐베르크
박시
박희
박형
박광
박래
박중
박규
박힌
박수를
박명수
반당
반해
반문
반기
반포
반군
반려
반등
반격
반납
반격을
받으면서
발을
발주
발터
발족
발맞
밝힘
밝힐
방한
방방
방출
방계
방림
방역을
배로
배재
배수
배영
배석
배넌
배역을
배당금
배홍석
백악
백의
백세
백운
백지영
버지
버네
버티
버진
버렸다
버스가
버스를
버마의
버틀러
번은
벌인
벌교
벌였고
범행
범행을
법안
법조
법칙
법적으로
법원은
법원의
베일
베테
베버
베르트
베어스
벤투
벤처
변모
별풍
별세한
병을
병과
병으로
보전
보해
보일
보소
보며
보바
보충
보석
보답
보헤
보았다
보다는
보호를
보해양
보였으나
복당
복스
복지를
복지사
복원과
본거
본점
본처
본인은
본국으로
볼레
볼거리
봉해
봉선
봉인
봉기를
봉해졌다
봐야
봤을
부는
부자
부에
부실
부일
부를
부흥
부울
부응
부대표
부부를
부인이
부문을
부대는
부축을
북이
북서
북파
북면
분전
분산
분개
불이
불명
불합
불충
불출
불펜
불렀
불스로
불신을
붕어
뷰를
브레
브란
비하
비주
비정
비인
비영
비엔
비메
비아이
비서로
비스콘
빅터
빅뱅
빈소를
빈센트
빌뉴스
빌미로
빚었다
빠지는
뽑아
사립
사가
사공
사파
사명
사비
사양
사관
사극
사죄
사료
사칭
사귀
사상을
사티아
사원의
사생활
사학자
사항을
사치와
사브르
삭제
산토
살려
살바
살다가
삼다
삼호
삼각
삼았
삼았고
상을
상지
상처
상환
상향
상대를
상표를
상실한
새턴
새겨
새보수
생전
생체
샤크
서천
서세
서프
서상
서태
서두
서영
서황
서라
서훈
서후
서명한
서신을
서산시
서창동
석유
선을
선문
선양
선종
선별
선봉
선덕여
설을
설현
설명을
설계를
섬의
섭관
섭정이
성의
성이
성자
성에
성유
성일
성대
성산
성희
성덕
성훈
성적으로
성격을
성씨의
성과는
세전
세실
세네
세한
세레
세련
세습
세일러
세상이
세비를
세브란
셀주
셀타
셔틀
소성
소그
소르
소우
소망
소환
소회를
소시에
소문을
소장의
소트니
소규모
소나기
소식에
속도
속해
속이고
손이
손소
손태
손창
손님
손자가
손쉽게
솔직
송성
송기
송구
송혜
쇼세이
수천
수에
수정
수지
수령
수어
수코
수평
수신
수송
수험
수복
수술
수집
수뇌
수장을
수상을
수사가
수시로
수보로
숙종
숙종의
순화
순조
순위에서
순이익은
순양전
술을
숨을
숭산
슈거
슈미
슈바
슈페
슈뢰
스어
스래
스캔
스님
스톨
스맥
스쿨
스프레
스태프
슬프
슬램
슬라이
슬하에
습관을
승마
승선
승점
승달
시비
시와
시즈
시무
시진
시킨
시초
시기를
시위를
시호를
시위는
시위가
식별
식스토
신원
신부
신현
신기
신선
신비
신표
신탁
신디
신계
신봉
신도시
신정부
신인이
신안군
실장
실과
실려
실물
실태
실권
실바
실증
실망
실손
실점
실정에
심도
심해
심연
심대
심바
심수관
싱클
싶을
싸워
싸움을
쌓은
쌓았다
써달라
쓰토
쓰네
쓰게
쓰레기
씨메르
아도
아유
아지
아말
아역
아태
아킬
아리아
아리스
아카이
아프로
아산시
아티스
아바르
아카데
아타우
아자이
아오니
아그리
악의
악명
악취
악마의
안서
안도
안토
안용
안무
안영
안남
안경
안규
안된다고
안기부
않으며
않으나
알루
알제
알레
알린
알발
알수가
알프레
알렸으며
알코올
암태
암환자
압승
압승을
앞날
애드
애질
애슈
애칭
애초
애들레이드
앨버트
야외
야훼
야당이
야당인
약혼
얀센
양을
양키
양전
양이
양당
양일
양대
양강
양념
얘기를
어시
어두
어렸
언어
얻으며
엄석
엄격
업비
업비트
없음
없어진
에치
에스
에노
에투
에우
에나
에가와
에이지
에디션
엔지니어링
엘사
엘렉
엘튼
엘페이
엠블
여고
여지
여야
여섯
여인의
여부를
여사와
여겼다
여배우
여영국
역은
역으로
역학을
연행
연내
연중
연탄
연쇄
연계를
연수를
연개소
열려
열번
열매
열림
열렬한
염증을
영문
영농
영강
영적
영관
영장을
영지를
영원한
예로
예기
예식
예약
예링
예상을
오사
오언
오정
오나
오진
오라
오월
오슈
오클
오비드
오케스트
오우에
오영식
오슬로
오가며
옥스
옥고를
옥타비아
온전히
올바
올리고
올린다
올렸고
옮긴
옹성
와다
와니
와인
완주
완수를
왕을
왕정
왕과
왕징
왕광
왕손
왕궁
왕좌
왕자가
왕권이
왕세자의
왜관
외동
외계
외환
외곽
외부인
외야수
외모와
요셉
요제프
욕설
용도
우세
우동
우대
우한
우용
우노
우발
우라
우중
우울
우위를
우분투
우연히
운남
운구는
울란
워드
워커
워런
워리어
원화
원기
원행
원만
원할
원균
원술
원예
원활
원으로
원장을
원인이
원인을
원군을
원인은
원코리아
월성
웨이
웨일
웨슬
웰니스
웰링턴
위임
위문
위수
위법
위배
위에서
위상을
위나라
위기가
위안부
위스콘
윈터
윈스턴
유세
유병
유보
유용
유물
유비
유코
유태
유두
유경
유식
유망
유림
유료
유수의
유리코
유천호
윤웅
윤태경
으로서의
은행을
을에
음원
응모
의논
의회를
의지를
의장과
의장의
의지와
의식이
의지가
의과대학
의문이
이가
이세
이합
이교
이근
이우
이권
이남
이희
이데
이신
이매
이계
이북
이색
이더
이겨
이글
이삼
이렇
이걸
이삭
이궈
이둘
이룬
이룰
이사를
이들에게
이로서
이지방
이스파
이소로
이조판서
이터널
이여진
인원
인문
인내
인계
인도의
인수를
인구는
인연이
인허가
인연으로
일한
일축
일인
일각
일데
일관
일족
일약
일리아
일했고
일화를
일대의
일대에
일제의
일가족
일화가
일대에서
일파를
일렉트로
일자리를
일련의
잃은
잃고
잃게
잃었고
임효
임재
임윤
임대를
임기는
임용을
임해군
입지
있으므로
있으면
있으니
있음이
자막
자전
자의
자가
자작
자제
자식
자체를
자코바
작위를
작가가
작전에
작가로
잘생
잘츠
잠식
잡게
장세
장정
장지
장순
장온
장착
장편
장소인
재키
재도
재부
재학
재보
재상
재적
재혼
재규
재배
재활
재원을
재원으로
재미를
재계약
재건축
저장
저그
저출
저질
저렴
저소득
적절
적격
적금
전장
전유
전광
전범
전신
전승
전복
전념
전향
전에는
전까지
전9년
전력을
전부가
전일본
전하성
전입한
절을
절제
절친
점과
점심
접한
접목
접했다
접하고
접전을
접속을
정을
정립
정전
정자
정엽
정정
정대
정선
정수
정용
정제
정적
정철
정량
정월
정개
정밀
정혜
정봉
정글
정약
정략
정원이
정원에
정도가
정복을
정하였지만
정조가
정운용
제임
제대
제노
제도의
제위에
제도가
조조
조우
조만
조리
조남
조심
조머
조운
조규
조환
조배
조폐
조기에
조직을
조치가
조준호
졸속
종용
종족
종북
좌절
죄인이
주에
주정
주일
주지
주말
주인
주제
주옥
주기를
주자로
주의를
주어진
주말을
죽이
죽여
죽였다
죽음을
준장
준이
준주
준엄
준공을
줄여
줄였다
줄이기
중성
중지
중용
중으로
중에도
중이며
중등학교
중기의
중공업
중서부
중령과
쥐고
즈음
즉흥
즉각
즉위를
증대
증상
증설
증액
증조부인
지장
지은
지네
지킬
지칭
지참
지묘
지스타
지사가
지도를
지위에
지켰다
지단이
지회장
지식과
직할
직책을
직거래
진을
진성
진술
진주시
진실을
질의
질주
질타
질책을
집이
집결
집계
집닥
쪽으로
차원
차가
차현
차상
차재
차영
차범
착공
찬양
찬반
찬열
찬성을
찰리
참사
참고로
창당을
찾을
찾은
채이
채우
채무
책과
챔프
처치
처해
천도
천명
천태
천리
철회를
청계
청룡
청사를
청해진
체중
체스터
첸나이
첼시의
쳐들어가
초등
초신
초점을
촉발
촉진으로
총살
총체
총영
총리에
최치
최루
최재
최수
최무
최철
최현석
최명수
추이
추축
추후
추밀
추궁
추세를
추석을
축사
축제를
축제에
출소
출강
출품
충칭
취한
취체
취하지
취지를
취지로
취임을
측의
측정한
치타
치과
치기
치요
치켜
치면서
치르는
친노
친여
침해
침입
침례
침몰
카톡
카림
카쿠
카잔
카렐
카드의
카일리
카브리
칼부
칼날
칼리지
칼리스토
캐치
캐딜
캐리어
캠벨
캡처
커다
커미
커진
커플
커지는
컨페
컨텐츠
컨퍼런스
컨트롤
컬링
컬럼비아
컵에서
케른
케르베
케어비
켄트
코마
코소
코카
코흐
코딩
코닥
코치를
코치가
콘코
콜을
콜드
콜럼
콜팩
콩쿠르
쿠노
퀴리
크레디
클러스터
키미
키미는
킬렌
킹스턴
타사
타파
타지
타살
타케
타블로
탁지부
탄트
탈해
탈취
탐욕
탑재
태을
태도
태연
태그
태선
태진
태백
태프트
태국의
태종의
터치
터르노
테너
테크
테살
테스트
테일즈
토드
토즈
토마스
톤당
통장
통학
통제
통폐합
퇴각
퇴출
투항
투자를
투수로
투게더
튀니지
튜구
트레일
특임
특사로
특성에
특색을
튼튼
틀라
티그
티무
티머
티몬
팀수가
파일
파병
파산
파머
판명
판타
판검사
판소리
팔메
팝업
패전
패딩
패하였다
패밀리
팬들
팬들을
페니
페미
페론
펙토레
펜싱
편협
편지로
평범
폐막
폐업
포도
포상
포용
포인
포러
포울
포항공
포워드
포기의
포틀랜드
포브스
폭력
폭격
폭탄
폭넓
폴은
표한다
표도로
푸아
푸드
푸른
풀고
품다
품바
품격
풋살
풍월
프라이
프레이
프르바
플레스
플러스
피스
피로
피를
피살
피용
피카
피신
피폐
피스턴
피스컵
픽업
핀테크
필리스
하전
하니
하당
하치
하타
하즈
하영
하청
하승
하라
하후
하퍼
하벨
하에서
하우스
하거나
학자
학문
학계
학파의
한스
한은
한도
한문
한지
한홍
한류
한영
한분
한남
한강
한데
한승
한윤
한센
한림
한참
한쪽
한빛
한계를
한민족
함에
함정
함양
함형
함경
함부르크
함부로
합숙
합참
합하여
항해
항소를
항우가
항노화
해성
해의
해독
해병
해인
해럴
해밍
해줄
해명과
핵개발
했기
했었다
했습니다
행정을
행사가
행사로
행적은
향토
향년
향수
향우
향락
허정
허드
허난
헌터
헌신
헌츠
헤라
헨리에
헨드릭
혁명이
혁명으로
현영
현판
현장에
현상이
현안에
혈액
협회의
협상은
호위
호타
호크
호기
호황
호반
호크스
호랑이
혼합
홀슈타인
홈으로
홈플러스
홈경기서
홋타
홍재형
화학
화요
화양
화랑
화신
화백
화답
화신이
확립
확실
확률
확신
확장에
확실히
확고한
환자가
활기
황성
황위
황정
황현
황룡
황제의
회부
회유
회계
회사로
회복을
획기
횡포를
효고
효헌
효전성
후아
후한
후설
후퇴
후자의
후로도
훈훈
휘말
휘트니
휘하에
휴가
휴버트
휴관에
흐로
흑자
흑수
흑삼
흘린
희곡
히치
히르
히나
히스파
힘썼
힘으로
##악법
##하드
##하를
##하냐
##하듯
##였기
##다오
##ier
##ior
##ias
##ei
##ean
##eed
##go
##gy
##gu
##gan
##oc
##ok
##ox
##을까
##키스타
##는다는
##립예술단
##장치
##장비
##장군에
##장관이
##성인
##전당
##전지
##전람
##전적
##전에서는
##의사를
##의학회
##사부
##사기
##사상
##사용
##사회의
##사였던
##사진을
##이한
##이행
##이었
##이란
##이후
##이팅
##이마트
##자재
##자수
##자살
##자만
##자책
##자이며
##자리가
##자들과
##자였던
##자처럼
##니트
##니얼
##니스를
##니예비치
##니스와프
##천동
##천왕
##시안
##시도
##시일
##시행
##시에는
##시장을
##시우스
##시대의
##당할
##당길
##당하게
##당했다고
##위생
##위반
##원장
##원비
##원예
##원대회를
##호도
##호퍼
##마는
##마니
##마당
##마코
##마리
##마라
##마케
##마운
##마쓰
##마켓
##마민주당
##마스크
##마차를
##ㆍJ
##치다
##치기
##에다
##에너
##서트
##서가
##서도
##서블
##서더
##서기에
##스호
##스틱
##스틸
##스킨
##스러
##스틴
##스탕
##스쿨
##스마트
##스워스
##트롯
##가공
##가타
##가기
##가던
##가수
##가르
##가나
##가량
##가중
##가액
##가정의학과
##효율
##세상
##세노
##세인
##세탁
##세라
##세데스
##세예비치
##실업
##실용
##실적을
##은숙
##모는
##모터
##모집
##공모
##공히
##공작
##공영
##공여
##공급
##공학자
##간에
##간도
##간접
##간담
##간이다
##파구
##파라
##아로
##아라
##아줄
##아파트
##로에
##로지
##로라
##주도
##주곡
##주총
##주에서
##주자로
##주겠다고
##루트
##루즈
##루스코
##도바
##도심
##해도
##해상
##해경
##언과
##고는
##프란
##프슨
##프롬
##프레스
##프스키
##들기
##들여
##들에서
##들였다
##들처럼
##화재
##화수
##화하고
##화학자
##화통일
##토을
##토를
##토와
##정공
##정화
##정변
##정하고
##정하는
##정신을
##부녀
##부장은
##부시장
##EAM
##PC
##PM
##PF
##문제로
##문서를
##학대
##학원을
##명장
##명하고
##필드가
##드에서
##뷔르템베르크
##골퍼
##타자
##타워
##너와
##너즈
##동성
##동호
##동석
##동하는
##동대학교
##유는
##유격
##과대학교
##과정의
##현에
##현충
##준의
##크를
##듀코프
##16
##17년
##1억원
##1억원을
##0개
##일까
##일으
##일레
##일째
##업체를
##연방
##연승
##연계
##애폴리스
##지던
##지리
##지오
##지갑
##지법
##지겔
##지부에
##지주는
##기타
##기동
##기소
##기부터
##기운동
##기부를
##기반을
##기하학
##기세포
##독재
##병장
##병상
##병원은
##네의
##네즈
##소위
##소닉
##소했다
##농성
##농약
##보가
##보아
##보기
##보드의
##회생
##히기
##히데
##히라의
##6대
##64
##67
##5명
##5대
##5만
##5000억원
##대화
##대동
##대형
##대구
##대출
##대중
##대첩
##대전에서
##미지
##미상
##미쓰
##포트
##포칼
##포스와
##조성
##조리
##조7
##조약
##선교
##선관
##상당
##상부
##상사화
##상장시장
##상태에
##말의
##군단은
##군연합회
##한지
##한데
##국회의
##재는
##재산
##재창
##수립
##수이
##수스
##수부
##수요
##수련
##수액
##수렴
##수첩
##수상을
##수준을
##티에
##티보
##티와
##티잔
##티하드
##방문
##방으로
##방에서
##방식을
##방안에
##방문의
##곡성
##려면
##산은
##산림
##산틴
##산시장
##산단의
##되지만
##되거나
##용이
##용시설
##요스
##요한
##단인
##단에게
##체로
##체크
##축전
##축재
##물사
##노트
##노가
##노창
##노부는
##노스로의
##팀에
##팀이었던
##cat
##cont
##ail
##ron
##ren
##red
##록이
##어에
##어서
##어가
##어주
##어요
##어나
##합의
##합병
##비즈
##비통
##비뉴
##비엔
##비밀
##비디오
##비치는
##야스
##야말로
##코다
##코스는
##코시티
##코퍼레이션
##인하
##인구
##인명사
##교는
##교부
##교동
##교리
##교장에
##육성
##맨더
##게니예비치
##측정
##측에는
##터의
##터링
##테가
##테로
##테스트
##평생
##평했다
##양립
##양성
##양의
##양행
##양주교육청
##ta
##ten
##tra
##ba
##bp
##bal
##ler
##2대
##24
##2야전군
##즈수영대회
##투기
##투어
##투쟁
##투위원장
##감으로
##ney
##ki
##ka
##kin
##kla
##틀조선
##작이
##작용
##작인
##우시
##우호
##우회
##표지
##행원
##행히
##류장
##류를
##나로
##나갔다
##제도
##제과
##제분
##제과의
##제도를
##무가
##무현
##무기
##무형
##무력
##무역을
##진한
##진강
##만한
##만인
##랑카
##태자를
##태자의
##두리
##두각
##두섭
##결을
##결정
##권으로
##창범
##영과
##영암
##앤씨
##앤소울
##레트
##레스의
##레스는
##레나가
##황은
##린팅
##린도서관
##린스키
##할지
##받도록
##받는다
##받았던
##리상
##리던
##리적
##리움
##리에게
##리면서
##리기도
##리지는
##등이
##바사
##바스
##바토르
##오에
##카시
##카로
##카르
##카쓰
##카스가
##카지노
##4대
##분리
##분석
##분들이
##분들께
##남녀
##남양주교육청
##발도
##발생
##내지
##내기
##희는
##희의
##희를
##희와
##겠지만
##겠습니다
##왕을
##왕국
##형인
##형외과
##력은
##있고
##경연
##경에는
##란과
##란젤
##S를
##SR
##SPA
##식생활
##여한
##여러
##불은
##불교
##적이며
##심판
##데냐
##광중학교
##종은
##차는
##버대학교
##버렸다
##버스터
##관계에
##직은
##직업
##석주
##석해
##취업
##턴의
##턴스
##턴은
##생이
##생으로
##법안
##범은
##IE
##ADA
##텔레스
##침례
##저를
##통제
##신고
##신찬
##신협
##신하고
##신학교
##신에게
##순위
##순양
##순위로
##순찰사
##디파
##디슈
##증손
##증으로
##증상이
##헌장
##헌관은
##망이
##망에
##구나
##구매
##구장으로
##구조를
##매물사
##라서
##라지
##라바
##백이
##백과
##입법
##케르트
##철이
##철과
##숙박
##왔던
##온의
##온스
##75
##72
##8호
##mm
##mu
##man
##mat
##han
##ham
##ya
##win
##ward
##ware
##warz
##워즈
##급과
##급여
##3대
##32
##99
##변화운동
##담으로
##출판
##출했다
##C의
##CC
##속비서관
##송라이
##계로
##계선
##계엄
##항에
##탈라
##슬레
##MO
##uc
##ux
##ust
##협정을
##론과
##덕동
##vel
##래는
##래닛
##누리
##누스와
##훈을
##훈의
##질이
##BL
##손자
##손실
##손해
##격투기
##족이
##슨트
##됐으나
##점수
##량과
##브나와
##브영은
##브로드
##중국
##중재
##중수
##운이
##운전자
##엘츠
##밖청소년
##후에
##후드
##후무한
##복의
##복이
##복구
##술에
##츠의
##츠와
##메일
##메인
##L의
##L이
##품격
##러는
##러를
##러시아
##러스트
##집에
##집으로
##컬링
##난의
##난과
##환송
##DH
##때로
##익이
##색이
##놀트
##득점
##REA
##율제에
##열린도서관
##났지만
##개최
##개국이
##G급
##큐어
##금성
##배의
##배상
##배양
##퍼트
##퍼런
##더맨
##풍의
##채를
##채영
##쿠스와
##편성
##편으로
##총회에서
##았지만
##겨울
##습니까
##녀로
##클라
##패의
##패가
##플로
##플랫폼
##플로우
##플래닛
##귀족
##탄의
##함으로
##책의
##책으로
##FK
##컨트리
##컨설팅
##T의
##TBC
##혜영
##켰는데
##텍스
##텍은
##졌으나
##판이다
##혁명의
##확대
##액은
##택은
##택이다
##봉의
##봉사회
##ée
##닝언
##객들은
##쪽의
##돌봄
##추는
##추세
##텐더
##삼진을
##촌에
##딩거
##멘스
##멘탈
##답게
##피안타
##캐슬
##딸로
##예바
##예산을
##커가
##초에
##룡을
##약한
##팅게
##런너
##런히
##런파크
##친위대
##샤오
##볼리그
##볼연맹
##링에
##랭이
##걸리
##UH
##님께서
##암아
##field
##셔너
##렌티
##렌부르크
##염의
##쟁점
##헤드
##뜨리고
##밍스가
##것은
##특위
##특구
##특보를
##밴스
##뱅킹
##쉽을
##븐에
##삭스
##놓을
##탕이
##콘서트
##쳤지만
##ju
##얼리
##휴양
##딘의
##풋볼리그
##ZY
##폭스
##폭격
##룸에서
##혐의로
##첨단
##뿌리
##팩을
##챔피언
##멕시코
##밸리
##으로의
##으로도
##에서만
20만
20일부터
20세기
20년간
2030
##했다며
19명
19일에
10회
10일에
10명의
10개의
1000만
10세가
##하였습니다
대한사회복지
대한청년단
대한상공회의소
##하는가
##학교의
2005
200만
2003
한국수
한국으로
한국당의
한국건설
한국정책
한국식품
한국통신
한국투자증권
한국농업
한국해양
한국기독교
한국서부
한국사회적
한국관광공사
15명
15만
15세가
1537년
지난날
대한민국과
대한민국과의
##위원과
대표최고
광주로
광주와
광주북
광주학생
광주서구
광주비정규직센터
광주혁신포럼
##회의장
##면서도
113
11일까지
11일부터
대통령경
대통령이었던
1994
12살
12명의
12년간
이후인
이후로는
지역현
지역위원회
지역에서의
지역아동
지역주민의
자유시
자유주의
자유로운
##들이고
일본이
일본어
일본군은
일본사회
일본경제
일본군이
일본서기에
일본풋볼리그
##5년에
함께할
미국을
밝혔다고
17대
17일에
17일부터
18회
18세기
의원에
의원인
의원들은
후보로서
후보직을
후보자에
##리그에서
정부로
정부인
정부예산
국민에
국민과
국민대
국민들을
국민의회
국민당의
국민체육
국민당은
국민공화당
국민안전처
국민연금공단
국민소통
국민청원
더불어민주당을
더불어민주당원
##시아키
##대학교는
##대학교의
##대학교를
조선이
조선에
조선독립
조선언론
조선귀족
##1년부터
##00회
##00억원
프로세
프로미
프로골퍼
경기장에서
리그로
14일에
14세가
사회를
사회학자
2세기
2세에게
서울을
서울과의
서울교통
서울지방검찰청
##적으로는
당시까지
##스트루
##스트투자증권
선수와
선수인
선수들에게
선수들과
선수로는
문재인의
민주적
민주시민
민주주의를
민주변화운동
##대표대회
##대표회의에서
1세를
##되어야
제1부
제1대
제1서기
제1형사
제100회
##교육이
##교육부
##교육감
##교육재단
민주당에
13명이
13명의
13세의
1389년
##방송을
168
16세의
이어진
이어가고
이어받게
24일부터
FC에
자신과
자신감
자신에게
자신들이
지원단
지원한다
국가가
국가예산
국가안보
연구회
연구하였다
연구소에서
연구진은
연구용역
축구단으로
활동하던
프랑스로
프랑스어
프랑스와
프랑스에서는
프랑스와의
프랑스군은
중국식
##되었음에도
사업부
사업단
사업들을
사업부가
사업부문
사업단장
국회의장과
국회의장에
회장에
회장직을
기록에
기록과
기록으로
기록이다
기록하여
기록했으나
이날까지
##eration
##센터의
시작되었고
시작되었으며
위원에
위원과
위원장과
위원회는
감독상에
참여하기
참여했으며
시즌과
시즌으로
교육장
교육에
교육장으로
교육부와
교육학박사
세계로
세계은행
세계선수권
세계기아
독일이
독일인
9월부터
선거의
선거로
선거와
선거인
선거사무
이번엔
이번에도
우승의
우승하였다
5월에는
##사업부
##사업이다
##사업조합
아이드
아이작
아이들은
아이들을
아이엘츠
에서도
운영해
운영차
운영위원
운영하며
운영되고
운영했던
운영하였던
운영중인
##ond
##ony
30대
30만
30초
30일에
30여명이
12월에
아들까지
진행할
진행될
진행하였다
영국과의
정치국
정치개혁
정치가로
정치권에서
정치외교
국회의원은
국회의원들이
8월까지
천황이다
천황에게
##항공단
국제선
국제무
국제적인
국제협력
국제표준
2325
전남스포츠
전남동부
방송이
방송은
3세로
참석하였다
참석했으며
11월부터
부산의
부산진
부산과학기술
삼성전
삼성에
삼성디스플레이
사이였던
현대의
현대증권
현대인들이
현대미술
한편으로
##레이트
##레이크
##레이터
문화를
문화적
문화공연
문화경제부
2월에는
##들에게는
러시아에
러시아에서
제2의
제2훈련
제21회
1944
1942년에
4월부터
22만
그러던
6월에
6월에는
소속이
소속팀인
##ans
##ance
##본부장을
공동위원장
공동체를
공동협력
정의당에서
##스타일
사람사는
사람으로서
시민들을
시민안전
2023년
이용을
이용주
이용하여
이용자들이
##ena
##지원의
##지원과
##지원단
##지원단의
##지원사령부
##인민당
27석
270년
제국대학
추진과
추진한다
추진하기
추진상황
SKY
SK인천
김영주
김영철
김영춘
통합해
통합하여
개최됐다
비롯해서
때문이라는
유럽에서
유럽연합
##int
교수직을
대학에
대학이다
대학원을
전국이
전국에
전국학교
전국여성
전국언론
프리랜
프리큐어
하나였다
교황과
교황으로
김정일
김정일이
##arm
##연합당
기업들의
기업인으로
계획이
계획이며
사용을
사용해
사용하여
사용하지
사용료로
우리지역
장관의
장관인
국회는
국회법
##회사인
264
26개
경찰대학
경찰서에
선정해
선정하는
선정한다
선정됐다
선정되었으며
선정되기도
학생을
학생은
학생들과
##ork
##산업단
##산업협회
##산업특보를
발표는
발표에
발표하며
이사의
이사장과
출신이자
##연구회
##연구센터
주장도
주장했는데
방문할
방문하지
방문단은
##기업을
##기업인
대상은
코로나19의
있었다는
##니아의
##니아와
설립하였다
시장과
아버지에게
만들겠다
만들었던
만들기를
이상한
이상재
##문화센터
배우가
배우고
28일에
들어갔
들어간다
들어오자
들어갔고
2016년에
2016년부터
2016년부터는
최고위
최고인민
최고사령관
문제다
문제점을
문제해결
상황과
여성을
여성이
임명하고
임명하는
임명하였고
에드문트
조지프는
조지타운
##운동으로
##운동본부
물리학을
물리학의
물리학과
물리학에서는
수상하는
수상하였다
총선에서는
행정명
행정위원
행정구역
##사회에
##사회당은
실시하는
중심이
중심지
2017년에
2017년까지
정책이
정책은
정책으로
정책자문
원내교섭
##발전에도
1926
1925
지난해에
지난해부터
광주시장
광주시의
광주시선대위
경제가
경제적으로
경제활동
경제산업특보를
알렉시오
알렉세예비치
자동차는
자동차의
자동차가
아니라는
인천으로
인천국제공항
인천영종
국민의당이
사실에
사실과
사실이다
사건이다
통일부
통일교의
2014년까지
독립행정
독립신문
예비창업
##로서는
알려지지
##사단이
##기관과
##기관이다
##관리센터
##관리공사
##후보의
받아서
전문지
전문으로
창당하였다
창당하게
창당되었으며
창당하였으나
항공대
항공우주
그룹은
그룹이다
성공했으며
참가했고
참가하지
참가예정
이탈리아가
이탈리아에서
이탈리아와의
멤버다
출연진
출연했던
##기술원의
결과가
결과로
##지역은
개발사
개발하고
구성하였다
구성되었다
구성되었으며
역임하며
1910년
1913년
스타로
스타드
영화제작
공개하고
공개하는
예정이었다
예정이었으나
포함돼
포함됐다
포함되지
즉위에
즉위와
즉위했다
즉위했으나
즉위식은
100명
1000년
100kg
100분의
100G급
김성기
김성재
사망하고
사망하는
사망했고
사망하였고
사망자는
생활의
생활이
야구에서
김영삼과의
고려의
고려아
고려하여
고려에는
고려공산
제주도의
제주도가
제주본사
프로그램에
결정에
결정한
결정하게
결정됐다
대구방송
데뷔는
데뷔전
처음이다
고객은
고객들이
고객들의
로마와
##도시설
##도서관이
##도서관과
##대학으로
##대학에서
##대학펜싱
2010년에
2010년에는
보수정당
연맹을
필요성
##시키며
##시키게
##시키기로
25일간의
원내대표도
31개
31일부터
김종갑
LG이노
LG전자가
동안의
생각한
생각하는
생각보다
총장직
##ato
##ats
경남은행
안전하고
안전건설
주요한
평가는
평가에
평가해
평가하는
평가하였다
평가전에서
받았다고
있어서는
제공을
제공하며
공격이
공격하며
공격수로
광양항
광양제철
당선에
당선되
당선될
비판이
비판한
비판한다
##고등학교로
##고등학교탁구
##정보를
##정보법
동아프리카
바이지겔
어려워
어려운데
어려서부터
일부로
일부를
필리파
필리포
환경생태
##체육관에서
##개발을
##개발원
1936년
1932년
챔피언스리그를
마련에
마련한
마련할
박정환
발생과
발생함에
요구자
요구에
요구했으나
제작을
제작자
제작에
제작진은
출마할
출마했다
출마했고
출마했으나
2011년부터
2011년까지
NBA로
NBA와
사장에게
조성할
4일에는
결혼이
결혼하게
결혼했고
결혼하였으며
보고를
보고회를
이적하였지만
각각의
국내에
특별위원회를
기대감이
도시의
지방시
지방법원
##시장의
2018년에
2020년부터
경우도
안철수는
안철수가
안철수를
정당에
정당별
청와대의
확대된
확대하는
##ely
##elor
어머니를
##heim
공작은
공작령의
레이던
레이먼드
왕조이다
증가할
최종환
18일을
30일에는
28일에는
고구려를
과정은
대신에
스페인이
스페인은
학교의
학교를
학교밖청소년
위원장도
미래의
미래한국당
설명하고
전투이다
지속될
지속되었다
가수인
가수이다
노동당이
동생을
매출은
생산자
생산된
생산라인
소련에
##스키의
경기도가
1년치
돌아갈
돌아보고
돌아가게
바르게
정권재창
##지사와
##ries
청와대는
리처드는
6세는
가능성을
가능성도
그리스는
그리스의
그리스와
분야로
분야에서는
인터내셔널
지휘를
지휘했다
지휘하였다
지휘했고
직원의
직원들의
직원들을
진보정의당
국가대표로
K리그1
건강기능
건강증진
롯데케미칼
면서도
역사에
역사와
이미지를
이미지와
전주지부에
지지자
지지에
지지율을
지지율은
회원들이
회원들의
KBS는
기간이
노력이
노력했다
아르놀트
출시가
20일을
14일에는
순천시가
순천시와
대비해
대비하여
대비하기
산업을
지냈으나
총재직을
판매해
판매한다고
포르모
포르테
기독교를
가족들
가족에게
가족들의
혁신을
혁신의
혁신적
15일에는
내용에
월드비전
유지해
조직의
조직되어
##병원에서
1907년
광주광역시는
광주광역시장
광주광역시가
예비후보가
예비후보로
게임의
과거의
마을에
마을만
마을에서
마을주민
브랜드로
브랜드인
선언을
성장동
성장세를
활약하며
##시설을
##시설도
##시설과
2007년에
2007년부터
데이메이
서비스로
정보가
정보보호
준비한
준비위원회
차지할
총리와
화순열린도서관
##이사자처럼
박정희가
박정희와
관리제는
기술연구원
농업을
이해를
이해할
인정할
인정하는
전달해
전달하고
전달받은
청소년수련
출전하지
한나라당의
##중앙방송
기념식
기념하는
추가해
탈당파
탈당해
##단체가
경영을
경영자
등장인
등장하여
등장하며
이유에
이유식
전년도에
##ouss
1990년에는
검찰총
결성하고
결성되었다
계열사가
과학적
반대하여
시간과
해당되는
혐의에
호남을
호남권
##ets
##협의회는
공연은
부인은
연방주의자
연합뉴
연합하여
연합군은
연합군에
연합뉴스
울산시
이전하는
이전까지
피해가
피해자가
##정당인
국가대표팀을
국가대표팀에
국가대표팀은
50만
50주년
FIVB
개선에
개선될
개선하기
단체를
예상되어
오스트롬
클럽이
클럽으로
##ities
##스티슬라
##통합민주당
##통합지원센터
모스크바에
개혁과제를
그녀에게
마르가리
승리해
승리하였다
요청한
요청할
요청하는
제품이
제품에
제품으로
중화산동
체결한
체결하였다
확보해
확보할
확보하고
2006년에
여수시가
40주년을
강화와
강화하고
강화하는
강화하겠다
계승한
계승하였다
계승자가
기여했고
보내고
보내주신
부르기도
서구는
서구청장
에어포스
올라가
임시로
기반이
김일두
김일영
대응할
대응하고
변경의
변경된
변경하였다
변경하여
변경되었다
보도자료를
않았다고
출범하는
한전은
한전원자력
##정책의
##정책관
##학과는
##학과에
##조선연맹
##진흥협회
1997년부터
공공체육시설
되는지
올림픽에서
우수상을
유진그룹
유진저축은행
의혹은
의혹도
이재성
이재순
이재승
자리인
존재했던
존재하던
취임한
취임식을
##생활에
##생활시설
29일만에
새정치국민회의로
새정치국민회의를
새정치국민회의와
KTV
기타를
담당했다
담당한다
담당자는
시행에
시행한
시행되고
완도군은
요시이에
요시타카
요시쓰네
의견도
의견으로
의견수렴
이동욱
인물로
인물인
장제스가
지적한
지적재산
활용하는
##대책특별위원회
광산구청장
드라마로
기원하는
도쿄로
도쿄올림픽
동양대
동양그룹
동양화부
아내로
언급을
언급하였다
이종형
제3자
제3회
종합숙박
종합격투기
행사에서는
확산으로
확산되면서
320여
강조한
강조하고
강조하면서
나이팅게
명예의
명예가
반영하고
발견해
발견하고
발견되어
발견되지
제기되고
제기했던
토론을
##원으로부터
##지방국토
다이요
민족의
민족자본
민족해방
민족문제연구소
박재범
엘리트
전남도가
##의료원은
##가가치
사회적가치
프리미어십
경희고등학교
경희중학교
경희사이
나타날
나타내고
분석하고
의장인
이루었으며
이루어진
전망을
진도7
진도군은
채널A
채널CG
합병에
합병된
해외봉사
해외취업
1987년에
1987년에는
국방군
국방장관
불교의
불교를
수행한
수행할
수행하고
수행하며
수행비서
이야기로
크로닌
38도
380년
3838
결승에서
결승전에
공모한
공모사업에
드러낸
드러난
선발로
선발하는
인민공화국
인민무력
회의의
회의에는
회의에서는
자유민주당의
1883년
월드컵에서
한나라당과
공무원이
공무원과
공무원연금공단
발매했다
부회장의
상임선대
설치할
설치했다
유니언
투자에
##인공지능
1996년에
GS25
GS홈쇼핑
기준에
논란을
목포신
목포중
바로투자증권
##ure
##ura
사회주의적
사회주의통일
포르투는
KB금융그룹
금호1
금호중앙
금호터미널
노래가
노래로
산하에
산하에서
선교부
선교사와
소통해
연기자
영입하였다
영입하여
영입되었다
운동의
운동권
인수한
확정된
확정됨에
희망이
희망하는
##나가고
##나가겠다
국정원의
나가기도
남편의
남편에게
세르게이
세르듀코프
언론과
언론인
언론악법
일반적인
제안하였다
주도하고
주도하여
주도권을
책임감을
친구로
친구인
##사관의
##사관으로
##계획에
##엔터테인먼트와
삼성전자는
가문은
가문과
가문인
김현성
김현정
김현수
김현철
내각이
달성해
달성한
달성할
달성하고
레오폴
모델을
보여주는
스포츠의
올랐고
올랐으며
일자리창출
자료로
지정되어
추정할
##시켜야
##us의
전문가들이
태어났다는
박헌영이
근무한
근무하는
근무하다가
수사지휘
수비수로
스코티시
신청한
않았기
앨범을
앨범이
이와키
자문위원회
정상적인
합류해
합류하여
합류하면서
##자동차의
##0년대와
바른미래당이
고민환
금융위원회
금융노조
발언으로
소방관
신한국당의
신한국당으로
실적은
파이프
확인하고
후계자인
##사이시
##사이에
##사이언스
##통신기술
아시아나항공은
아시아나항공과
경험한
명의로
복지TV
블루웨이
블루밍스가
수석에
수석보좌
수석코치가
안정적
안정된
예방과
예방수칙을
의미한다
작품을
작품으로
클라쓰
라이온즈가
라이온즈에
군민이
동구는
동구청장은
스튜어
제42야전군
획득한
##기념재단
##노스아이
민주노동당과
김일성은
김일성과
State
공유하며
국왕과
김수연
민중당과
스위니
요미우
은퇴를
은퇴하고
음반을
이수현
조약에
한화투자증권
한화케미칼
##시간에
Charl
남북관계
남북정상회담
시설개선
아직은
아직까지도
전통이
치매예방
치매극복
치매환자와
하이투자증권
합당으로
##시즌을
##스턴트
##스케그
##스케이팅
##노동위원회
1992년부터
1992년까지
가입을
가입자
경성대
경성콤
경성광산
공급에
공급할
귀족의
귀족들
동부그룹
무안읍
복귀하여
복귀하였고
소유주
시리아의
시리아군은
아마도
여기에는
장성삼
최우선으로
해체되었다
해체되고
##제국을
##텔레스의
##철도망
1955년에
고등학교에서
선임되었다
세종지부
수립에
수립해
이때부터
작곡가
작곡했다
작곡가이자
장남인
전체에
텔레비
텔레그램
핵심인
핵심가치
##전문대학원
1892년
1945년에
매출액의
559년
개편에
개편한
마사미츠
마사시게
몽골의
비상장
비상국민회의
비상대책
비상계엄
신민당과
실패에
실패한
아동문학
아동미술부
연결된
영토의
영토로
올리버
은행장
이웃들에게
이웃사랑
제7보병사단
조승수
조승래
조승우는
지시했고
지시했다는
축하했다
축하한다
출판인
출판된
표현의
표현한
표현으로
후원하는
##iva
##소프트볼연맹
##농업기술센터
##흥군연합회
##받아야
1980년에는
어린이와
스코틀랜드의
페이스북을
거두어
국토부
기본적인
나오고
나오지
민간인
부진이
부진했고
세이브
세이브를
소재한
와이파
위반한
이시언
입당한
입당하였다
적용해
적용한
정신건강
패배로
패배를
패배하며
평양에
프란시스코
해적당을
민주국민당에
하나금융지주의
중화인민공화국이
가경제의
가경제가
감사패를
감소할
구매한
나서며
달러에
동맹의
동맹에
바오다
반발하던
받았던
받았는데
방법은
선생님
소개하는
시티와의
아키타
아키라
이래로
일어났고
재난기본소득
집행위원회
집행위원회는
초기와
파리에서
이라크군
필요하다는
세르비아인들은
소프트웨어의
홈페이지에서
플랑크의
플랑크와
거부하였다
거부권을
거부하고자
건국대학교
건국준비
공직에서
구조대
국무총리가
국무총리로
김기태
김기창
김기식
김기춘
내려올
맞이한다
발굴해
승격해
승격했으나
아래쪽
약속한
연주와
인권변호
제5차
제59회
중단할
중단했다
중단하고
진주성을
진주성이
창업주의
투입되며
프레디
하락한
후반에
##otion
##공동대표
##공동체를
##부문에서
##소방학교
##소방위원회
1978년까지
##시키고자
바르셀로나로
바르셀로나와
바르셀로나에서
379
395
기능이
김진규
등록을
떠나게
떠나면서
방침을
부정축재
부분을
부분이
부분은
수요자
스토리로
왕국에
왕국과
자체가
자체적으로
자체사업의
정몽준
집중하기
##이어서
대표팀을
연세대학교에
여운형의
트럼프는
450
80만
공산당이
대부분은
디지틀조선
부터는
사태로
신속하고
암살당하자
오리엔
왕비가
우려가
유통업체
이성우
이성계
이자보
입단하였고
점검을
점검하고
정종순
존슨은
존슨앤드
친일파
친일인명사
훗날의
##트비체
1845년
1876년
1874년
민주평화통일
1946년에
들어가고
관광객이
페르시아어
문화체육관광부와
워싱턴침례
전두환으로부터
가정제의
개정안을
검토해
경선에
글래드림
다카아
대공국
만든다
바뀌게
방어전
방역에
부족이
상승이
수출을
알리는데
이론에
점령할
점령했다
점령하였다
창단해
창단한
창단된
창단하였다
청주상당
페이코
페이턴
회복하고
##전선에
##아이파크
한국동서발전은
한국동서발전㈜
1984년에는
행정안전위원회
새천년민주당을
방탄소년단의
PD와
PD수첩
SPD
SPFL
골든블루
김경문
바람의
발탁돼
비디오판
사무총장을
사무총장의
선포하고
선포하였다
선포하였으며
야마다
오히라
이기고
재판에서
전환을
전환이
주재하며
지내면서
지급을
클래스
파견해
파견하고
펼쳐진
형제와
형제인
##장관회의
##조사위원회
##평가원
J1리그에
루마니아의
542
60대
600년
Int
KCG
가지게
가까워
관람가
관람한
관람하며
권한대행을
내세웠다
노선인
노벨상은
대책에
덴마크에서
물러나
보호에
부대와
부여받았다
부총리는
불러일으
상대인
선택하였다
스트라
식품공학자
아랍어
여름방
자녀가
전사한
취약지역
투수코치
파라과이
파라모어
파라과이의
현지시간
##회장에게
##경영인
1850년
1837년
1833년
국회의장실에서
사령관인
사령관으로
루트비히는
ASF
가을의
간호병과
간부공무원
강경준
고문은
김용호
나누었다
네이든
도입하여
득표율을
리더십
반란이
보낸다
비중을
비중은
사무처장
상품으로
서명하고
서명하면서
선전미술부
선제적으로
시청률을
실현에
연예계
이외에
재개하였다
전당대회
전당대회를
집권했다
총괄본부장
추기경의
태풍으로
투어가
형성된
형성했다
##마이너스
##스럽다고
##보험공사
1세와는
조흥은행에서
654년
MC로
갈등이
권력에
라리가의
마리노스와의
마리노스로의
박병규
밝히고
브래멀리
비밀을
빌헬미나
상하이에
수여하고
수익금
수익성이
수익성은
응급의학과
이뤄져야
인근의
자격이
자격증
작성된
장악하였다
정인홍
정인영
정규리그
제시한
제시했다
주변의
주목하는
차남이다
치러질
카카오페이
파주시는
파주시의회
파주시립예술단
편성해
협조해
공동체와
챔피언십에
호남대학교는
53회
가져와
건립되었다
게이힌
김준환
김지선
김지영
김승일
김승연
대리인
문효세
문무왕이
발행하는
발행가액
부모의
부모님
선고받
선고받았다
실천한
여론이
여론조사에서
유명하다
유명했던
임대주택
전자지갑
탈퇴한
탈퇴했다
편입되었다
편입되었고
혁명여
후임에는
후임자인
후지이
후지코
후지TV
##주식회사는
##기간을
##상황을
##상황실
10세회
1495
1492년
1493년
제164
1959년부터
최고위원과
받아들일
부회장에게
가상계좌
가상현실
개입을
개입으로
겨울전쟁
계급을
계급에
계급으로
고속도로
고향에서
공헌을
공헌했다
공헌하였다
공항은
그것은
긍정적
도와줄
도와주는
동참할
드림스
떨어져
떨어졌다
리가포칼
목소리
무대미술부
부시장은
부임했다
부임하였다
부활을
부활의
부활절
부활시켰다
비교해
살해하고
성과가
수록된
수입하여
연수원
이병헌
이병훈
전주시장
종교개혁
진급한
진급하여
진급하였으며
##사건과
##사건으로
##여객철도
코로나바이러
SK하이닉
##자로서의
SM엔터테인먼트가
신익희는
ISU
ITZY
가르침
가르쳤다
간담회에는
공천을
국무장관
국무회의에서
그리츠
그리하여
김유화
김유신
루카의
무사사구
무령왕의
무령왕은
무소속의
배출해
부통령을
부통령의
수학에서는
앵커는
연대기
익산지방국토
정확히
제한하고
조봉암은
조봉암과
진에어의
치료제
침공에
토니상
플로이드
해소하는
해소하기
행동이
활발하게
##own
##사무소에서
##종합지원센터
##맥스소프트
1452년
1453년
아이유가
부르봉파르
경희대학교와
삼국사기에
자원봉사센터
668
격파하여
공감하는
광복군
극복해
극복하고
극복하기
김민석
김민철
김민찬
김명진
김한신
끝내기
남원시
남원부
노인복지
느끼는
느끼던
느끼게
동원F
동원하여
두산중공업
디자인에
뮤직비디오
미술평론
미술교육부
변화하는
보성읍
분열로
분열되었다
비틀즈의
사임했다
사단장
사촌이자
서기호
서기국장은
술탄의
실제로는
심사위원
에르빈
이광수
자산은
정명훈
정명환
정명훈이
정무수석
젝스키스가
좋아하는
지상파
채택된
체계적인
카이스트
##아들인
프로축구단이다
아우구스트
아우구스투
475년
가담하지
감안할
공간이
공간에서
공정하고
기탁했다고
마쓰다
마쓰노
매체에
밀란으로
바라프
바라며
바라보며
박찬주
박진영이
불과한
설득하여
안타를
연루된
연루되면서
연습을
유아기를
이창선
익스프레
정현웅
차르로
청나라의
클리퍼스
표창원
항복하고
형사부
후손들
후손으로
휘그당은
##세력은
##ult
1807년에
국립중앙박물관
전략기획팀
전략기획홍보
일으키자
일으키고
일으키기
상임고문에
해양수산국장은
해양수산과학원
콘스탄티노브
프란치스카
에레디비시의
Arm
가동하고
거주하는
그려진
그려졌다
김형수
니시테쓰
도전장을
뛰어든
로빈슨은
마틴의
명령에
무장이다
무장친위대
밀려났다
발발하였다
베스트일레
복무한
살인사건
소년의
스피드
스피어스
십자군에
얼굴로
여겨진다
역전승을
왕족으로
움직이고
움직이는
위키리크
위협에
유기동물
유관순
이슈로
자랑했다
자랑하는
전개해
전개하고
정착을
제9대
제9차
주축이
진나라가
카고는
포스코휴
하반기부터
##동맹을
##대장군
광주전남본부
1829년
1620년
전남대학교병원
경찰서장
순천만습
순천만국제
전북도의회
전북도지사와
선교사들에
아키히토의
브래그와
1군으로
1개를
62개
BNK금융그룹
GNU의
Sound
게오르게
고시엔
고령친화
관료이다
근처의
나카노
나카지마
납부한다
넘겨주
넘겨졌다
대립이
대립하던
레코드가
매카시
무효화
무산되었고
미니애폴리스
병사들이
브로셔스
사옥에서
수용할
스톤스
스톤에이지
스탠리
신사군
신사참
신도들의
신용등급
아트센터
아인슈타
안드로니
옹립했다
의사결
이만섭
이내에서
이순종
이복동생
일시적인
입장도
입사하여
재단법인
정례브리핑
정당이라고
조용식
조용래
지구당
총독이
칼뱅은
할아버지이다
함락되고
효율성을
희생타를
##iew
##ifa
##전국연합
##전국남녀
##범죄수사
1775년
중국인민정치협상회의
시민의힘
2022년까지
유니버시아드
ASME
부동산PF
천정배의
호날두가
1만톤
1만여
519년
가량의
건물주
고위공직
공통의
구간에
구체화
구체적
구리남양주교육청
독자적인
독자적으로
되었으면
리오그란
말씀을
메르쿠
메르세데스
문성왕이
문정왕후
문학평론
미야모토
발간된
베를린의
베를루스코
부군수는
부패방지
북쪽의
북쪽에
북쪽으로
북조선분
빼앗겼다
사라졌다
새마을지도자
새마을부녀
성적에
신학은
아미누
에버턴
연락이
올려놓
임관제도를
전무후무한
진지하게
진영에
창의사
창의적인
최연혜
추대하였다
카르탕
콘서트를
쿠데타로
크라위
클레멘스
택시기사
퇴임하며
파나마
한미FTA
합격해
해임된
현황을
##ization
##ute
##최고대표
한국남부발전
1725년
통합민주당의
페르디카스가
금호산업은
오늘날의
최소화하고
메탈리카의
프란치스코는
민경욱이
080
CPI
CPU
GMC
KOREA
LINC
LIVE
강릉방송국
경호원을
고이즈미
고발장을
관여하지
구혜선은
궁금한
기증한
김선민
노출된
농어업
농어촌
다다아키
대기실에서
도교육청은
루스벨
민원실
발의한
방향에
벌어졌다
보살이
분노의
분노를
빠져나가
사마사
삿포로가
상업가
상속권을
새로이
수영구
순간을
시흥에서
실종된
실험물리학
아테네의
안드레
안드레이
유타카
윤보선을
이고리
인상적인
임영신
자사주
자발적인
재무부
재무적
재능기부를
재학생들은
전후로
정일권
제8차
조각부
종로구
지목되는
직전인
진입한
추억의
태극학
테레즈의
편의성을
폐지하고
##자본비
##방위군
##체계가
##ched
##cheon
##ineering
총선거에서
받아들이고
타이완으로
나타나지
국정감사
가맹점망을
누리꾼들
누리꾼들은
파트너십을
2루수
3만3
Asia
American
ICT
▲문재인정부
▲문재인대통령후보
▲문재인대통령직속
가쓰야
개국하였다
게재했다
게르만
게르하르트
고토쿠
군대에게
권영길
김두관
나뉘게
다가올
다가오는
레닌주의
무시한
방지하기
새벽부터
서머너즈
세워졌다
손해액
손해배상
스베인
슬로건
아리마
양호한
오카다
유권자의
유권자들의
은메달을
이선재
이춘석
자손을
자손이었지만
전파되어
접촉을
정순왕후
지소태후
지소미아
진압하고
최용건
최진실
측정분석
트로트
트리플
트리니티
표방하고
혼란을
##자문회의
##박람회를
##동지회
##인력공단
1700년
1703년
1744년
1431년
프랑코포
이사벨라
들어서게
돌아온다
알아사드
알아사드와
아메리카노
농림축산식품해양수산
박태준과
베텔게우스는
서재필은
케네디와
3연속
Company
EXO
EXIL
NBC유니버
Soft
UN군
formu
가스프롬
개로왕
개로왕이
개헌을
게시물
김덕령
나주시장은
논쟁이
당나라에
드럼세탁
러브레이스
레나르트
론칭한
루터교
마우리키우스
모토로라
미용명장
반공주의
반박했다
블레어는
상회했다
선사하기
소송의
시범사업
신민주연합당으로
야드비가
역학의
역학조사를
완벽히
유키오
유성엽
의거하여
장병완
정광용
중간에
진흥왕의
칭기스
탑승한
펼쳤고
폐쇄한
##공학부를
1181년
1349년
국가원수가
아이즈원
아이폰11
현대중공업지주는
##문화예술회관
어려움에
고용정보원
이기택은
고로쇠수액
검모잠이
AP통신
Health
Hearts
Korean
Peter
RPG
ZARD의
각별한
강태환의
고연수와
과도한
구자철
김세련
김미연
닌텐도의
다문화가
단식농성
당대당
도달하였다
되돌려
로이터
만남을
매일유업
멀리하였다
메가스터디
무관심
박탈당했고
베드로가
사형에
서양화부
서초구
선호했다
선덕제
세자빈
스터전
스터디
스카우
승진했다
시바타
앤드류
예편한
원칙에
율리우스력
음식점
의용병
이베스트투자증권
인지도를
자아냈다
장덕수
전동화
지리적
진해장군에
처벌을
코스피
크누트
투신자살
파기환송
평등사회당
포장마차를
화합을
후지와라노
흥선대원군의
##주주인
##노미야
##hood
100년을
1549년
제18회
정치인이자
부산경남방송
공동선대위원장
인사청문회
동아시아의
진보신당을
검찰개혁에
한전공대가
기상캐스터는
기상캐스터로
골든이글스
ASML은
삼성SDS의
사로잡혀
송시열의
오하이오주
프로게이머이다
3루에서
Airlin
Ducat
Forb
Mok
THK
△김영
공민왕
공예부
구로다
김장김치
꿈꾸고
남해화학
낭만주의
단순히
당헌과
드래곤즈
들여다
루시드
매진해
맥도널
메뉴를
미스매
박지수
박기출
발레단
법학에서는
보육서비스
불거지면서
붙여진
비고라이브
삼척시
서경배
성황리에
성추행
성추행한
쇠퇴를
수완동
스퍼스가
신자르
아델리나
안상원
야노시
양승숙
연애의
연말까지
연관된
오다큐
오열하였고
유한양행
윤희순
읍면동
입헌민주당
정미수
주세페
줄어들게
청문회를
취항한다
카디프
카디널
클랜시
파르티잔
피겨스케이팅
하늘교육
해명했다
회고록
##보증공사
##비행단
##카쿠사
##sworth
##품질관리
1085년
한국중부발전
한국중고등학교탁구
미국프로골프
사회학에서는
제1기병사단
제12대
사이클론
아르테미스
법무부장관으로서
SMAP의
블루윙즈와
과학기술정보통신부
중앙집권화를
크리에이티브
3녀를
Blue
Good
Pepper
Plus
갈릴레오
강호순
거기서
검은사막
경무대
교도소에
그레이트
극장판
김무성
김무성은
김윤환
김택용
김봉룡
남쪽으로
노원구
대담에
레우키포스
레우키포스와
마찰을
만력제
매력적인
미스터트롯
바디프
박문원
보궐선거
사반왕의
생제르맹
생제르망
소경이라
수수료
수료생
순치제
스포르팅
시현했다
신하에게
신무왕
신무왕이
신입행원
아리스토텔레스
아리스토텔레스의
안보실
안토니우스
안창호가
앞세워
앞세운
어디서
여주인공
오이시
오시이
오고타이
오마이뉴스
옹진군
원광대학교
이치로의
잔류파
장난감
재계에는
전도연
정형돈
조종사
준수하고
줄기세포
줄어드는
진평왕
진평왕의
진패선
차명진
천문학자
총회장이
최문순
친수공간
카스티야
카스티야의
캐롤라인
쿠르드
태광그룹
태광산업
포트폴
포럼은
하드리아노
항소심
훌륭한
##효과가
##유니버시아드
##크라테스
##그래프
한국이미지
대표발의한
지역특화
프로모션
국제교류기금
대학일자리센터는
루이지애나
메이크업
정보통신망
노동계급의
슈퍼맨이
유니콘스
유니폼을
새누리당을
유벤투스는
정의개발당
정의개발당의
제도혁명당
아라곤의
자한기르의
서포터들은
종로학원하늘
Engineering
삼양식품의
Social
Societ
조병옥의
지주회사이며
2NE1의
스밀레츠의
유러피언컵
유러피언컵에서
총동창회장
플뤼겔스
플뤼겔스가
1박2일
BANG
CAF
Devotion
Ultra
▲김대중
▲광주비정규직센터
강소농
강영훈
견당매물사
계명대학교
고마움을
고쳤으나
광한루
교과서
권리당원
그램퍼스
근친혼
긴장감이
나날이
나왔다고
뇌물공여
단연코
대마도
독거노인
돼지고기
드루수스
디나모
떠오른
루도비쿠스
마녀가
면접을
명실공히
무신론은
문주왕
문덕면
뭉크뭉
바실리우스
박순화
백기완
백제신찬
법제처
베른하르트
보임되었으며
부지런히
부녀회
사모펀
상관이었던
석패율제에
성격이
쇼이구를
수강생
스폰서
안시성을
어드밴스
엇갈린
여우주연상을
연금술
영위하고
예보했다
와카야마
요르요스
우범곤
워즈워스
유년기와
윤석열
은거하였다
의열단
이쾌대
자영업자
적발된
정갑영
정차역
제압하고
조서연
주사파
채플린
천재노창
치렀고
칼로얀
캐서린이
코레일유통
클루브
토후국
플라이급
피고인
학무국장
한민구
히데타다
##유가행
##기압의
##독일방송
##axy
##신학대학교
광주지역위원회
국민건강보험
교육과학기술부
제2군단장에
경제부총리
일부개정법률
바르톨로메오
정권교체와
##ology
베이스타스
확정지었으며
블루팡스가
Child
남북협상에
정신궁주
United
득표율로
유사나헬스
도미니코
에르투룰의
119구급대
국가보안법
IFEZ의
야드비가와
성균관대학교
어우러진
클라우디우스
다쓰노코
루프트한자
방글라데시의
위트레흐트
허니버터칩을
ENM
JB금융지주
KeSPA
Midd
PI필름
Richard
Train
VfB
What
㈜광주글로벌모터스
거느리고
걷게된
걸맞은
고드망
고상환
관동군
그렇지
금성대군
기든스
김시습
김익렬
낭암학원
눈높이에
다중이용시설
대영제국
델루나
독단적으로
동두천
되새기고
럭키금성
마스코트
막바지
말미암아
매거진
맹활약을
미식축구
바나나
박물학
박범계
백령도
베조스
베아트릭스
별개로
병영면
보천보
불구속
블레이드앤소울
비류왕은
사르데냐
사쿠라이
산하기관으로
삼민투위원장
성윤모
소가노
손예진
솔라나
수로왕
수탈을
스파이더맨
슬레이어
신군부
심은주
십자가에
싱어송라이
안치되어
안병용
압록강
액티비티
양산박
업데이트를
연제구
예결위
예브게니예비치
예금보험공사
위드이노베이션
유가상장시장
은언군
의전과장
인건비
인목왕후
저널리스트
적법한
전보되었다
전재수
전계대원군
조문객들은
조경태
중대본
직격탄을
진원면
진선미
진솔한
차석용
창건한
천일염의
카우산틴
카이사르
칼럼니스트
캔버라
캠퍼스를
코칭스
키몬다
타결에
투르크메니
판재류
페라라
포스터를
폰티액
플리트비체
한돈협회
한민당과
행주대첩
허블의
현덕왕후
후베이성
휘신공주
힌두교
##세무서
##보국회
##68HC000
##권한대행
##오염물질
##발레단
##갑산상사화
##침략대책특별위원회
##채널인
##총동원조선연맹
지역산업맞춤형
일본국유
조선공산당의
서울행정법
사업추진에
세계야구소프트볼연맹
국제사법재판소
전남문화관광재단
전라남도순천의료원
태어났으나
국립환경과학원
아르카디
예산결산특별위원회
청년농업인이
기타시히메의
##ission
오브라도르
선임행정관을
카를로마누스
엑스엘게임즈
무엇이든
미야자키
사법연수원
디즈레일리
주한미군
DGB대구
에스파냐의
##사회복지공동모금회
Frederic
대권후보를
새만금개발청
베아트리체
에픽테토스
로코모티프
거버넌스
던킨도너츠
동학농민혁명
러닝메이트로
마다가스카르
메커니즘을
우여곡절
팔레스타인
##교향악단
국립해양문화재연구소
82년생
Bentley
Buda
Dream
FT아일랜드
Fairies
GKL
Galaxy
Human
HOUSE
Kylie
Lonely
Polit
Queen
Rouge
Surf
Taylor
Vasco
▲광주시가정의학과
고도화
고단샤
고야산
고우다
고후카쿠사
고르바초프
고바야시
관청문서
구보타
국간사
국번없이
김혜윤
나하스
나그흐
나르베코바
날치기에
남십자자리
네버후드
네피도
넷스케이프
농식품부
눈앞에
눌바누
니이타니
다빈치
다국적
다이스케
대방이라
덕인당
도라에몽
드웨인
라본티
럭셔리
레겐스부르크
레콩키스타
레베데프
렛츠런파크
로큰롤
룬트슈테
르앙벌레
리리외
리데르크
리베르타
리메이크
리유저블
마자랭
마틸다
만지케르트
맞물려
맞바꾸
매사추세
맥아더
멋쟁이사자처럼
메클렌부르크
모가디슈
몬트리올
무지개
무르탈라
무너지자
문익환
미켈란젤
바덴뷔르템베르크
박시종
발맞춰
방방곡
백악관
버지니아
버네사
벌교읍
베버와
벤투호
보바리
부에노스아이
부일장학
부울경
분개하여
불출마를
브레즈네
비영리
비스콘티
삼다스톤의
삼각무역을
서라벌
선덕여왕의
성일종
성희롱
세네갈
세한대학교
세레소
셀주크
소시에다
소트니코바
손소독
수평적
숭산기념관에서
슈미트
슈바벤
슈뢰딩거
스래시
스맥다운
시즈오카
시진핑
신표틀
신탁통
심대평
싱클레어
아타우알
안서현
안규백
알프레트
애질런트
양전닝
어시스턴트
에치젠
에투알
오진원
오우에쓰
왕징웨이
외환위
우용득
울란바토르
위스콘신
유두석
유식유가행
윤웅렬
이합집
이남재
이매뉴얼
이더리움
이렇다
이스파한
이소로쿠
일데브란
일렉트로닉
임윤택
자코바이트는
잘생긴
잘츠부르크
재보궐
재규어
저출산
전승에서는
절친한
정봉주
정약용
제노바
조머펠트
조배숙
준이치로
지장보살
지묘인
차재헌
차범근
천리마
초등학생
최루탄이
최수종
추밀원
취체역
침례교
카렐리야
캐딜락
커다란
커미셔너
케른텐
코소보
콘코바르
콜럼버스
터르노보를
테일즈런너
튜구스케그
트레일블레이
티무르
티머시
티몬과
판타지
팝업스토어
페미니스트
평범한
포울센
포항공과대학교
포기의사를
폭넓은
풍월주
플레스너
피스마이너스
하즈피
한홍택이다
한센병
해럴드
향락에
헨리에타의
호기심을
효고현
흐로닝언
히스파니아
##마운트
##ㆍJTBC
##프란시스코
##유격대대
##영암군연합회
한국서부발전
한국사회적기업
광주학생독립운동
광주서구갑
일본경제침략대책특별위원회
일본풋볼리그에
조선언론보국회
전남스포츠과학
부산과학기술대학교
제2훈련소장
사람사는세상
전국언론노조
원내교섭단체
인천영종소방서
독립행정법인
항공우주국
참가예정팀
안전건설소방위원회
학교밖청소년지원센터
정권재창출을
건강기능식품
에어포스원
한전원자력연료
민족자본은행
경희사이버대학교
채널CGV
수사지휘권을
수석보좌관
Charles
경성광산전문학교
인권변호사의
존슨앤드존
친일인명사전
민주평화통일자문회의
워싱턴침례신학대학교
익산지방국토관리
부르봉파르마의
미술평론부
베스트일레븐에
리오그란데
서머너즈워
농림축산식품해양수산위원회
EXILE
Software
formula
Airlines
Ducati
미국프로골프협회
유사나헬스사이언스
싱어송라이터
투르크메니스탄
DGB대구은행
1가
1상
1리
1절
1톤
1심
1점
1당을
1사단
1명의
1기로
1학년
1패를
1주택
1주년을
1대대
1경기에
1이닝
1호로
1루에
1계좌
1분기에
1학기
2호
2모
2주
2팀
2면
2분
2강
2척
2곳
2달
2패
2볼
22년
2명이
2시에
2개월
2군단
2명으로
2km
2곳을
2이상
2청으로
2호기
2주간
2실점
3전
3파
3주
3E
3기
3군
3할
3형
3법
3승
3처
3집
36년
3위를
3명의
3대의
3국의
3인의
3인이
3회에
3시즌
3위는
3명은
3차로
3명에게
3호선
3분의
3번의
3형제
3청으로
3곡이
4자
4천
4로
4주
4살
4인
4발
4종
4m
4배
48년
43년
4대를
4명의
4일까지
4000
4가지
4경기에서
4인조
4패로
400여명이
5건
5번
5석
5배
5위를
5사단
5일까지
5위로
5라운드
5곳에
5등급
6골
61
6인
6만
6분
6차
6곳
65년
6위를
6명이
6명의
6일부터
6000
60여
6과정
6대대
6차례
60여명이
7인
7만
7분
7백
7억원
7세기
7분에
7가지
7km
8기
8선
8번
8차
8곳
8일에
8일까지
8일부터
8번째
800만
8개월
8주년을
880년
8뉴스
9천
9건
9연
9인
9만
90년
9명의
9000
9개월
9세기
A에
A를
A조
Ac
A와
A급
A3
AM
Au
AL
AQ
A라는
Ari
ASA
A씨의
ANC
App
ARP
Aff
Astr
A90
Award
B에
B를
Br
B와
By
Bu
BG
BK
BO
BBS
Ben
Bal
Bic
Bol
Bus
Bed
Bra
Big
B씨가
Bern
Best
Bank
BLO
BEV
Body
C로
Cr
CI
Cu
CH
Can
Cle
Cra
Cas
Cre
Cum
City
CAP
CHO
Care
Cup
CLP
Do
Dw
DK
Der
Dou
Dig
DPS
Dia
Dub
DNA
DNC
Die
DHC
DPM
DUH
Ec
EA
EM
Ev
ER
EV
Ele
EEC
E23
Ess
Ever
Ft
FL
FD
FW
FX
FBS
Fin
Ful
FNN
Fine
FDA
Fek
Foss
Frid
GE
G1
GA
GD
GG
GH
GF
GT
G스타
Gra
Gos
Gir
Gud
GNK
Gov
Glo
GAP
Group
H조
Ha
Hy
HT
HU
H본부
Hol
Het
Hot
Hist
Hung
Harm
I의
Id
IZ
IBC
Iris
Ibar
Jr
JI
JUM
Jose
JFK
K5
K팝
Kon
Kel
KSA
KOC
Kim
KMF
Li
La
Lu
Les
Lou
Lev
Lab
Lib
Lik
Lower
LDH
Liew
ME
M2
MK
MJ
Mer
MBA
Med
MOC
Mot
Mov
Mich
Mann
MIT
MAN
MTF
MMO
Mission
NP
NS
Ny
NW
NX
Nan
Nou
Net
NDC
Nav
Nich
NER
NPA
Night
NIP
Nabil
Need
OC
OV
OT
OEC
OTC
OCI
Okla
OIE
Pan
Pil
Pent
PFL
Penn
Pick
Poo
Pier
RE
RS
RM
Ré
Res
Rol
Rus
Rad
Rank
Rick
Rose
Rizz
S4
Sh
SB
SV
SU
Sen
Sem
Sun
S스파
Sev
Sant
Sav
SEA
Sho
Sup
Sinc
Sali
T모
T1
TC
TR
TF
TW
Tom
Tre
TAM
Tower
Torn
UA
UK
UFA
UFC
Uter
UHF
VI
VV
Vent
Vir
Vay
V10
WC
WBS
War
Wal
Wes
Wom
Well
WADA
XP
X선으로
XTC
YS
YB
Yes
YTV
YMC
Z홀딩스
al
con
cib
da
des
en
est
flo
fire
group
iOS
kt
on
pro
part
pect
re
red
rot
rhy
to
tim
tell
up
von
wom
zone
▲정
▲포
▲한
▲노
▲4
▲익
▲지역
▲의료
▲전남
▲청년
△노
㈜는
㈜거
㈜호
㈜티
㈜두
㈜뜨
㈜와이
㈜로우
㈜드림
㈜이마트
㈜파라
가사
가가
가루
가도
가미
가던
가방
가나
가바
가경
가차
가신
가속
가메
가림
가섭
가액
가택
가객
가혹
가꾸
가했다
가하여
가하게
가라는
가겠다
가하지
가이나
가기가
가이드
가이던
가필드
가브리
가시청
가졌는데
가정의학과
가보로
가모프
가필드가
각서
각국
각본
각의를
각국의
각지에
간을
간토
간미
간무
간절
간디
간달
간판
간언을
간절한
갈아
갈고
갈지
갈린
갈리
갈매
갈래
감성
감마
감지
감기
감히
감행
감금
감추
감초
감스트
감성을
감명을
감성으로
감행한
갑을
갑천
갑선거
갓난
갓갓
갔다고
갔다가
강을
강마
강임
강아
강정
강문
강명
강일
강인
강만
강권
강강
강신
강순
강반
강렬
강민주
강사가
강세를
강영철
강다니
강채영
갖다
갖기
갖던
갖게
갖혔다
갖도록
같고
같다고
개학
개소
개를
개조
개창
개분
개풍
개까지
개성을
개인의
개인공
개조를
개벌레
거사
거물
거역
거액
거칠
거쳤
거인의
거으로써
거울의
거성인
건전한
건전성
걸렸다
걸출한
검을
검거
검색
검체를
검술에
것보다
것인데
게일
게양
게베
게릴
게임을
게스트로
겐로
겨해
겨우
겨누
겨루는
격을
격정
격인
격으로
겪었던
견고
견조
견제를
견해가
결코
결속
겸허
겸하고
경이
경마
경안
경화
경문
경과
경대
경포
경감
경품
경초
경리가
경의를
경향을
경관에
경비정
경산시장
계시
계원
계유
계양
계훈
계엄
계셨
계성군
계시는
계은숙
고의
고호
고씨
고트
고모
고루
고건
고미
고국
고제
고무
고영
고레
고분
고남
고경
고강
고석
고생
고찰
고디
고젠
고손
고척
고운
고열
고착
고귀
고혜
고추
고뇌
고칠
고켄
고지를
고제가
고문을
고쳤다
고정의
고부가
고종의
고야마
고향을
고이치
고타마
고쿠라
고연수
고의로
고재성
고품격
고기압의
곡사
곡에
곡이다
곡들은
곡들을
곤두
곤스케
골드
골인
골디
골뱅
곳은
곳이며
곳곳에서
곳곳을
공빈
공세
공안
공은
공과
공병
공소
공포
공조
공양
공제
공무
공진
공영
공리
공청
공백
공후
공판
공룡
공장은
공군은
공부의
공부를
공군이
공장의
공적을
공세에
공조가
과는
과시
과민
과산
과분
과격
과잉
과장과
과제는
과반을
과목을
곽개
곽영주
관문
관산
관백
관점
관음
관례
관하여
관장이
관직을
관세법
괄목
광장
광서
광해
광진
광덕
광장과
광대한
광물을
광경을
광지회
괴소
괴테
괴롭
괴뢰
괴문서를
교전
교의
교민
교정
교부
교제
교각
교란
교차
교신
교장을
교사가
교사로
교회는
교차로
구장
구스
구세
구도
구해
구름
구강
구청
구슬
구걸
구에서
구했다
구하는
구제의
구데르
구애를
구하려는
구가게
구설에
구동하는
국악
국사
국외
국도
국유
국보
국포
국수
국물
국어
국반
국책
국향
국장은
국적이고
국비가
국경에
국면에
국적의
국카스
국호인
국력의
군정
군과
군국
군제
군청
군중
군림
군함
군에서는
군대로
군대에
군공항
군인을
군비를
군정의
군단은
군대는
군주를
군정에
군립중앙도서관
군부대신
굳이
굳게
굴절
굴지의
궁내
궁극
궁으로
권장
권현
권산
권역
권창
권리
권면
권광
권순
권율
권총
권칠
권리에
권위의
귀빈
귀도
귀스타
규현
규합
규범
규슈
규정을
규제가
그들
그람
그리는
그나이
그라운드
그곳에
그라스
그밖에
그들이다
그영향
그다지
그야말로
극동
극히
극진
극적으로
극심한
근육
근절
근녕
근절을
근거리
근간을
글이
글에
글러
글에서
글러스터
금자
금치
금파
금아
금년
금상
금방
금와
금감
금태
금할
금관
금난
금맥
금상을
금품을
금액을
급히
급감
급식
급여
급강
급으로
급등한
기이
기마
기가
기민
기정
기동
기기
기즈
기우
기표
기만
기분
기적
기차
기숙
기슈
기림
기금
기압
기옌
기사를
기사는
기사로
기금을
기적을
기네스
기사화
기종을
기사에
기점으로
기렸고
기무라
기운을
기발한
긴키
긴고
긴즈
긴장의
긴밀히
길에
길티
길렀
김화
김애
김국
김록
김교
김황
김면
김길
김여
김법
김신
김백
김극
김운
김책
김초
김웅
김숭
김철수
김씨가
김주택
김조한
김인식
김함의
김요한
김중수
깊어
깨기
깨한
꺾은
꾸려
끈다
끝맺
끝났다
끝나기
끝났고
끝나게
끼는
끼친
끼쳤다
나해
나기
나를
나상
나코
나범
나구
나빠
나빌
나얀
나팔
나얼
나라는
나서는
나가는
나르는
나시오
나디아
나루에
낙하
낙동
낙향
난다
난드
난투
난중
난카이
난이라고
난항을
날씨
날아
날짜
남악
남을
남의
남이
남과
남포
남인
남측
남제
남송
남녀
남택
남았다
남자의
남도의
남기는
남부에
남구는
남기지
남경환
남한의
남한을
남봉길
남우주연
남호정
납득
났는데
낭시
낭트
낭독
낮추고
내는
내민
내연
내수
내게
내우
내역
내렸
내내
내구
내라
내몽
내몰
내었다
내정을
내부의
내린다
내레이션
내일은
내전으로
내리게
내리기
내원한
내면에
너머
넓고
넓혔다
넘지
넘쳐
넘버
넘긴
넘보는
넘기고
넣으면
네로
네빌
네임을
네슬레
년도
년도에
노하
노도
노건
노령
노오
노경
노블
노량
노련
노빅
노리고
노동을
노고를
노씨의
노수현
노진의
노고에
노론의
노홍철
노장구
노두섭
녹림
녹스의
녹십자
논개
놀랐
농사
농정
농부
농산
농가는
농단의
농축산식품
농생물
농학박사
높을
높고
높인
높게
높았다
높이는
뇌동
뇌터
누기
누미
누명과
눈의
눈치
눈여
뉘른
뉴트
뉴캐슬
느이
느슨
느다고
늘릴
능동
능하는
늦었다
니네
니코
니즈
니케
니앙
니시키
니미츠
니테로
닌토
닛신
다고
다현
다를
다메
다얀
다윈
다툰
다하고
다하게
다리를
다하자
다이나
다리로
다비치
다해주
다무라
다변화
다연장
다행히
단막
단호
단골
단대
단말
단국
단결
단경
단광
단종
단속
단편
단장을
단과대학
단위에서
단행한
단기적
달고
달기
달인
달게
달랑
달린
달래
달했다
달하고
달았다
달라이
달리고
달리는
달성을
달성군
달랐다
담시
담임
담보
담근
담화는
답중
닷지
당이
당할
당적
당혹
당첨
당으로
당하고
당하는
당하였고
당원의
당사에서
당명으로
당신의
당당하고
당연히
당대회에
당나라는
대자
대당
대위
대치
대세
대고
대명
대일
대를
대수
대용
대축
대내
대여
대출
대손
대목
대함
대피
대웅
대곤
대하는
대사를
대회사
대장으로
대사가
대사는
대도시
대정부
대제가
대왕의
대사로
대안을
대제의
대원으로
대군을
대지의
대패를
대가로
대원군
대담을
대나무
대위가
대대장
대만으로
대행이
대명사
대준이
더발
더빙
더딘
더하여
더한다
더페스트
더군다
덕이
덕자
덕에
덕칠
덕담을
던밀
던졌다
던지는
덜어
덜레스
덜레스는
데비
데르
데쓰
데런
데다가
데스테
덴하
덴노
덴무
덴분
델슨
도하
도다
도의
도이
도자
도니
도가
도안
도주
도고
도화
도명
도를
도조
도산
도노
도양
도나
도광
도종
도승
도망
도출
도래
도피
도에서
도레이
도약을
도의를
도스토
도카이도
도왔고
도덕을
도경완
도왔지만
도탄에
도순찰사
독이
독창
독촉
독특
독재를
돈키
돈이
돈으로
돌기
돌발
돌출
돌렸고
돕도록
동시
동박
동요
동진
동력
동청
동으로
동력이
동시대
동전의
동덕여
동인인
동인천
동의가
동인들은
동등한
동교동
돼서
됐고
됐는데
됐다고
되살
되게
되기도
됨과
됨으로써
두다
두막
두웨
두드
두유
두만
두개
두형인
둘을
둘이
뒤인
뒤바
뒤지고
뒤로는
뒤스부르크
뒷배로
듀스
듀란트
드로
드문
드베
드리스
드로나
드리는
드레스
드론을
득이
득세
듣겠다
들인
들게
들면
들먹
들리는
들었다고
등재
등장으로
디안
디터
디카
디엔
디페
디보스
디플로
딕슨
딜스
따름
따졌다
딸의
딸과
딸기
딸이다
딸들은
딸이며
딸기에
땅을
땅콩
땅으로
때로는
때였는데
때때로
떠났
떠올
뛰던
라모
라르
라테
라나
라만
라형
라흐
라커
라밀리
라피트
라네즈
란사
란투
란티스
랍바니
래미
래츠
랜드
랜싱
랜디
랩을
랩터스
랭크
랭턴
러더
레시
레호
레빈
레가
레아
레기
레비
레슨
레예
레몽
레뱅
레옹
레가의
레비치
레스토
레기아
로의
로에
로서
로트
로타
로그
로보
로바
로베
로버
로컬
로달
로렌
로비를
로터스
로레알
로스티슬라
록서
록히
롤모델
롯카쿠
루키
루안
루디
루앙
루레이
루비아
루치아
루분투
루슨트
루퍼트
룰라
뤄젠
뤼디
뤼케이
뤼네부르크
뤼베크
류현
류구
류스케
류리크
류인수
류준열
류상구
르레
리세
리먼
리한
리산
리요
리노
리코
리영
리계
리브
리츠
리뷰
리추
리딩
리얼
리듬
리켄
리사가
리세의
리즈베
리세이
리스트를
리소나
리치쿠
리커버
릭터
린킨
릴리
릴레이
마장
마천
마모
마비
마야
마카
마데
마숙
마중
마술
마츠
마슈
마더
마샤
마켓
마흔
마늘
마릴
마우스
마약을
마리우스
마스카
막는
막으려
막걸리
만다
만루
만드
만흥
만류
만월
만듭
만능
만주의
만이며
만발한
만덕동
많고
많지
많다는
말로
말려
말단
말레
말린
말라
말하였다
말부터
말라고
말하면서
말산업
말하면
말머리를
맛녀
맛있게
망국
망하면
맞을
맞지
맞서는
맞추어
맞았으나
맡을
맡으며
맡기도
맡겼다
맡았으며
맡으면서
맡기고
매트
매너
매덕
매력을
매기는
매니지
맥키
맥기
맥케이
맥키스
맥그리
맨유
맨틀
맹성
맹달
맺으면서
머리스
먹던
먹었다
먹었다고
멋지다
메세
메간
메구
메밀
메리는
멘트를
멜로
멜리나
멜코르
며칠
면장
면치
면제
면담을
면적이
면모를
면밀히
멸구
명장
명과
명기
명상
명종
명망
명량
명쾌
명에서
명이라고
명부에
명단과
명필름
명단에서
명동민
모을
모치
모들
모독
모노
모태
모창
모면
모차
모킹
모계
모험
모잠
모녀
모친
모였다
모비스
모드로
모종의
모하마
모정이
모티브
모타운
모셨다
모호크
모리오카
모조리
목민
목동
목조
목릉
목종
목함
목욕
목사는
목사와
목마르
목적이
몬토
몬테네
몰트
몰수
몰려
몰살
몰리며
몰도바
몸이
못말
못했다고
못하자
못하면
못했으나
못한다면
몽염
묘역을
묘령의
무자
무실
무언
무정
무게
무왕
무종
무디
무질
무솔
무난
무더
무참
무능
무리가
무가의
무기와
무지부
무용을
무로마
무어스
무능력
무리한
무고한
무상으로
무과에
무차별
무증상이
묵시
묵인
문치
문씨
문부
문준
문지
문병
문영
문왕
문석
문극
문득
문자를
문안을
문서를
문신을
문경환
문소리
문과에
문종과
묻혀
묻혔다
묻겠다
묻지도
물고
물병
물질
물금
물었고
물자를
물량이
뮤트
뮤리
뮤트의
미아
미해
미토
미합
미평
미우
미오
미쳐
미워
미처
미팅
미칠
미군의
미스티
미군을
미치오
미만의
미치지
미즈노
미미한
미숙한
민화
민애
민진
민통
민스크
민심을
민원과
민씨는
민방위
민심의
믿을
믿음
믿음을
밀정
밀월
밀착
밀폐
밀모자
밑바
바빠
바램
바쿠
바빌
바클
바커
바첼
바닥
바툴
바쁘
바치는
바비치
바빌로
박트
박세
박민
박명
박소
박보
박우
박제
박갑
박덕
박귀
박향
박춘
박씨의
박창수
박경환
박명희
박용준
박한이
박현주
박한기
박새로
박혜영
밖의
반다
반을
반성
반가
반동
반년
반데
반증
반하여
반군을
반자본
반재경
반즐리
받들
받쳐
받도록
받기도
받다가
받으려고
발자
발부
발과
발병
발령
발인
발열
발부했다
밝은
밝고
밝게
방민
방공
방해
방화
방산
방면
방데
방덕
방복
방열
방울
방응
방지에
방비를
방식의
방면에서
방윤혁
방북한
배가
배양
배진
배관
배급
배덕
배중
배웅
배상을
배당을
배경에
배트맨
배준열
배스킨
배아줄
백원
백정
백현
백업
백경
백구
백송
백월
백색
백반
백련
백부인
밸포
밸푸
버드
버르
버코
버터
버턴
버넷
버스터
버러스
버코프
버전은
버전으로
버질의
번호
번번
번복
번주의
번졌다
번영의
벌기
벌레
벌여
벌이며
벌였으며
범유
범인으로
범주에
법화
법상
법으로
법적인
법인의
법안을
법원에
법안이
법안과
베치
베언
베드
베지
베어
베카
베갈
베라
베더
베셀
베컴
베풀
베딩
베넨
베스티
베네스
베스파
베티스
벤타
벨트
벨라를
벼의
벼락
벽파
변씨
변으로
변하게
변이가
변화에
변함이
변상욱
별의
별이
별세
별명을
별자리
병이
병에
병진
병길
병원을
병원에서
병력과
병마절도
보은
보로
보루
보드
보그
보람
보영
보관
보신
보러
보편
보았
보한다
보는데
보상을
보였던
보기도
보이나
보기로
보직을
보기는
보았고
보전에
보너스
보증을
보즈네
보츠와
복장
복수
복직
복신
복녕
복장을
복수의
복무를
본성
본지
본인
본관
본사가
본사는
본인을
본부에
본인과
본터스
본연의
볼가
볼로
볼때
볼거리를
봄여름
봉천
봉씨
봉건
봉오
봉형
봉하였다
봉사를
봤는데
부성
부가
부드
부재
부평
부결
부황
부리
부름
부설
부질
부러
부검
부추
부폰
부닥
부렸다
부제가
부도로
부서를
부식이
부대가
부장관
부당한
부츠를
부장이었던
부경대
부교장에
부작용
북진
북남
북경
북송
북장로
북유럽
북감리교
분사
분서
분가
분적
분광
분장을
분들과
분명한
분산을
불사
불에
불스
불공
불우
불태
불발
불신
불매
불량
불확
불륜
불렸다
불화를
불안을
불스에
불화와
불화로
불연속
붕가
뷔르템베르크
뷰트
뷰캐
뷰티아
브뷔
브람
브랙
브리스
브락을
브라이스
블록
블레
블런
블랭
블룸
블리스
블레인
블라이스
비사
비자
비당
비호
비스
비가
비아
비로
비문
비지
비를
비요
비단
비야
비석
비엘
비셀
비핵
비도시
비리의
비겼다
비트의
비평가
비용을
비자금
비운을
비호로
비서의
비자금을
비주얼
비전인
비쟁점
빅3
빈대
빈번
빈집
빈에서
빈없는
빌려
빌레
빌딩
빌미를
빙애를
빚을
빚던
빚어
빚기도
빛남
빛낸
빛고을
빠르고
빠졌고
빠졌다고
뽀식이
뽑히
뿌링
뿌야의
사하
사을
사의
사천
사당
사외
사서
사산
사와
사면
사내
사적
사범
사헌
사담
사격
사량
사엘
사림
사택
사흘
사적으로
사라이
사자가
사명을
사당이
사임을
사나다
사원으로
사단은
사스케
사천시
사위는
사상은
사정이
사부로
사상에
사안에
사단과
사형을
사토르
사연이
사파르
사재기
사베리아
삭스
삭발을
산다
산시
산에
산실
산포
산수
산청
산울
산탄
산촌
산둥
산맥
산티아
살게
살레
살비아
살리기
살보면
삶에
삼시
삼당
삼가
삼공
삼프
삼일
삼보
삼선
삼진
삼바
삼신
삼덕
삼존
삼예
삼서초등학교
삼산도서관
상이
상시
상해
상동
상소
상근
상경
상디
상앙
상반
상쇄
상의를
상도로
상대는
상정한
상처를
상수도
상하수도
새청
새봄
새여수
샌드
샌디
샌프란시스코
샘프
샘플
생막
생가
생기
생리
생길
생생
생명을
생명의
생겼다
생전에
생화학자
샤의
샤이
샤시
샤먼
샤워
샤론
샤이크
서자
서서
서은
서간
서언
서현
서준
서미
서수
서방
서산
서진
서강
서석
서3
서계
서중
서복
서돌
서에서
서기를
서자로
서기로
서시장
서민의
서아시아
서보장
서동지
서태후
서한을
서사시
석상
석수
석곡
석경
석촌
석좌
석유화학
선동
선미
선방
선행
선영
선순
선점
선후
선무원
선물을
선데이
선공개
선운중학교
설악
설이
설인
설혜
섬을
섬에
섬세
섬으로
섭취
섭정을
섯클리
섰다
성서
성모
성읍
성기
성수
성제
성진
성만
성완
성규
성북
성금
성녀
성탄
성낙
성으로
성장은
성위원회
성명을
성금을
성원에
성덕왕
성원과
성씨가
성우는
성협의
성실히
성역에서
성접촉
세니
세션
세를
세게
세터
세제
세심
세관
세탁
세훈
세손
세쓰
세금
세컨
세넷
세대를
세스크
세번째
세리오
세상의
세우는
세아트
세션은
세미나
세형제
세시즌을
센시스
셋업
셔츠를
셰바르
셰퍼드
소원
소스
소문
소연
소산
소형
소헌
소음
소더
소총
소맥
소쉬
소흘
소장으로
소위로
소르타
소아시아
소스케
소양왕
소혜왕후
소크라테스
속주
속상
속속
속도는
속출했다
손성
손모
손주
손현
손기
손선
손상
손나
손오
손배
손잡
손으로
손에는
손정은
손다이
손해를
손호영
손히는
손점식
솔저
송유
송일
송산
송창
송출
송파구
쇄도
쇄신
쇠약
쇼고
쇼미
쇼무
쇼지로
수다
수성
수위
수빈
수임
수박
수연
수기
수년
수보
수군
수티
수만
수리
수카
수갑
수취
수매
수련
수풍
수판
수륙
수혈
수위를
수학과
수중에
수단에
수단으로
수교한
수술을
숙빈
숙고
숙창
숙적
숙신
숙목
숙녕
숙소에
순다
순회
순방
순제
순백
순항
순덕
순회사
순위에
순이익
순조의
순차적으로
숨은
숨어
숨어들
숭고
쉬페르
쉽고
슈니
슈마
슈가
슈루
슈르
슈테
슈카
슈엘
슈스터
슈베르트
슈바르
슈타우
슈펠트
슈와르
스마
스가
스은
스파
스드
스물
스투
스탑
스콜
스엠
스킨
스컬
스푸
스쿠
스텐
스캐
스탕
스가는
스마일
스미스
스텔라
슬림
슬퍼
습격을
승하
승을
승니
승천
승원
승용
승률
승승
승복
승리는
승인의
승격을
승상으로
시전
시마
시트
시공
시아
시문
시필
시그
시국
시발
시종
시구
시누
시복
시피
시대로
시도를
시인의
시너지
시리우스
시기의
시정의
시군에
시상은
시인이다
시도는
시도에
시세이
시신이
시점에서
시무스
시베리아
식전
식사
식재
식구
식습
식약
식당을
신립
신호
신서
신간
신해
신진
신발
신희
신돈
신협
신품
신념
신촌
신예
신약
신칸
신장은
신들은
신들을
신나라
신들과
신기술
신임을
신민주주의
신자유
신부가
신조의
신고를
신자들이
신분에
신분을
신운용
신선언
신히로
신제품을
신북면
신광중학교
실사
실이
실은
실업
실감
실레
실리
실라
실존
실추
실명을
실력과
실력으로
실비오
실책이
심곡
심리
심형
심강
심종
심석
심슨
심배
심리학
심사는
심대한
심판을
심해져
심판이
심근경
심당길
심프슨
십분
십시일
싶지
싶어
싶다는
싸운
쌀을
쌀귀
쌍곡
쌓고
쌓여
쌓았으며
쌓으려고
쏘스
쏘라노
쓰지
쓰러
쓰이고
쓰이는
씨제
아을
아민
아임
아토
아부
아명
아람
아까
아비
아랑
아레
아냐
아길
아차
아칼
아순
아펠
아탈
아흐
아츠
아쿠
아약
아쉽
아넬
아싸
아라이
아미르
아달라
아타리
아테나
아에로
아브루
아리오카
악성
악안
악용
악영
악몽
악수를
악화된
악바르
악재를
안다
안을
안주
안기
안소
안되
안두
안희
안톤
안강
안승
안된
안정을
안되는
안보를
안산을
안았으며
안태훈
안준영
안개가
않기
않지만
않겠다
않기로
않다고
알파
알토
알기
알말
알무
알카
알라
알래
알더
알탄
알았다
알리고
알리는
알사이
알디미르
알파인
알자스
알라딘
알무한
알자만
암호를
압송
압수수
앙골
앙그라
앞의
앞선
앞머리를
애치
애도
애셔
애도의
애정과
애비뉴
액상
액수
액튼
앤트맨
앨퍼
앨프리
앱을
야기
야수
야요
야영
야탑
야3
야누
야후
야스타
야당의
야나이
약세
약체
약간의
약사여
양하
양사
양원
양은
양파
양명
양지
양국
양양
양형
양심
양철
양윤
양추
양김
양상을
양국의
양제의
양산시
양성과
양아들
양주군
양영식
양저우
양나라를
얘기에
얘기가
어빈
어스
어업
어그
어산
어게
어나
어번
어처
어색
어반
어쩌
어릴
어르고
어소에서
어소의
어시스트
어을까
억울
억압
언터
언드라
언행을
얻지
얻기
얼터
얼라
얼룩
엄용
업적으로
업계에
업계의
업로드
없기
없던
없으
없으며
없었으며
없습니다
없느냐
없으니
에키
에듀
에조
에티
에바
에번
에콜
에센
에반
에쓰
에곤
에이스
에스티
에스토
에베르트
에리크
에일리
에스테
에시엔
에코시티
엑셀
엑스트
엔의
엔트
엔비
엔터
엔딩
엔터테
엔텔라
엘로
엘살
엘쇼
엘비스
엘라가
엘포인트
엘베그
여하
여는
여명
여소
여흥
여창
여관
여순
여철
여권을
여왕의
여지가
여단의
여왕은
여단과
여전사
여겼던
여겼으며
여담으로
역도
역신
역설
역습
역량이
연을
연가
연일
연산
연근
연창
연못
연패
연봉
연사로
연도를
연기는
연인으로
연대는
연주를
연관이
연패를
연하의
열애
열조
열두
열리
열여
열었고
열리게
열렸으며
염씨
염한
염려
염원을
염홍철
였으며
영세
영준
영지
영등
영변
영혼
영예
영묘
영챔
영적인
영지로
영부인
영역을
영염을
영연방
예거
예호
예외
예토
예일
예우
예레
예견
예금을
예수를
예전에
예수가
예조참판
옌타이
옛말
오성
오자
오니
오치
오아
오로
오해
오크
오연
오기
오보
오포
오노
오비
오윙
오감
오징
오희
오펠
오윤
오센
오금
오삼
오룡
오닐
오렌
오디오
오베르
오르는
오르게
오크스
오타비아
오재원
오구라
옥도
옥과
옥진
옥수수
옥중에서
온사
온도
온조
온상
온정을
온다는
온전한
올그
올렸
올슨
올랜
올릴
옮기기
와해
와인과
완수
완봉
완전자
완승을
완화에
완화는
완차이
왈라
왓슨은
왔고
왔던
왔으며
왔다고
왕당
왕안
왕실
왕지
왕복
왕따
왕림
왕에게
왕자로
왕권을
왕이나
왕자를
왕이었던
왕유식
외주
외화
외정
외대
외산
외식
외신
외숙
외친
외에서
외국의
외교통
외아들
외모로
외출을
외조부
외조부인
외질은
요안
요모
요도
요네
요소
요충
요압
요즘
요삭
요리를
요비아
요인이
요소로
요건을
요시아키
욕살
용맹
용산
용어
용역
용어로
용어를
용어는
용산에
우하
우성
우의
우아
우타
우병
우테
우완
우찬
우월
우편
우주의
우지원
우정을
우라노
우재학
우시로
우르바
우파인
우물에
우창범
욱일
운정
운반
운페르
울타
울릉
울림
울랄
울리케
움베르토
웃었다
웃음이
웅변
워터
원서
